{
  "acha</w>": 0,
  "vilest</w>": 1,
  "adite": 2,
  "relati": 3,
  "amed</w>": 4,
  "tamates": 5,
  "sarit": 6,
  "eloru": 7,
  "tachab": 8,
  "lathesa": 9,
  "hami": 10,
  "radicali": 11,
  "terested</w>": 12,
  "generates": 13,
  "feli": 14,
  "ingen</w>": 15,
  "had</w>": 16,
  "malic": 17,
  "athed</w>": 18,
  "\u200d": 19,
  "riracha</w>": 20,
  "\ud83e\udee2": 21,
  "era</w>": 22,
  "hiromi": 23,
  "sines</w>": 24,
  "ramire": 25,
  "rerun": 26,
  "hes": 27,
  "oreroom": 28,
  "pot</w>": 29,
  "gheriti's</w>": 30,
  "estic": 31,
  "while</w>": 32,
  "litt.</w>": 33,
  "teral": 34,
  "ich</w>": 35,
  "\ud83d\udcc9": 36,
  "cate</w>": 37,
  "cowen</w>": 38,
  "ats</w>": 39,
  "onex": 40,
  "salami</w>": 41,
  "sali</w>": 42,
  "amy</w>": 43,
  "cating</w>": 44,
  "desic": 45,
  "polaro": 46,
  "derop": 47,
  "\u0e29": 48,
  "reli": 49,
  "cad,</w>": 50,
  "itta": 51,
  "coran": 52,
  "saner</w>": 53,
  "gesh": 54,
  "astex": 55,
  "sha": 56,
  "festi": 57,
  "more</w>": 58,
  "power</w>": 59,
  "\ud83d\ude24": 60,
  "casted</w>": 61,
  "marines,</w>": 62,
  "hilo</w>": 63,
  "desche": 64,
  "atelin</w>": 65,
  "ascha": 66,
  "linesch": 67,
  "madarin</w>": 68,
  "forelo": 69,
  "dalene</w>": 70,
  "merol</w>": 71,
  "belesa": 72,
  "males": 73,
  "vera": 74,
  "colorati": 75,
  "nere": 76,
  "\u00e8": 77,
  "rene</w>": 78,
  "rara</w>": 79,
  "inera": 80,
  "riching": 81,
  "lades</w>": 82,
  "loral": 83,
  "cale</w>": 84,
  "loma": 85,
  "lates</w>": 86,
  "matel": 87,
  "harald</w>": 88,
  "dowel</w>": 89,
  "wither</w>": 90,
  "vi'": 91,
  "ten": 92,
  "cames</w>": 93,
  "film</w>": 94,
  "porati": 95,
  "riteli": 96,
  "damen</w>": 97,
  "mamoo": 98,
  "moma</w>": 99,
  "propel</w>": 100,
  "ramin</w>": 101,
  "milarites</w>": 102,
  "gelan": 103,
  "haterade": 104,
  "\ud83d\ude31": 105,
  "bonestel": 106,
  "chico</w>": 107,
  "ghan</w>": 108,
  "iti's</w>": 109,
  "orolo": 110,
  "oran</w>": 111,
  "thaman</w>": 112,
  "shatta": 113,
  "serenenes": 114,
  "telo</w>": 115,
  "owele": 116,
  "halen</w>": 117,
  "irates</w>": 118,
  "sacoli": 119,
  "genesi": 120,
  "mole": 121,
  "ttab": 122,
  "mest": 123,
  "asham": 124,
  "inerate": 125,
  "chan": 126,
  "devi": 127,
  "ttico": 128,
  "mascope": 129,
  "icalin": 130,
  "\ud83d\udda5": 131,
  "dates,</w>": 132,
  "elam": 133,
  "\ud83c\udf88": 134,
  "amatu": 135,
  "beshel": 136,
  "watever</w>": 137,
  "sattin": 138,
  "li'": 139,
  "sche</w>": 140,
  "laner": 141,
  "tester": 142,
  "viren</w>": 143,
  "race</w>": 144,
  "states": 145,
  "chamomile": 146,
  "larab": 147,
  "dese": 148,
  "alesan": 149,
  "arita</w>": 150,
  "darashe": 151,
  "mest,</w>": 152,
  "rately</w>": 153,
  "aboli": 154,
  "waren": 155,
  "tthin": 156,
  "\ud83c\udf4f": 157,
  "overu": 158,
  "car</w>": 159,
  "operab": 160,
  "devine</w>": 161,
  "somar": 162,
  "gelon</w>": 163,
  "talit": 164,
  "loric": 165,
  "chene": 166,
  "tached</w>": 167,
  "aromas</w>": 168,
  "mesen": 169,
  "camaster</w>": 170,
  "rad</w>": 171,
  "dolero": 172,
  "\ud83e\ude79": 173,
  "peratenes": 174,
  "ited</w>": 175,
  "cooling</w>": 176,
  "asinger</w>": 177,
  "du": 178,
  "sadil": 179,
  "har</w>": 180,
  "mora": 181,
  "oover</w>": 182,
  "larice</w>": 183,
  "amoral": 184,
  "canot</w>": 185,
  "\ud83e\ude84": 186,
  "abori": 187,
  "erines": 188,
  "lorer</w>": 189,
  "hiles.</w>": 190,
  "can</w>": 191,
  "revic": 192,
  "hinge": 193,
  "belitt": 194,
  "tamera</w>": 195,
  "wali</w>": 196,
  "gerasi": 197,
  "wha</w>": 198,
  "esthis</w>": 199,
  "elike</w>": 200,
  "vine": 201,
  "lado": 202,
  "arila": 203,
  "nest.</w>": 204,
  "camin": 205,
  "masher</w>": 206,
  "hilarate</w>": 207,
  "everab": 208,
  "hed</w>": 209,
  "opol": 210,
  "estered</w>": 211,
  "ropo": 212,
  "hatin": 213,
  "domo": 214,
  "opes": 215,
  "esi</w>": 216,
  "machines,</w>": 217,
  "rot</w>": 218,
  "adamal": 219,
  "icou": 220,
  "tabolic": 221,
  "alas.</w>": 222,
  "w</w>": 223,
  "staches</w>": 224,
  "foru": 225,
  "thally</w>": 226,
  "\ud83c\udf1f": 227,
  "mover</w>": 228,
  "\u00f5": 229,
  "tteling": 230,
  "lomerate": 231,
  "merun": 232,
  "sun": 233,
  "tala</w>": 234,
  "scher</w>": 235,
  "morit": 236,
  "ricac": 237,
  "alop": 238,
  "ace</w>": 239,
  "amel": 240,
  "rese</w>": 241,
  "omesch": 242,
  "scold</w>": 243,
  "sarita</w>": 244,
  "arasite": 245,
  "geles.</w>": 246,
  "lesun": 247,
  "bor</w>": 248,
  "ila</w>": 249,
  "acor": 250,
  "ste</w>": 251,
  "enese</w>": 252,
  "ashiro</w>": 253,
  "mit": 254,
  "wares</w>": 255,
  "somor": 256,
  "colated</w>": 257,
  "tterab": 258,
  "poov": 259,
  "belo": 260,
  "chelate": 261,
  "oorit": 262,
  "ateveron": 263,
  "\u00e0": 264,
  "moun": 265,
  "tiresome</w>": 266,
  "adately</w>": 267,
  "old</w>": 268,
  "whe</w>": 269,
  "menela": 270,
  "esing": 271,
  "scopes</w>": 272,
  "licat": 273,
  "laser</w>": 274,
  "loma</w>": 275,
  "esev": 276,
  "don": 277,
  "titt": 278,
  "esan</w>": 279,
  "milating</w>": 280,
  "\u0080": 281,
  "lattered</w>": 282,
  "state</w>": 283,
  "satiric": 284,
  "ta</w>": 285,
  "michelin": 286,
  "atu": 287,
  "sheritt": 288,
  "lasc": 289,
  "\ud835\udc87": 290,
  "astes,</w>": 291,
  "calit": 292,
  "mamatha</w>": 293,
  "dares</w>": 294,
  "coloring": 295,
  "irit.</w>": 296,
  "rast</w>": 297,
  "coraline": 298,
  "vi": 299,
  "delan": 300,
  "deras</w>": 301,
  "teran</w>": 302,
  "ricomolin": 303,
  "i": 304,
  "politan</w>": 305,
  "\u0621": 306,
  "mican</w>": 307,
  "ritates</w>": 308,
  "mamer": 309,
  "ches</w>": 310,
  "deling</w>": 311,
  "festa</w>": 312,
  "oovered</w>": 313,
  "alamor": 314,
  "rara": 315,
  "chases</w>": 316,
  "severin": 317,
  "terattac": 318,
  "abolic": 319,
  "2": 320,
  "erome</w>": 321,
  "mering": 322,
  "arador</w>": 323,
  "mashe": 324,
  "americar": 325,
  "sitted</w>": 326,
  "popero": 327,
  "ghe</w>": 328,
  "iling": 329,
  "olith": 330,
  "chaneles</w>": 331,
  "mamar": 332,
  "\ud835\ude01": 333,
  "\ud835\udc8d": 334,
  "best.</w>": 335,
  "rasing": 336,
  "sevil": 337,
  "moo": 338,
  "ital": 339,
  "ronel": 340,
  "meshes</w>": 341,
  "sharif</w>": 342,
  "dame</w>": 343,
  "abones</w>": 344,
  "dicamil": 345,
  "chi's</w>": 346,
  "felic": 347,
  "pron</w>": 348,
  "ica</w>": 349,
  "mero</w>": 350,
  "sicherit": 351,
  "acabo</w>": 352,
  "olove</w>": 353,
  "mattes,</w>": 354,
  "ror</w>": 355,
  "dames": 356,
  "thamittal": 357,
  "olat</w>": 358,
  "cameli": 359,
  "aland</w>": 360,
  "hatamarathi</w>": 361,
  "deras": 362,
  "derast</w>": 363,
  "latt": 364,
  "at,</w>": 365,
  "vichi": 366,
  "si</w>": 367,
  "itines": 368,
  "\u0089": 369,
  "lili": 370,
  "taloon": 371,
  "operati": 372,
  "ichal": 373,
  "boler</w>": 374,
  "lacher</w>": 375,
  "salami": 376,
  "esa": 377,
  "silex": 378,
  "mami": 379,
  "terin</w>": 380,
  "teresa": 381,
  "olel": 382,
  "\u2011": 383,
  "verone</w>": 384,
  "schat</w>": 385,
  "politely</w>": 386,
  "amil": 387,
  "erop": 388,
  "mitate</w>": 389,
  "\ud83d\ude25": 390,
  "shi's</w>": 391,
  "olace</w>": 392,
  "samir": 393,
  "\ud835\udc95": 394,
  "lestun": 395,
  "milest": 396,
  "opolitic": 397,
  "polis</w>": 398,
  "rale": 399,
  "onesan": 400,
  "satirical": 401,
  "omoo": 402,
  "inests</w>": 403,
  "stala": 404,
  "cameraman</w>": 405,
  "shat</w>": 406,
  "chatu": 407,
  "scatel</w>": 408,
  "cabel</w>": 409,
  "cathing</w>": 410,
  "meshel": 411,
  "escar": 412,
  "alestate</w>": 413,
  "escalates,</w>": 414,
  "chaman": 415,
  "tita": 416,
  "darin</w>": 417,
  "atas": 418,
  "vira": 419,
  "riled</w>": 420,
  "mooring": 421,
  "pomer": 422,
  "pore</w>": 423,
  "tamon": 424,
  "pela</w>": 425,
  "acha": 426,
  "ooli": 427,
  "deler": 428,
  "marich": 429,
  "itesu": 430,
  "foran": 431,
  "rane": 432,
  "aras": 433,
  "atali</w>": 434,
  "scala": 435,
  "ril</w>": 436,
  "terest.</w>": 437,
  "shiro": 438,
  "linen": 439,
  "miled</w>": 440,
  "americas</w>": 441,
  "pesc": 442,
  "ch": 443,
  "\ud83d\udc36": 444,
  "chalice</w>": 445,
  "thin": 446,
  "da</w>": 447,
  "eradicati": 448,
  "lot</w>": 449,
  "riter</w>": 450,
  "1": 451,
  "alori": 452,
  "arel</w>": 453,
  "sene": 454,
  "ramic": 455,
  "taratu": 456,
  "ated</w>": 457,
  "onesing": 458,
  "amescameron</w>": 459,
  "\ud83d\ude2b": 460,
  "verite</w>": 461,
  "desi</w>": 462,
  "\u0dc4": 463,
  "thames,</w>": 464,
  "aren</w>": 465,
  "\u00f6": 466,
  "wasting</w>": 467,
  "matador": 468,
  "camu": 469,
  "tten</w>": 470,
  "ghi</w>": 471,
  "lilith": 472,
  "sasti": 473,
  "elines</w>": 474,
  "hit's</w>": 475,
  "cop</w>": 476,
  "\u30d7": 477,
  "aresu": 478,
  "within</w>": 479,
  "gerou": 480,
  "icadas</w>": 481,
  "masta": 482,
  "whalin": 483,
  "esic": 484,
  "\ud835\udfed": 485,
  "marines</w>": 486,
  "mace</w>": 487,
  "rithing</w>": 488,
  "nesto</w>": 489,
  "waleri": 490,
  "erica</w>": 491,
  "omitted</w>": 492,
  "athen</w>": 493,
  "dalo": 494,
  "cata": 495,
  "malamu": 496,
  "casterin": 497,
  "monen</w>": 498,
  "stat": 499,
  "wally</w>": 500,
  "gune": 501,
  "iti'": 502,
  "\u1d43": 503,
  "omorow": 504,
  "rated</w>": 505,
  "vily</w>": 506,
  "lescu": 507,
  "sta</w>": 508,
  "oov": 509,
  "lari's</w>": 510,
  "athel": 511,
  "camera</w>": 512,
  "perou": 513,
  "tevis</w>": 514,
  "\u7d9a": 515,
  "qun": 516,
  "adines</w>": 517,
  "beren": 518,
  "colat": 519,
  "lir</w>": 520,
  "rasted</w>": 521,
  "belabor": 522,
  "resh": 523,
  "licas,</w>": 524,
  "or": 525,
  "onese": 526,
  "\u00d7": 527,
  "ithe</w>": 528,
  "ramones</w>": 529,
  "coop</w>": 530,
  "\ud83e\udd79": 531,
  "sirex": 532,
  "irel": 533,
  "mache": 534,
  "lomerate</w>": 535,
  "thi's</w>": 536,
  "ritate": 537,
  "stache": 538,
  "scherer</w>": 539,
  "ites</w>": 540,
  "he</w>": 541,
  "comer": 542,
  "ola": 543,
  "omasa</w>": 544,
  "sar": 545,
  "tast.</w>": 546,
  "amores</w>": 547,
  "tare</w>": 548,
  "resher</w>": 549,
  "itunes.</w>": 550,
  "alere": 551,
  "caloric": 552,
  "rast.</w>": 553,
  "italo</w>": 554,
  "salac": 555,
  "gelon": 556,
  "amatti</w>": 557,
  "lese": 558,
  "diles,</w>": 559,
  "camalari</w>": 560,
  "wese": 561,
  "lamo": 562,
  "dates.</w>": 563,
  "cheroo</w>": 564,
  "stevi": 565,
  "licu": 566,
  "wala": 567,
  "malesin</w>": 568,
  "boori": 569,
  "adon": 570,
  "sadomas": 571,
  "oril": 572,
  "ororit": 573,
  "pool": 574,
  "ades": 575,
  "esen't</w>": 576,
  "mir": 577,
  "asing": 578,
  "abut</w>": 579,
  "cherithan": 580,
  "mari": 581,
  "ates</w>": 582,
  "\u00a2": 583,
  "icole": 584,
  "roland</w>": 585,
  "proper</w>": 586,
  "matt,</w>": 587,
  "\ud835\udc93": 588,
  "poradic": 589,
  "scored</w>": 590,
  "aler</w>": 591,
  "ateshe": 592,
  "scope": 593,
  "chata</w>": 594,
  "lamorou": 595,
  "ilated</w>": 596,
  "scast</w>": 597,
  "hically</w>": 598,
  "romadu": 599,
  "tingoo": 600,
  "canes</w>": 601,
  "movin</w>": 602,
  "peral": 603,
  "lilad": 604,
  "amated</w>": 605,
  "festering</w>": 606,
  "ering</w>": 607,
  "adela": 608,
  "itate</w>": 609,
  "omes.</w>": 610,
  "mall</w>": 611,
  "oline</w>": 612,
  "marathi</w>": 613,
  "salada": 614,
  "terel": 615,
  "lashes,</w>": 616,
  "rasam</w>": 617,
  "ateli": 618,
  "eras,</w>": 619,
  "rashes</w>": 620,
  "roving": 621,
  "atily</w>": 622,
  "dune</w>": 623,
  "esher": 624,
  "ashi</w>": 625,
  "stas.</w>": 626,
  "ghast,</w>": 627,
  "tili": 628,
  "ittest</w>": 629,
  "itha": 630,
  "hesitating": 631,
  "asis</w>": 632,
  "ham</w>": 633,
  "ro</w>": 634,
  "mater</w>": 635,
  "chila": 636,
  "veric": 637,
  "aches": 638,
  "milad": 639,
  "ating": 640,
  "sas,</w>": 641,
  "ame</w>": 642,
  "doro</w>": 643,
  "dow": 644,
  "satile</w>": 645,
  "miri": 646,
  "ramop": 647,
  "asest</w>": 648,
  "macher": 649,
  "mithe": 650,
  "ilat</w>": 651,
  "oo</w>": 652,
  "icher</w>": 653,
  "alade": 654,
  "chas.</w>": 655,
  "lamar": 656,
  "omase": 657,
  "rera</w>": 658,
  "boromir</w>": 659,
  "amam": 660,
  "aromatically</w>": 661,
  "terate</w>": 662,
  "wami's</w>": 663,
  "masti</w>": 664,
  "'s</w>": 665,
  "eles</w>": 666,
  "scoring": 667,
  "rittines": 668,
  "dover</w>": 669,
  "attere": 670,
  "devil": 671,
  "amala</w>": 672,
  "stam": 673,
  "fev": 674,
  "camel": 675,
  "amel</w>": 676,
  "somen</w>": 677,
  "heral</w>": 678,
  "sicama": 679,
  "ritting</w>": 680,
  "vinger</w>": 681,
  "deres": 682,
  "sara</w>": 683,
  "\ud83e\udd72": 684,
  "darile": 685,
  "elic": 686,
  "romer</w>": 687,
  "atine</w>": 688,
  "!": 689,
  "omas": 690,
  "\u6d41": 691,
  "\ud83d\ude1f": 692,
  "omever": 693,
  "hev": 694,
  "beron": 695,
  "lomatical": 696,
  "shan</w>": 697,
  "hex": 698,
  "ooun": 699,
  "\ud83c\udf5d": 700,
  "aram</w>": 701,
  "licati": 702,
  "eles,</w>": 703,
  "eshine": 704,
  "cowor": 705,
  "hire": 706,
  "eles": 707,
  "omoo</w>": 708,
  "richer</w>": 709,
  "elover</w>": 710,
  "ads</w>": 711,
  "astically</w>": 712,
  "\u26f7": 713,
  "chas": 714,
  "aneste": 715,
  "tamop": 716,
  "\ud83e\udea1": 717,
  "irado": 718,
  "ttered</w>": 719,
  "\u00b4": 720,
  "lattes": 721,
  "adama": 722,
  "maracu": 723,
  "oot</w>": 724,
  "athe</w>": 725,
  "matata": 726,
  "vir</w>": 727,
  "aboring": 728,
  "hal": 729,
  "mer": 730,
  "escher": 731,
  "ashevis</w>": 732,
  "elash": 733,
  "\ud83d\ude0d": 734,
  "washing</w>": 735,
  "runel": 736,
  "cher</w>": 737,
  "oraro</w>": 738,
  "cat</w>": 739,
  "molesting</w>": 740,
  "eran": 741,
  "viti": 742,
  "ropole</w>": 743,
  "\ud835\udfef": 744,
  "shin</w>": 745,
  "hesitate": 746,
  "wascally</w>": 747,
  "lerop": 748,
  "leli</w>": 749,
  "en": 750,
  "tames</w>": 751,
  "ditate": 752,
  "wat": 753,
  "\u9905": 754,
  "doro": 755,
  "saster": 756,
  "derelic": 757,
  "larop": 758,
  "lopes.</w>": 759,
  "lamas</w>": 760,
  "fore</w>": 761,
  "alan</w>": 762,
  "\u00bc": 763,
  "catan</w>": 764,
  "omi's</w>": 765,
  "\ud835\ude00": 766,
  "ine</w>": 767,
  "walen": 768,
  "omi</w>": 769,
  "d": 770,
  "dera": 771,
  "bores.</w>": 772,
  "atilo</w>": 773,
  "amite</w>": 774,
  "hical": 775,
  "\u7d39": 776,
  "anest.</w>": 777,
  "thar</w>": 778,
  "resch": 779,
  "amesc": 780,
  "chirila": 781,
  "taco</w>": 782,
  "adu": 783,
  "aso</w>": 784,
  "lowha": 785,
  "waring": 786,
  "watt": 787,
  "\ud83d\udcfd": 788,
  "hinged</w>": 789,
  "felon": 790,
  "thas</w>": 791,
  "damame": 792,
  "lorele": 793,
  "latten": 794,
  "irene": 795,
  "ilope": 796,
  "\u26a1": 797,
  "iron": 798,
  "dat</w>": 799,
  "eraser": 800,
  "iles.</w>": 801,
  "reshi": 802,
  "abow": 803,
  "derat": 804,
  "teroperab": 805,
  "araded</w>": 806,
  "tering</w>": 807,
  "ratu": 808,
  "achev": 809,
  "lasalice</w>": 810,
  "darit": 811,
  "feline": 812,
  "dicatin</w>": 813,
  "loracha": 814,
  "domitab": 815,
  "maneri": 816,
  "adar": 817,
  "delines": 818,
  "man</w>": 819,
  "coles": 820,
  "sile</w>": 821,
  "reshener</w>": 822,
  "rarac": 823,
  "alopolis</w>": 824,
  "ad</w>": 825,
  "chi'": 826,
  "rate</w>": 827,
  "\u5165": 828,
  "chering</w>": 829,
  "lopen": 830,
  "derel": 831,
  "dingh": 832,
  "riche</w>": 833,
  "iterated</w>": 834,
  "gelatine": 835,
  "ester": 836,
  "olerati": 837,
  "loomin</w>": 838,
  "\u0dbb": 839,
  "testab": 840,
  "dads</w>": 841,
  "mev": 842,
  "elas": 843,
  "\ud83c\udfff": 844,
  "powere": 845,
  "scow": 846,
  "\u95ee": 847,
  "asami": 848,
  "rar": 849,
  "theli": 850,
  "dilo": 851,
  "\uff1a": 852,
  "ested</w>": 853,
  "rador": 854,
  "dunes</w>": 855,
  "hila": 856,
  "ghil": 857,
  "viland</w>": 858,
  "staste</w>": 859,
  "literate</w>": 860,
  "marital</w>": 861,
  "eling</w>": 862,
  "anelis</w>": 863,
  "sitates</w>": 864,
  "scores</w>": 865,
  "tticher": 866,
  "vitaminel": 867,
  "rite</w>": 868,
  "lesan": 869,
  "nestu": 870,
  "dasu": 871,
  "stinen": 872,
  "gelat": 873,
  "scad</w>": 874,
  "tten": 875,
  "rashar": 876,
  "raming": 877,
  "racheler": 878,
  "lowes": 879,
  "coora": 880,
  "aroli</w>": 881,
  "dinel": 882,
  "peratati": 883,
  "waris</w>": 884,
  "\ud835\udc02": 885,
  "merits</w>": 886,
  "olou": 887,
  "bes": 888,
  "rescher": 889,
  "resti": 890,
  "sane</w>": 891,
  "scathed</w>": 892,
  "schaden": 893,
  "charest</w>": 894,
  "iterate</w>": 895,
  "danenes": 896,
  "stamin</w>": 897,
  "derun": 898,
  "madesi": 899,
  "\ud83c\udff0": 900,
  "cooperati": 901,
  "cadil": 902,
  "gheri": 903,
  "ferire": 904,
  "cope": 905,
  "\ud83e\udd56": 906,
  "shache</w>": 907,
  "scald</w>": 908,
  "gestic": 909,
  "olesterol": 910,
  "the": 911,
  "litter</w>": 912,
  "pope": 913,
  "erati": 914,
  "casares": 915,
  "halan": 916,
  "runer": 917,
  "sicalit": 918,
  "mirer</w>": 919,
  "saner": 920,
  "pesch": 921,
  "marili": 922,
  "lo": 923,
  "tatab": 924,
  "neli</w>": 925,
  "geloo": 926,
  "scared</w>": 927,
  "terit": 928,
  "hasan": 929,
  "rolin": 930,
  "lomerates</w>": 931,
  "thesi": 932,
  "loor": 933,
  "hased</w>": 934,
  "elastic": 935,
  "aca</w>": 936,
  "mope": 937,
  "tiring": 938,
  "lattes</w>": 939,
  "come</w>": 940,
  "sterilit": 941,
  "bone</w>": 942,
  "titted</w>": 943,
  "romesa": 944,
  "dithere": 945,
  "tamates</w>": 946,
  "owhile</w>": 947,
  "lasto</w>": 948,
  "scari": 949,
  "verel": 950,
  "elab": 951,
  "dirac": 952,
  "adop": 953,
  "de</w>": 954,
  "racamole": 955,
  "dac": 956,
  "adoo": 957,
  "wald</w>": 958,
  "aradis</w>": 959,
  "ghi's</w>": 960,
  "berab": 961,
  "color</w>": 962,
  "derac": 963,
  "esadil": 964,
  "sito</w>": 965,
  "\ud83d\ude32": 966,
  "maroone": 967,
  "wester": 968,
  "mashab": 969,
  "rami</w>": 970,
  "rescher</w>": 971,
  "amali": 972,
  "ronen": 973,
  "thamesi": 974,
  "ones.</w>": 975,
  "feline</w>": 976,
  "lopes,</w>": 977,
  "in</w>": 978,
  "ores": 979,
  "orical</w>": 980,
  "wesely</w>": 981,
  "devile</w>": 982,
  "chican": 983,
  "ales.</w>": 984,
  "sar</w>": 985,
  "mere</w>": 986,
  "ferol": 987,
  "ened</w>": 988,
  "sthar": 989,
  "states.</w>": 990,
  "tir": 991,
  "casi": 992,
  "bowe": 993,
  "eral": 994,
  "macade": 995,
  "erol</w>": 996,
  "hamada</w>": 997,
  "movi": 998,
  "halop</w>": 999,
  "rolite": 1000,
  "openes": 1001,
  "gesticu": 1002,
  "chamomil": 1003,
  "alilin": 1004,
  "ta": 1005,
  "\ud83e\udd17": 1006,
  "poles,</w>": 1007,
  "colate</w>": 1008,
  "enerating</w>": 1009,
  "dado</w>": 1010,
  "deral": 1011,
  "ticon</w>": 1012,
  "whar": 1013,
  "tis</w>": 1014,
  "ras.</w>": 1015,
  "caren": 1016,
  "char": 1017,
  "datacon": 1018,
  "omater": 1019,
  "lesu": 1020,
  "ilo</w>": 1021,
  "pesto</w>": 1022,
  "ata</w>": 1023,
  "irelan": 1024,
  "\ud83d\udc76": 1025,
  "overesti": 1026,
  "datt</w>": 1027,
  "romu": 1028,
  "rarel": 1029,
  "nesi": 1030,
  "rile": 1031,
  "abel": 1032,
  "cham</w>": 1033,
  "geran": 1034,
  "neris</w>": 1035,
  "deli</w>": 1036,
  "arading</w>": 1037,
  "\ud83d\ude3a": 1038,
  "orar": 1039,
  "ritted</w>": 1040,
  "mores": 1041,
  "ramar": 1042,
  "dorou": 1043,
  "rove</w>": 1044,
  "dicated</w>": 1045,
  "caladon": 1046,
  "whitt": 1047,
  "forestall</w>": 1048,
  "oratti": 1049,
  "vitally</w>": 1050,
  "alab": 1051,
  "comun": 1052,
  "wales": 1053,
  "alal</w>": 1054,
  "chit,</w>": 1055,
  "mates.</w>": 1056,
  "perating</w>": 1057,
  "resa</w>": 1058,
  "bune</w>": 1059,
  "liched</w>": 1060,
  "core": 1061,
  "q": 1062,
  "opom": 1063,
  "diner": 1064,
  "boole": 1065,
  "berali": 1066,
  "oler": 1067,
  "dilop": 1068,
  "ilever</w>": 1069,
  "test.</w>": 1070,
  "caring</w>": 1071,
  "\ud83c\udfe6": 1072,
  "withal</w>": 1073,
  "haram</w>": 1074,
  "schir": 1075,
  "hiring": 1076,
  "prowes": 1077,
  "vich</w>": 1078,
  "vite</w>": 1079,
  "lames,</w>": 1080,
  "generalit": 1081,
  "aroo</w>": 1082,
  "iches.</w>": 1083,
  "tal": 1084,
  "\uf0b7": 1085,
  "gelin</w>": 1086,
  "silenesc": 1087,
  "\u2019": 1088,
  "elabop": 1089,
  "coolest.</w>": 1090,
  "hatu": 1091,
  "abor": 1092,
  "boro</w>": 1093,
  "\u00a9": 1094,
  "hab": 1095,
  "erin": 1096,
  "theradi": 1097,
  "abolical</w>": 1098,
  "abes,</w>": 1099,
  "ovich</w>": 1100,
  "maserati": 1101,
  "bolical": 1102,
  "comes.</w>": 1103,
  "roopesh": 1104,
  "gerate</w>": 1105,
  "lamor</w>": 1106,
  "aster": 1107,
  "cathi": 1108,
  "yout</w>": 1109,
  "wasta": 1110,
  "aliti": 1111,
  "deru": 1112,
  "don't</w>": 1113,
  "\ud83d\udd17": 1114,
  "aleri</w>": 1115,
  "catt": 1116,
  "seli": 1117,
  "arov": 1118,
  "sica</w>": 1119,
  "con": 1120,
  "ering": 1121,
  "ricanes": 1122,
  "resi": 1123,
  "lascow": 1124,
  "mila": 1125,
  "\u0084": 1126,
  "olithic": 1127,
  "tacam</w>": 1128,
  "\u009f": 1129,
  "wand</w>": 1130,
  "dateline</w>": 1131,
  "lesca": 1132,
  "evilas": 1133,
  "pro": 1134,
  "thasi": 1135,
  "aby</w>": 1136,
  "derate</w>": 1137,
  "rooler": 1138,
  "oovering</w>": 1139,
  "tamarin": 1140,
  "rowh": 1141,
  "tara": 1142,
  "esele": 1143,
  "camel</w>": 1144,
  "hattan": 1145,
  "tilan": 1146,
  "abes</w>": 1147,
  "dun": 1148,
  "chen</w>": 1149,
  "ela</w>": 1150,
  "relating</w>": 1151,
  "whined</w>": 1152,
  "everest": 1153,
  "test": 1154,
  "derevi": 1155,
  "hi</w>": 1156,
  "rover</w>": 1157,
  "elala</w>": 1158,
  "latan</w>": 1159,
  "oradou": 1160,
  "stares</w>": 1161,
  "dica": 1162,
  "olane": 1163,
  "daro": 1164,
  "scac": 1165,
  "lamas,</w>": 1166,
  "erat": 1167,
  "relate</w>": 1168,
  "oliti": 1169,
  "scaled</w>": 1170,
  "bolan</w>": 1171,
  "bowen": 1172,
  "dicover</w>": 1173,
  "atharin": 1174,
  "\u0dd2": 1175,
  "r</w>": 1176,
  "domat": 1177,
  "chastit": 1178,
  "terall</w>": 1179,
  "ttabou": 1180,
  "dadoun": 1181,
  "cabo</w>": 1182,
  "whatt": 1183,
  "elite": 1184,
  "siti": 1185,
  "atali": 1186,
  "rata": 1187,
  "cadu": 1188,
  "withering": 1189,
  "matthe": 1190,
  "op": 1191,
  "gested</w>": 1192,
  "\u00eb": 1193,
  "sites,</w>": 1194,
  "ichiro</w>": 1195,
  "radora</w>": 1196,
  "sanes</w>": 1197,
  "te": 1198,
  "virone": 1199,
  "penel": 1200,
  "ralin": 1201,
  "stthin": 1202,
  "latto</w>": 1203,
  "lal": 1204,
  "dames,</w>": 1205,
  "vitat": 1206,
  "run": 1207,
  "itab": 1208,
  "omori": 1209,
  "mical</w>": 1210,
  "marath": 1211,
  "daly</w>": 1212,
  "pelo": 1213,
  "roow": 1214,
  "latin": 1215,
  "atin": 1216,
  "morally</w>": 1217,
  "matiti": 1218,
  "came": 1219,
  "ralit": 1220,
  "vero": 1221,
  "sticate": 1222,
  "terer</w>": 1223,
  "ferat</w>": 1224,
  "opro": 1225,
  "ameles": 1226,
  "lattest,</w>": 1227,
  "devili": 1228,
  "owheres</w>": 1229,
  "dab": 1230,
  "hast": 1231,
  "lowes.</w>": 1232,
  "\u00e4": 1233,
  "wadal": 1234,
  "ticating</w>": 1235,
  "o</w>": 1236,
  "viras.</w>": 1237,
  "dash": 1238,
  "mingham</w>": 1239,
  "comon": 1240,
  "ticore</w>": 1241,
  "shari": 1242,
  "chari": 1243,
  "ovit": 1244,
  "dicates": 1245,
  "coroner</w>": 1246,
  "bu": 1247,
  "rescore": 1248,
  "lama": 1249,
  "pest</w>": 1250,
  "mamen": 1251,
  "italit": 1252,
  "taril": 1253,
  "ittered</w>": 1254,
  "am</w>": 1255,
  "amenese</w>": 1256,
  "cache": 1257,
  "\u30e1": 1258,
  "\ud83e\udd73": 1259,
  "hamam</w>": 1260,
  "resco": 1261,
  "heromones,</w>": 1262,
  "\ud83c\udf4c": 1263,
  "tiles.</w>": 1264,
  "heli": 1265,
  "corate</w>": 1266,
  "cares,</w>": 1267,
  "telil": 1268,
  "gerald</w>": 1269,
  "wering</w>": 1270,
  "\\n": 1271,
  "omached</w>": 1272,
  "morelan": 1273,
  "\u30b9": 1274,
  "rescu": 1275,
  "rooned</w>": 1276,
  "bovi": 1277,
  "ser</w>": 1278,
  "elex": 1279,
  "master</w>": 1280,
  "dicaris</w>": 1281,
  "rads</w>": 1282,
  "cales,</w>": 1283,
  "milat": 1284,
  "icolast": 1285,
  "sicasi": 1286,
  "tele": 1287,
  "moliti": 1288,
  "esther</w>": 1289,
  "gele": 1290,
  "iru": 1291,
  "peroli</w>": 1292,
  "amines</w>": 1293,
  "arasite</w>": 1294,
  "\ud83e\uddd0": 1295,
  "hilate": 1296,
  "militated</w>": 1297,
  "inerat": 1298,
  "whith": 1299,
  "dica</w>": 1300,
  "icates</w>": 1301,
  "orest</w>": 1302,
  "roper</w>": 1303,
  "silen": 1304,
  "gera": 1305,
  "roomi": 1306,
  "achi": 1307,
  "damato</w>": 1308,
  "ger</w>": 1309,
  "danes</w>": 1310,
  "rathall</w>": 1311,
  "eses</w>": 1312,
  "sicab": 1313,
  "wades</w>": 1314,
  "hine": 1315,
  "tha": 1316,
  "lesi": 1317,
  "sarily</w>": 1318,
  "itir</w>": 1319,
  "tites.</w>": 1320,
  "ticalas": 1321,
  "peric": 1322,
  "talope</w>": 1323,
  "esch</w>": 1324,
  "ittest,</w>": 1325,
  "\u062a": 1326,
  "elaborately</w>": 1327,
  "some</w>": 1328,
  "dile</w>": 1329,
  "adal</w>": 1330,
  "abolically</w>": 1331,
  "chalan": 1332,
  "scate</w>": 1333,
  "molester</w>": 1334,
  "\ud83e\udd57": 1335,
  "perita</w>": 1336,
  "arene</w>": 1337,
  "sever</w>": 1338,
  "icor": 1339,
  "shara</w>": 1340,
  "asic": 1341,
  "sterit": 1342,
  "porer</w>": 1343,
  "hatten</w>": 1344,
  "\ud83d\udd3a": 1345,
  "loran</w>": 1346,
  "ghast.</w>": 1347,
  "omine": 1348,
  "corol": 1349,
  "loom</w>": 1350,
  "ttall</w>": 1351,
  "bestt": 1352,
  "vilit": 1353,
  "\u00f2": 1354,
  "datto</w>": 1355,
  "orer</w>": 1356,
  "polite": 1357,
  "\ud83d\udc1d": 1358,
  "wastelan": 1359,
  "tinge": 1360,
  "ener": 1361,
  "gerori": 1362,
  "whichever": 1363,
  "wasco</w>": 1364,
  "ses": 1365,
  "adero": 1366,
  "whatever": 1367,
  "laring": 1368,
  "ascor": 1369,
  "shacu": 1370,
  "if</w>": 1371,
  "acat": 1372,
  "adoring": 1373,
  "shines</w>": 1374,
  "rooner</w>": 1375,
  "derama": 1376,
  "domal": 1377,
  "bora": 1378,
  "alon": 1379,
  "comicon</w>": 1380,
  "what": 1381,
  "proo": 1382,
  "opero": 1383,
  "catac": 1384,
  "wal": 1385,
  "rerou": 1386,
  "esh": 1387,
  "liliter</w>": 1388,
  "roop": 1389,
  "hinest": 1390,
  "lope</w>": 1391,
  "lering": 1392,
  "roomu": 1393,
  "ropes": 1394,
  "evil</w>": 1395,
  "sesed</w>": 1396,
  "poles</w>": 1397,
  "orates": 1398,
  "alite</w>": 1399,
  "chi": 1400,
  "\ud83d\udc68": 1401,
  "latab": 1402,
  "sest": 1403,
  "amesel": 1404,
  "\ud83e\udd2d": 1405,
  "chel": 1406,
  "moore</w>": 1407,
  "ratten": 1408,
  "mites</w>": 1409,
  "ili</w>": 1410,
  "ope</w>": 1411,
  "prome": 1412,
  "ooler": 1413,
  "tilateral</w>": 1414,
  "ilov": 1415,
  "tamer</w>": 1416,
  "wasa</w>": 1417,
  "acot</w>": 1418,
  "latha": 1419,
  "sticu": 1420,
  "mamereric": 1421,
  "ite": 1422,
  "adamas": 1423,
  "ritating</w>": 1424,
  "perilou": 1425,
  "operates</w>": 1426,
  "radam": 1427,
  "chili</w>": 1428,
  "adoo</w>": 1429,
  "arache": 1430,
  "erasing": 1431,
  "led</w>": 1432,
  "malev": 1433,
  "ilane": 1434,
  "testines": 1435,
  "gesever": 1436,
  "leri": 1437,
  "atene": 1438,
  "ari's</w>": 1439,
  "alatica</w>": 1440,
  "domy</w>": 1441,
  "masu": 1442,
  "\ud835\ude02": 1443,
  "oman</w>": 1444,
  "moleste": 1445,
  "carameli": 1446,
  "sis</w>": 1447,
  "atica</w>": 1448,
  "esil": 1449,
  "desh": 1450,
  "derer": 1451,
  "chically</w>": 1452,
  "loned</w>": 1453,
  "lingering</w>": 1454,
  "ilic": 1455,
  "+": 1456,
  "dever": 1457,
  "\ud83c\udfd7": 1458,
  "wall</w>": 1459,
  "pored</w>": 1460,
  "irot</w>": 1461,
  "amasa": 1462,
  "attal": 1463,
  "litta": 1464,
  "sabou": 1465,
  "fever": 1466,
  "covic": 1467,
  "oram</w>": 1468,
  "hamil": 1469,
  "veru": 1470,
  "\u5009": 1471,
  "ril": 1472,
  "nelope</w>": 1473,
  "over": 1474,
  "ratto</w>": 1475,
  "desal": 1476,
  "pestu": 1477,
  "doole": 1478,
  "acu": 1479,
  "res,</w>": 1480,
  "orand</w>": 1481,
  "lera": 1482,
  "inese": 1483,
  "chales</w>": 1484,
  "merely</w>": 1485,
  "radar</w>": 1486,
  "peso</w>": 1487,
  "dashed</w>": 1488,
  "cool</w>": 1489,
  "vitate</w>": 1490,
  "amaran": 1491,
  "tamo": 1492,
  "berating": 1493,
  "scalab": 1494,
  "\ud835\udc8f": 1495,
  "\ud83d\udc9e": 1496,
  "pov": 1497,
  "bela": 1498,
  "la": 1499,
  "molo": 1500,
  "lowering</w>": 1501,
  "chale": 1502,
  "elerating</w>": 1503,
  "relan": 1504,
  "wheres</w>": 1505,
  "stashing</w>": 1506,
  "oune": 1507,
  "\ud83c\udde8": 1508,
  "anesa": 1509,
  "sines": 1510,
  "\uff0a": 1511,
  "mad</w>": 1512,
  "thero": 1513,
  "per</w>": 1514,
  "mirama": 1515,
  "tamales</w>": 1516,
  "calamine</w>": 1517,
  "revile</w>": 1518,
  "nex": 1519,
  "vitalic": 1520,
  "stica": 1521,
  "adone": 1522,
  "estar</w>": 1523,
  "lined</w>": 1524,
  "tamic": 1525,
  "scout</w>": 1526,
  "shalou": 1527,
  "tara</w>": 1528,
  "oola</w>": 1529,
  "resale</w>": 1530,
  "enel</w>": 1531,
  "aser": 1532,
  "dori": 1533,
  "datu": 1534,
  "coov": 1535,
  "bore": 1536,
  "reles": 1537,
  "cad</w>": 1538,
  "astas.</w>": 1539,
  "tachi": 1540,
  "aschen": 1541,
  "orate": 1542,
  "lasts</w>": 1543,
  "forated</w>": 1544,
  "heres.</w>": 1545,
  "\ud835\ude22": 1546,
  "gelica": 1547,
  "ali'": 1548,
  "lestat</w>": 1549,
  "esca": 1550,
  "raril": 1551,
  "aroma": 1552,
  "\u2b55": 1553,
  "lool": 1554,
  "sheri</w>": 1555,
  "marit</w>": 1556,
  "madal": 1557,
  "romou": 1558,
  "\u23ec": 1559,
  "terate": 1560,
  "latter": 1561,
  "ir</w>": 1562,
  "iterate": 1563,
  "tastar": 1564,
  "scares,</w>": 1565,
  "terab": 1566,
  "oles": 1567,
  "stal": 1568,
  "tashed</w>": 1569,
  "dowh": 1570,
  "steri": 1571,
  "opor": 1572,
  "chatila</w>": 1573,
  "sattire": 1574,
  "mero": 1575,
  "amascope</w>": 1576,
  "resher": 1577,
  "mathi": 1578,
  "\u270a": 1579,
  "itinerari": 1580,
  "dicates.</w>": 1581,
  "col": 1582,
  "olabu": 1583,
  "\ud83e\udd16": 1584,
  "tering": 1585,
  "shirow</w>": 1586,
  "\u270d": 1587,
  "sth": 1588,
  "\u262f": 1589,
  "enerate</w>": 1590,
  "\u00aa": 1591,
  "dine": 1592,
  "hesitan": 1593,
  "estare": 1594,
  "rowen</w>": 1595,
  "testic": 1596,
  "roomy</w>": 1597,
  "scan": 1598,
  "habof</w>": 1599,
  "olerat</w>": 1600,
  "genes,</w>": 1601,
  "rachan</w>": 1602,
  "whitth": 1603,
  "calab": 1604,
  "stt": 1605,
  "severes.</w>": 1606,
  "lowest": 1607,
  "scam</w>": 1608,
  "penelope</w>": 1609,
  "orow": 1610,
  "halacha</w>": 1611,
  "astti": 1612,
  "ttering": 1613,
  "desi": 1614,
  "inesting</w>": 1615,
  "ghed</w>": 1616,
  "ati</w>": 1617,
  "acham</w>": 1618,
  "u": 1619,
  "licoric": 1620,
  "\uff1c": 1621,
  "caring": 1622,
  "hiles</w>": 1623,
  "dares,</w>": 1624,
  "satelite</w>": 1625,
  "beral</w>": 1626,
  "ooler</w>": 1627,
  "\u00e7": 1628,
  "madeline</w>": 1629,
  "resan</w>": 1630,
  "tat": 1631,
  "thelen</w>": 1632,
  "poler</w>": 1633,
  "tamed</w>": 1634,
  "thache": 1635,
  "eramic": 1636,
  "litin</w>": 1637,
  "icolas</w>": 1638,
  "shines,</w>": 1639,
  "inges,</w>": 1640,
  "bolow": 1641,
  "hittab": 1642,
  "ilitis</w>": 1643,
  "\\ne</w>": 1644,
  "situn": 1645,
  "ghati": 1646,
  "penes": 1647,
  "alestine</w>": 1648,
  "rall</w>": 1649,
  "rore</w>": 1650,
  "\ud83d\ude0c": 1651,
  "lamore": 1652,
  "domes</w>": 1653,
  "lingered</w>": 1654,
  "prole": 1655,
  "deras.</w>": 1656,
  "whitti": 1657,
  "stile</w>": 1658,
  "astical": 1659,
  "esto</w>": 1660,
  "ile": 1661,
  "mares</w>": 1662,
  "\ud83d\udca8": 1663,
  "orine": 1664,
  "perate</w>": 1665,
  "ttingham</w>": 1666,
  "or</w>": 1667,
  "\u535a": 1668,
  "sara": 1669,
  "ded</w>": 1670,
  "like</w>": 1671,
  "radicand</w>": 1672,
  "\ud83c\uddf1": 1673,
  "stating": 1674,
  "cooler": 1675,
  "cades": 1676,
  "within": 1677,
  "lomar": 1678,
  "domiro</w>": 1679,
  "scaly</w>": 1680,
  "ilow</w>": 1681,
  "stasu": 1682,
  "comitan": 1683,
  "enes": 1684,
  "\ud83e\udded": 1685,
  "irest</w>": 1686,
  "iler": 1687,
  "while": 1688,
  "caso</w>": 1689,
  "terori": 1690,
  "mined</w>": 1691,
  "\ud83d\udc7d": 1692,
  "vilenes": 1693,
  "sted</w>": 1694,
  "seshit": 1695,
  "coun": 1696,
  "mon</w>": 1697,
  "wes": 1698,
  "arabe": 1699,
  "omically</w>": 1700,
  "aboricu": 1701,
  "sires": 1702,
  "orol</w>": 1703,
  "males.</w>": 1704,
  "benev": 1705,
  "tites": 1706,
  "beloru": 1707,
  "iri": 1708,
  "sitan": 1709,
  "ge": 1710,
  "alas": 1711,
  "scare": 1712,
  "thic": 1713,
  "peline</w>": 1714,
  "thelon": 1715,
  "scovil": 1716,
  "cowed</w>": 1717,
  "madabou": 1718,
  "hires,</w>": 1719,
  "ichen": 1720,
  "\u0131": 1721,
  "rashes": 1722,
  "caselo": 1723,
  "shevi": 1724,
  "opene": 1725,
  "fili": 1726,
  "calirel": 1727,
  "linen</w>": 1728,
  "verado": 1729,
  "ashame</w>": 1730,
  "abov": 1731,
  "dic": 1732,
  "malac": 1733,
  "cooled</w>": 1734,
  "corating": 1735,
  "belin</w>": 1736,
  "coraline</w>": 1737,
  "revere": 1738,
  "pooned</w>": 1739,
  "\u25aa": 1740,
  "]": 1741,
  "satan": 1742,
  "sali": 1743,
  "sith": 1744,
  "desch</w>": 1745,
  "adelade": 1746,
  "astache": 1747,
  "elac": 1748,
  "lamoo": 1749,
  "rever</w>": 1750,
  "\u00af": 1751,
  "eland</w>": 1752,
  "tesi": 1753,
  "amera": 1754,
  "cowered</w>": 1755,
  "hace</w>": 1756,
  "laderun": 1757,
  "amin</w>": 1758,
  "chasti": 1759,
  "amo</w>": 1760,
  "tamil": 1761,
  "\ud83c\udf5e": 1762,
  "itti</w>": 1763,
  "\u00b6": 1764,
  "cherera</w>": 1765,
  "ire": 1766,
  "f": 1767,
  "esomes</w>": 1768,
  "tadashi's</w>": 1769,
  "nests</w>": 1770,
  "melin": 1771,
  "saloma": 1772,
  "vit": 1773,
  "\ud83e\udd21": 1774,
  "ilitates</w>": 1775,
  "chas</w>": 1776,
  "achanel</w>": 1777,
  "ricade</w>": 1778,
  "erest</w>": 1779,
  "cades.</w>": 1780,
  "rash": 1781,
  "ingu": 1782,
  "ilala": 1783,
  "cali": 1784,
  "hilar": 1785,
  "labored</w>": 1786,
  "shitte": 1787,
  "opo</w>": 1788,
  "lashe": 1789,
  "prom</w>": 1790,
  "\u00a4": 1791,
  "tarun": 1792,
  "somi": 1793,
  "\u30e2": 1794,
  "ttat": 1795,
  "porates</w>": 1796,
  "silo": 1797,
  "\ud83c\udfcc": 1798,
  "tinge</w>": 1799,
  "arines": 1800,
  "pover</w>": 1801,
  "esomely</w>": 1802,
  "astest": 1803,
  "silicon": 1804,
  "camou": 1805,
  "danes.</w>": 1806,
  "devil</w>": 1807,
  "amerad": 1808,
  "olamen": 1809,
  "goola</w>": 1810,
  "morin": 1811,
  "gelato</w>": 1812,
  "olesit": 1813,
  "ites": 1814,
  "olatest</w>": 1815,
  "arad,</w>": 1816,
  "^": 1817,
  "monere": 1818,
  "mach": 1819,
  "singen</w>": 1820,
  "resto</w>": 1821,
  "lones,</w>": 1822,
  "morales,</w>": 1823,
  "nes,</w>": 1824,
  "moun</w>": 1825,
  "labones,</w>": 1826,
  "bolov": 1827,
  "lically</w>": 1828,
  "cateres": 1829,
  "\u00fe": 1830,
  "atas</w>": 1831,
  "bomar": 1832,
  "matu": 1833,
  "itte</w>": 1834,
  "ralines</w>": 1835,
  "ale": 1836,
  "haste": 1837,
  "bone": 1838,
  "atest": 1839,
  "cashing</w>": 1840,
  "laring</w>": 1841,
  "tener": 1842,
  "icon": 1843,
  "poradically</w>": 1844,
  "\u00a8": 1845,
  "maro</w>": 1846,
  "matte": 1847,
  "ero</w>": 1848,
  "rating</w>": 1849,
  "rical": 1850,
  "adi": 1851,
  "ratit": 1852,
  "adora": 1853,
  "chadelic": 1854,
  "dicover": 1855,
  "derel</w>": 1856,
  "\ud83d\udc18": 1857,
  "cameron</w>": 1858,
  "ovic": 1859,
  "opes</w>": 1860,
  "wasen": 1861,
  "cadel": 1862,
  "ralinger": 1863,
  "pop": 1864,
  "tatu": 1865,
  "cooperates</w>": 1866,
  "beri": 1867,
  "rowha": 1868,
  "elop": 1869,
  "dada</w>": 1870,
  "stine": 1871,
  "\ud83d\udc7b": 1872,
  "unex": 1873,
  "rarit": 1874,
  ",": 1875,
  "dop": 1876,
  "hanel": 1877,
  "ilitati": 1878,
  "sate": 1879,
  "colately</w>": 1880,
  "onesin": 1881,
  "sticated</w>": 1882,
  "mare": 1883,
  "wham</w>": 1884,
  "ladon": 1885,
  "deshi": 1886,
  "maric": 1887,
  "itta</w>": 1888,
  "whines": 1889,
  "ilan</w>": 1890,
  "\ud835\uddf1": 1891,
  "charice</w>": 1892,
  "adam": 1893,
  "lacating</w>": 1894,
  "\u26f3": 1895,
  "ameras</w>": 1896,
  "\ud83c\uddec": 1897,
  "\ud835\udde3": 1898,
  "lanelane": 1899,
  "itten</w>": 1900,
  "besi": 1901,
  "rased</w>": 1902,
  "telor": 1903,
  "boones": 1904,
  "tites</w>": 1905,
  "itterer": 1906,
  "overi": 1907,
  "somine</w>": 1908,
  "titilati": 1909,
  "ares.</w>": 1910,
  "sitta": 1911,
  "rab": 1912,
  "nen": 1913,
  "on't</w>": 1914,
  "geles</w>": 1915,
  "ita": 1916,
  "sese</w>": 1917,
  "devitt</w>": 1918,
  "lonesome": 1919,
  "eloner</w>": 1920,
  "ral": 1921,
  "aten": 1922,
  "rared</w>": 1923,
  "masin": 1924,
  "cata</w>": 1925,
  "lowered</w>": 1926,
  "teresting</w>": 1927,
  "aseline": 1928,
  "dadan</w>": 1929,
  "eline": 1930,
  "morita</w>": 1931,
  "lest,</w>": 1932,
  "watev": 1933,
  "theses.</w>": 1934,
  "ittere": 1935,
  "mil</w>": 1936,
  "ralope": 1937,
  "camile</w>": 1938,
  "senesiti": 1939,
  "astin": 1940,
  "alasta": 1941,
  "cat,</w>": 1942,
  "thelone": 1943,
  "rica": 1944,
  "feran": 1945,
  "aline</w>": 1946,
  "rala": 1947,
  "\ud835\uddd4": 1948,
  "coli": 1949,
  "herically</w>": 1950,
  "casing": 1951,
  "ichan</w>": 1952,
  "mitten</w>": 1953,
  "genevi": 1954,
  "irestar": 1955,
  "aste</w>": 1956,
  "delis</w>": 1957,
  "elan</w>": 1958,
  "eving</w>": 1959,
  "erica": 1960,
  "boun": 1961,
  "caron</w>": 1962,
  "tastico": 1963,
  "tticher</w>": 1964,
  "aroma</w>": 1965,
  "dically</w>": 1966,
  "omab": 1967,
  "icomic": 1968,
  "orade": 1969,
  "olely</w>": 1970,
  "\ud83d\ude0b": 1971,
  "nera": 1972,
  "whiter": 1973,
  "cora</w>": 1974,
  "nesting</w>": 1975,
  "gestati": 1976,
  "rican</w>": 1977,
  "scale</w>": 1978,
  "mopes</w>": 1979,
  "lered</w>": 1980,
  "nering</w>": 1981,
  "boman": 1982,
  "lomo": 1983,
  "tatter": 1984,
  "relating": 1985,
  "amamo": 1986,
  "astes</w>": 1987,
  "irovit": 1988,
  "therole": 1989,
  "olaris</w>": 1990,
  "reveri": 1991,
  "delon": 1992,
  "tter</w>": 1993,
  "ashe</w>": 1994,
  "lorab": 1995,
  "thar": 1996,
  "eliro": 1997,
  "ticati": 1998,
  "theropolitan": 1999,
  "milar": 2000,
  "rama": 2001,
  "hat.</w>": 2002,
  "ste": 2003,
  "il</w>": 2004,
  "rita</w>": 2005,
  "ghali": 2006,
  "cashi": 2007,
  "\ud83d\udd04": 2008,
  "she": 2009,
  "tabe</w>": 2010,
  "evi": 2011,
  "adele</w>": 2012,
  "stateles": 2013,
  "asit": 2014,
  "severen": 2015,
  "shade": 2016,
  "hamas": 2017,
  "tines": 2018,
  "irin</w>": 2019,
  "relabel</w>": 2020,
  "berica</w>": 2021,
  "\u2757": 2022,
  "sati": 2023,
  "malan": 2024,
  "pooner</w>": 2025,
  "sitenes": 2026,
  "chale</w>": 2027,
  "ericat": 2028,
  "nerolican": 2029,
  "ratham</w>": 2030,
  "achic": 2031,
  "7": 2032,
  "irat": 2033,
  "mitated</w>": 2034,
  "there": 2035,
  "acal</w>": 2036,
  "promen": 2037,
  "racas</w>": 2038,
  "latine</w>": 2039,
  "ghiri": 2040,
  "alonenes": 2041,
  "hame": 2042,
  "reso</w>": 2043,
  "oring</w>": 2044,
  "inev": 2045,
  "\u269b": 2046,
  "rites</w>": 2047,
  "adamasit": 2048,
  "oolon": 2049,
  "mate": 2050,
  "cowering</w>": 2051,
  "\ud83c\udf57": 2052,
  "funere": 2053,
  "lerical": 2054,
  "tte</w>": 2055,
  "abor</w>": 2056,
  "levine</w>": 2057,
  "irits</w>": 2058,
  "mab": 2059,
  "omes": 2060,
  "sales,</w>": 2061,
  "rile</w>": 2062,
  "silicate</w>": 2063,
  "omite": 2064,
  "taditi": 2065,
  "helolo": 2066,
  "larev": 2067,
  "cas</w>": 2068,
  "ti's</w>": 2069,
  "hatas": 2070,
  "\u00b9": 2071,
  "tharo": 2072,
  "astir": 2073,
  "festa": 2074,
  "ade": 2075,
  "iris</w>": 2076,
  "pelican": 2077,
  "haric": 2078,
  "youn</w>": 2079,
  "feresten": 2080,
  "arone</w>": 2081,
  "omita</w>": 2082,
  "serati": 2083,
  "omitu": 2084,
  "\ud83d\ude00": 2085,
  "inot</w>": 2086,
  "sthesis</w>": 2087,
  "omaly</w>": 2088,
  "ttas.</w>": 2089,
  "eringer": 2090,
  "elove</w>": 2091,
  "hasi": 2092,
  "coving": 2093,
  "aras,</w>": 2094,
  "aladin</w>": 2095,
  "copo": 2096,
  "bun": 2097,
  "\ud83d\udc24": 2098,
  "thelast": 2099,
  "oren": 2100,
  "tiric": 2101,
  "olerate": 2102,
  "hilarating</w>": 2103,
  "whir": 2104,
  "erily</w>": 2105,
  "roper": 2106,
  "delared</w>": 2107,
  "tti's</w>": 2108,
  "\u00fc": 2109,
  "what.</w>": 2110,
  "eshi</w>": 2111,
  "thamites</w>": 2112,
  "\ud83e\uddec": 2113,
  "vitase": 2114,
  "alash": 2115,
  "pere</w>": 2116,
  "cares": 2117,
  "fele": 2118,
  "\ud83d\udd3d": 2119,
  "owheres": 2120,
  "anero</w>": 2121,
  "omiting</w>": 2122,
  "scaring": 2123,
  "mineraly</w>": 2124,
  "hat": 2125,
  "mingham": 2126,
  "malice</w>": 2127,
  "thinge": 2128,
  "ilates</w>": 2129,
  "terac": 2130,
  "oor": 2131,
  "dero": 2132,
  "esi": 2133,
  "\ud83e\udd8b": 2134,
  "liner</w>": 2135,
  "daris</w>": 2136,
  "sita": 2137,
  "harel</w>": 2138,
  "vitas": 2139,
  "it": 2140,
  "escalate</w>": 2141,
  "resta</w>": 2142,
  "chath": 2143,
  "oma</w>": 2144,
  "chilades</w>": 2145,
  "mama": 2146,
  "romat": 2147,
  "lather</w>": 2148,
  "tirades</w>": 2149,
  "mache</w>": 2150,
  "grene</w>": 2151,
  "oro": 2152,
  "evit": 2153,
  "shaman</w>": 2154,
  "ata": 2155,
  "\u0d9c": 2156,
  "dast": 2157,
  "atari</w>": 2158,
  "sican</w>": 2159,
  "amara": 2160,
  "ramatical": 2161,
  "mooradi": 2162,
  "pon": 2163,
  "whales,</w>": 2164,
  "resevi": 2165,
  "erases</w>": 2166,
  "stalenes": 2167,
  "laser": 2168,
  "mow": 2169,
  "onen": 2170,
  "porarily</w>": 2171,
  "carel</w>": 2172,
  "acov": 2173,
  "arev": 2174,
  "lela": 2175,
  "\ud83d\udcda": 2176,
  "\ud83d\udc80": 2177,
  "mither": 2178,
  "colada": 2179,
  "stater": 2180,
  "men": 2181,
  "fera": 2182,
  "malone": 2183,
  "ghest.</w>": 2184,
  "tiri": 2185,
  "asex": 2186,
  "shita</w>": 2187,
  "adeli": 2188,
  "hes,</w>": 2189,
  "ala": 2190,
  "harol": 2191,
  "foran</w>": 2192,
  "lov": 2193,
  "hiram": 2194,
  "\udb40\udc7f": 2195,
  "wasat": 2196,
  "mited</w>": 2197,
  "lattu": 2198,
  "hashes</w>": 2199,
  "mirati": 2200,
  "aches.</w>": 2201,
  "\ud835\udddc": 2202,
  "alam</w>": 2203,
  "cases": 2204,
  "tal</w>": 2205,
  "thevil": 2206,
  "lashes": 2207,
  "dorit": 2208,
  "herita": 2209,
  "resale": 2210,
  "ne": 2211,
  "hesitates</w>": 2212,
  "june</w>": 2213,
  "dashes</w>": 2214,
  "veri": 2215,
  "hir</w>": 2216,
  "\u5916": 2217,
  "heres,</w>": 2218,
  "dari": 2219,
  "\u23f0": 2220,
  "leran": 2221,
  "scadas": 2222,
  "\ud83c\udf68": 2223,
  "erones": 2224,
  "dower</w>": 2225,
  "amined</w>": 2226,
  "filone</w>": 2227,
  "olitar": 2228,
  "matheron": 2229,
  "daril": 2230,
  "lof</w>": 2231,
  "heren": 2232,
  "acadam": 2233,
  "white</w>": 2234,
  "dadi": 2235,
  "mati": 2236,
  "popo": 2237,
  "iriti": 2238,
  "licates</w>": 2239,
  "lasi": 2240,
  "abomin": 2241,
  "shesaloof</w>": 2242,
  "\u0635": 2243,
  "levis</w>": 2244,
  "poop": 2245,
  "dorow": 2246,
  "rical</w>": 2247,
  "tita</w>": 2248,
  "chita</w>": 2249,
  "sher</w>": 2250,
  "bones.</w>": 2251,
  "ele": 2252,
  "tila": 2253,
  "stiles</w>": 2254,
  "cacha": 2255,
  "cameramen</w>": 2256,
  "lomel</w>": 2257,
  "mithi": 2258,
  "saranes": 2259,
  "alamo": 2260,
  "late": 2261,
  "overam": 2262,
  "saran": 2263,
  "sarate": 2264,
  "abe</w>": 2265,
  "mithing": 2266,
  "cathering</w>": 2267,
  "\ud835\udc2b": 2268,
  "\ud835\udc0e": 2269,
  "attuned</w>": 2270,
  "colop": 2271,
  "matter": 2272,
  "macab": 2273,
  "ditati": 2274,
  "\ud83d\udc8b": 2275,
  "mowasi": 2276,
  "boron</w>": 2277,
  "bower</w>": 2278,
  "amin": 2279,
  "mitter": 2280,
  "tesa": 2281,
  "thi</w>": 2282,
  "rach": 2283,
  "f</w>": 2284,
  "mun": 2285,
  "cas": 2286,
  "amesi": 2287,
  "\u00ba": 2288,
  "rome": 2289,
  "rowhe": 2290,
  "\u30a2": 2291,
  "satil": 2292,
  "wathe": 2293,
  "orated</w>": 2294,
  "\u00f4": 2295,
  "loresc": 2296,
  "\u201a": 2297,
  "malon": 2298,
  "scath": 2299,
  "schi": 2300,
  "ovichi": 2301,
  "ilitat": 2302,
  "ines": 2303,
  "prom": 2304,
  "dal</w>": 2305,
  "\ud83e\udd74": 2306,
  "comically</w>": 2307,
  "arela</w>": 2308,
  "gerel": 2309,
  "cadoo": 2310,
  "attaches</w>": 2311,
  "opori": 2312,
  "tas,</w>": 2313,
  "anes</w>": 2314,
  "fest</w>": 2315,
  "omol": 2316,
  "tunely</w>": 2317,
  "tits</w>": 2318,
  "chas,</w>": 2319,
  "dooming</w>": 2320,
  "itating": 2321,
  "wham": 2322,
  "stital</w>": 2323,
  "maly</w>": 2324,
  "adelic": 2325,
  "ror": 2326,
  "tine</w>": 2327,
  "lariti": 2328,
  "ing</w>": 2329,
  "castically</w>": 2330,
  "shere</w>": 2331,
  "tada</w>": 2332,
  "derately</w>": 2333,
  "poo": 2334,
  "roo</w>": 2335,
  "onesh": 2336,
  "itel": 2337,
  "mamare</w>": 2338,
  "wala</w>": 2339,
  "cathar": 2340,
  "testen": 2341,
  "asire": 2342,
  "mac": 2343,
  "gelin": 2344,
  "mitten": 2345,
  "polate</w>": 2346,
  "\ud83d\udc51": 2347,
  "camal": 2348,
  "omerex": 2349,
  "madicatt": 2350,
  "sa": 2351,
  "attila</w>": 2352,
  "oles,</w>": 2353,
  "amac": 2354,
  "ttin": 2355,
  "lili</w>": 2356,
  "gerated</w>": 2357,
  "ineri": 2358,
  "dove</w>": 2359,
  "ritt,</w>": 2360,
  "malica": 2361,
  "\ud83d\udc70": 2362,
  "weran": 2363,
  "scone</w>": 2364,
  "amelo": 2365,
  "polit": 2366,
  "itat</w>": 2367,
  "samoo": 2368,
  "feveri": 2369,
  "dele": 2370,
  "erelac": 2371,
  "datamesh": 2372,
  "\u7f51": 2373,
  "taro</w>": 2374,
  "files": 2375,
  "hir": 2376,
  "\u5e74": 2377,
  "o": 2378,
  "coral": 2379,
  "datasc": 2380,
  "\ud83c\udf85": 2381,
  "seratti": 2382,
  "adamather": 2383,
  "mama</w>": 2384,
  "adores</w>": 2385,
  "lited</w>": 2386,
  "dole</w>": 2387,
  "macadami": 2388,
  "seran": 2389,
  "rinex": 2390,
  "somali": 2391,
  "schevi": 2392,
  "manero</w>": 2393,
  "rali": 2394,
  "cameras": 2395,
  "mingu": 2396,
  "aro</w>": 2397,
  "lacan": 2398,
  "icab": 2399,
  "devera": 2400,
  "dom": 2401,
  "orou": 2402,
  "eve</w>": 2403,
  "ilalen": 2404,
  "powe</w>": 2405,
  "milac": 2406,
  "politic": 2407,
  "situ": 2408,
  "feral</w>": 2409,
  "vine</w>": 2410,
  "adora</w>": 2411,
  "rariti": 2412,
  "arou": 2413,
  "attest</w>": 2414,
  "dither</w>": 2415,
  "operas,</w>": 2416,
  "shat,</w>": 2417,
  "sabor": 2418,
  "ropes.</w>": 2419,
  "aromas": 2420,
  "att</w>": 2421,
  "scam": 2422,
  "\ud83d\ude06": 2423,
  "rope": 2424,
  "rilates</w>": 2425,
  "taboli": 2426,
  "whil": 2427,
  "waster": 2428,
  "mamas</w>": 2429,
  "oneril": 2430,
  "caden": 2431,
  "atin</w>": 2432,
  "haram": 2433,
  "carac": 2434,
  "j": 2435,
  "ger": 2436,
  "borer</w>": 2437,
  "device</w>": 2438,
  "dil</w>": 2439,
  "lamas": 2440,
  "sas": 2441,
  "mese": 2442,
  "late</w>": 2443,
  "ferating</w>": 2444,
  "\ud835\udc77": 2445,
  "schi</w>": 2446,
  "ditel": 2447,
  "itela": 2448,
  "aram": 2449,
  "\u0087": 2450,
  "ttin</w>": 2451,
  "olol": 2452,
  "mere": 2453,
  "doom": 2454,
  "tere</w>": 2455,
  "selene": 2456,
  "mo</w>": 2457,
  "sheritt,</w>": 2458,
  "scaling</w>": 2459,
  "ses.</w>": 2460,
  "morow</w>": 2461,
  "tenen": 2462,
  "scate": 2463,
  "oling</w>": 2464,
  "rase</w>": 2465,
  "litting</w>": 2466,
  "rel": 2467,
  "mad": 2468,
  "lor": 2469,
  "shadow</w>": 2470,
  "mating": 2471,
  "hi": 2472,
  "red</w>": 2473,
  "arest</w>": 2474,
  "stinger</w>": 2475,
  "olatile": 2476,
  "hired</w>": 2477,
  "dolin</w>": 2478,
  "lashi": 2479,
  "ades.</w>": 2480,
  "lasal": 2481,
  "hall</w>": 2482,
  "mit</w>": 2483,
  "ined</w>": 2484,
  "hichat": 2485,
  "cate": 2486,
  "ving": 2487,
  "hader</w>": 2488,
  "scara": 2489,
  "chasu": 2490,
  "charon": 2491,
  "italar": 2492,
  "abex": 2493,
  "moreso</w>": 2494,
  "dales</w>": 2495,
  "lattene": 2496,
  "maschera</w>": 2497,
  "sabel</w>": 2498,
  "levitt,</w>": 2499,
  "doone</w>": 2500,
  "dateline": 2501,
  "lites": 2502,
  "\u0e20": 2503,
  "severe</w>": 2504,
  "lach": 2505,
  "orate</w>": 2506,
  "tales.</w>": 2507,
  "eli": 2508,
  "ghadas": 2509,
  "casta</w>": 2510,
  "dastar": 2511,
  "poric": 2512,
  "\ud83c\uddf3": 2513,
  "li's</w>": 2514,
  "shameles": 2515,
  "sad.</w>": 2516,
  "raden</w>": 2517,
  "aneshiro": 2518,
  "deri": 2519,
  "dali": 2520,
  "nen</w>": 2521,
  "sel</w>": 2522,
  "resome</w>": 2523,
  "amely</w>": 2524,
  "dore": 2525,
  "molesting": 2526,
  "wen't</w>": 2527,
  "arest.</w>": 2528,
  "amaste": 2529,
  "ical</w>": 2530,
  "renes": 2531,
  "tex": 2532,
  "miles</w>": 2533,
  "theshe": 2534,
  "reshare</w>": 2535,
  "tati's</w>": 2536,
  "stily</w>": 2537,
  "atts</w>": 2538,
  "laborer": 2539,
  "mela</w>": 2540,
  "door</w>": 2541,
  "tac": 2542,
  "heriting</w>": 2543,
  "atasha</w>": 2544,
  "maner</w>": 2545,
  "gha": 2546,
  "sami": 2547,
  "adily</w>": 2548,
  "orican</w>": 2549,
  "masi's</w>": 2550,
  "wen": 2551,
  "rasts</w>": 2552,
  "dis</w>": 2553,
  "ditun": 2554,
  "arely</w>": 2555,
  "hi'": 2556,
  "pom": 2557,
  "\u02e2": 2558,
  "dicates</w>": 2559,
  "ames</w>": 2560,
  "ladi": 2561,
  "forest": 2562,
  "role": 2563,
  "chesa": 2564,
  "heri": 2565,
  "rooper</w>": 2566,
  "feste": 2567,
  "hiles": 2568,
  "thest</w>": 2569,
  "damit</w>": 2570,
  "foreshadow": 2571,
  "gelow</w>": 2572,
  "lati</w>": 2573,
  "\ud83c\udf96": 2574,
  "atte": 2575,
  "hest": 2576,
  "omam</w>": 2577,
  "tanen": 2578,
  "matted</w>": 2579,
  "ching</w>": 2580,
  "forev": 2581,
  "asth": 2582,
  "tamales,</w>": 2583,
  "camomil": 2584,
  "doren": 2585,
  "poor": 2586,
  "asinger": 2587,
  "ilome": 2588,
  "amestati": 2589,
  "\u2026": 2590,
  "athira": 2591,
  "levi's</w>": 2592,
  "whan": 2593,
  "powering</w>": 2594,
  "elev": 2595,
  "chitel": 2596,
  "adened</w>": 2597,
  "atales.</w>": 2598,
  "roome": 2599,
  "oner": 2600,
  "iche</w>": 2601,
  "atta": 2602,
  "saras": 2603,
  "\u2705": 2604,
  "eradicate</w>": 2605,
  "darily</w>": 2606,
  "vera</w>": 2607,
  "ratham": 2608,
  "cato</w>": 2609,
  "\ud83c\udf0e": 2610,
  "cadam</w>": 2611,
  "stered</w>": 2612,
  "itunes": 2613,
  "halalever": 2614,
  "dating</w>": 2615,
  "tinged</w>": 2616,
  "inest</w>": 2617,
  "atara": 2618,
  "\u2615": 2619,
  "elashes</w>": 2620,
  "rolex": 2621,
  "ghes": 2622,
  "chalon": 2623,
  "bori": 2624,
  "mastan": 2625,
  "cora": 2626,
  "danes,</w>": 2627,
  "thala": 2628,
  "ttily</w>": 2629,
  "dol</w>": 2630,
  "rithi": 2631,
  "omac": 2632,
  "olot</w>": 2633,
  "enes.</w>": 2634,
  "pelicu": 2635,
  "irop": 2636,
  "omin": 2637,
  "pomy</w>": 2638,
  "pomi</w>": 2639,
  "arame</w>": 2640,
  "lestari</w>": 2641,
  "sasin": 2642,
  "\u00fb": 2643,
  "rowel</w>": 2644,
  "porari": 2645,
  "cooland</w>": 2646,
  "diting</w>": 2647,
  "mitted</w>": 2648,
  "talou": 2649,
  "asar</w>": 2650,
  "elesta": 2651,
  "chily</w>": 2652,
  "polo</w>": 2653,
  "acades": 2654,
  "reshami": 2655,
  "runed</w>": 2656,
  "nese": 2657,
  "matt": 2658,
  "ttes.</w>": 2659,
  "operating</w>": 2660,
  "harat": 2661,
  "tatis</w>": 2662,
  "somenes": 2663,
  "scatter": 2664,
  "icate</w>": 2665,
  "gese</w>": 2666,
  "wer</w>": 2667,
  "ritating": 2668,
  "cooperating</w>": 2669,
  "scu": 2670,
  "lashel": 2671,
  "oore": 2672,
  "score": 2673,
  "boresome</w>": 2674,
  "dato</w>": 2675,
  "omeland</w>": 2676,
  "adir": 2677,
  "cala": 2678,
  "el": 2679,
  "enex": 2680,
  "geron": 2681,
  "amalan</w>": 2682,
  "tate</w>": 2683,
  "\u2639": 2684,
  "damac": 2685,
  "cara</w>": 2686,
  "sacade": 2687,
  "4": 2688,
  "peramerica</w>": 2689,
  "amow": 2690,
  "\ud83d\uded2": 2691,
  "di</w>": 2692,
  "enesa": 2693,
  "samir</w>": 2694,
  "/": 2695,
  "tera</w>": 2696,
  "deshar": 2697,
  "shilo": 2698,
  "gerine": 2699,
  "charas</w>": 2700,
  "%": 2701,
  "ratical": 2702,
  "ha</w>": 2703,
  "ratel": 2704,
  "eroom": 2705,
  "ttit,</w>": 2706,
  "rest</w>": 2707,
  "bole": 2708,
  "miting": 2709,
  "lanevi": 2710,
  "ases,</w>": 2711,
  "\u275d": 2712,
  "whithered</w>": 2713,
  "lovil": 2714,
  "\u78ba": 2715,
  "geli</w>": 2716,
  "romate</w>": 2717,
  "uner</w>": 2718,
  "chattered</w>": 2719,
  "malones": 2720,
  "thily</w>": 2721,
  "licata": 2722,
  "owan": 2723,
  "derover": 2724,
  "somin": 2725,
  "oline": 2726,
  "saloon": 2727,
  "orit": 2728,
  "salin": 2729,
  "eshen": 2730,
  "wale</w>": 2731,
  "sesin</w>": 2732,
  "ter": 2733,
  "thad": 2734,
  "orating</w>": 2735,
  "ones,</w>": 2736,
  "devere": 2737,
  "elor": 2738,
  "hatt,</w>": 2739,
  "doprop": 2740,
  "ittic": 2741,
  "eris</w>": 2742,
  "whalen": 2743,
  "which</w>": 2744,
  "stti": 2745,
  "colate": 2746,
  "icha": 2747,
  "mash": 2748,
  "\u4e0e": 2749,
  "washe": 2750,
  "lato</w>": 2751,
  "stabu": 2752,
  "arene": 2753,
  "orates,</w>": 2754,
  "\ud835\uddee": 2755,
  "lomac": 2756,
  "aratas": 2757,
  "\ud83e\udd26": 2758,
  "coprop": 2759,
  "fene": 2760,
  "ashevil": 2761,
  "vines.</w>": 2762,
  "res": 2763,
  "rarines": 2764,
  "whild</w>": 2765,
  "\u4e9a": 2766,
  "stin": 2767,
  "\ud83c\udfa4": 2768,
  "prou": 2769,
  "lical</w>": 2770,
  "omesic": 2771,
  "rasti": 2772,
  "mamou": 2773,
  "catter": 2774,
  "mica": 2775,
  "charades": 2776,
  "datacha": 2777,
  "me": 2778,
  "owe": 2779,
  "shattering</w>": 2780,
  "eres</w>": 2781,
  "hatin</w>": 2782,
  "asical": 2783,
  "orati</w>": 2784,
  "\\": 2785,
  "\ud835\udc26": 2786,
  "just</w>": 2787,
  "raco": 2788,
  "amol</w>": 2789,
  "tes</w>": 2790,
  "mar": 2791,
  "salinger": 2792,
  "dovin": 2793,
  "rered</w>": 2794,
  "hamas</w>": 2795,
  "\ud83d\udc65": 2796,
  "\ud83d\udc07": 2797,
  "mateshi": 2798,
  "\\nen": 2799,
  "lamori": 2800,
  "verat": 2801,
  "labor": 2802,
  "tiras": 2803,
  "miring": 2804,
  "mic": 2805,
  "tabolites</w>": 2806,
  "whiches</w>": 2807,
  "chite": 2808,
  "\ud83d\uddf3": 2809,
  "as,</w>": 2810,
  "\ud83d\udd13": 2811,
  "shades": 2812,
  "rarer</w>": 2813,
  "destitu": 2814,
  "chare": 2815,
  "atab": 2816,
  "attered</w>": 2817,
  "scones": 2818,
  "bol</w>": 2819,
  "meling</w>": 2820,
  "irele": 2821,
  "vic": 2822,
  "caracha": 2823,
  "\ud83c\udfa3": 2824,
  "was": 2825,
  "\ud835\uddd6": 2826,
  "rito</w>": 2827,
  "tan": 2828,
  "labou": 2829,
  "boro": 2830,
  "machac": 2831,
  "rowel": 2832,
  "elesti": 2833,
  "\ud83d\ude36": 2834,
  "prowe": 2835,
  "poper</w>": 2836,
  "\ud83d\udc49": 2837,
  "asin": 2838,
  "bevila": 2839,
  "malo</w>": 2840,
  "astal</w>": 2841,
  "viro": 2842,
  "rales": 2843,
  "pest": 2844,
  "marily</w>": 2845,
  "olas.</w>": 2846,
  "lingham": 2847,
  "lori": 2848,
  "ashero</w>": 2849,
  "dering": 2850,
  "gerar": 2851,
  "ichesite</w>": 2852,
  "po</w>": 2853,
  "fer": 2854,
  "\u00a5": 2855,
  "rolo": 2856,
  "loner": 2857,
  "rasting</w>": 2858,
  "pola": 2859,
  "vitu": 2860,
  "somel": 2861,
  "d</w>": 2862,
  "olen</w>": 2863,
  "saril": 2864,
  "y,</w>": 2865,
  "hates,</w>": 2866,
  "ami</w>": 2867,
  "dines": 2868,
  "berally</w>": 2869,
  "mires</w>": 2870,
  "carest.</w>": 2871,
  "hester": 2872,
  "powh": 2873,
  "shi": 2874,
  "schar</w>": 2875,
  "loren</w>": 2876,
  "ascan</w>": 2877,
  "astasi": 2878,
  "severing</w>": 2879,
  "literates</w>": 2880,
  "rashad,</w>": 2881,
  "deratel": 2882,
  "erun": 2883,
  "ast</w>": 2884,
  "rovich": 2885,
  "arati</w>": 2886,
  "hati": 2887,
  "gheriti": 2888,
  "orical": 2889,
  "chal</w>": 2890,
  "telomeres": 2891,
  "hasa</w>": 2892,
  "anest</w>": 2893,
  "relates": 2894,
  "ad,</w>": 2895,
  "thera": 2896,
  "rool": 2897,
  "asting</w>": 2898,
  "arati": 2899,
  "mori": 2900,
  "ather</w>": 2901,
  "damin": 2902,
  "teser": 2903,
  "damascu": 2904,
  "\u85c1": 2905,
  "hamelin": 2906,
  "latter</w>": 2907,
  "onel": 2908,
  "\u0e35": 2909,
  "stere</w>": 2910,
  "eron</w>": 2911,
  "\u0094": 2912,
  "\ud83d\udcdd": 2913,
  "chada": 2914,
  "cates": 2915,
  "\u30de": 2916,
  "hili</w>": 2917,
  "elast": 2918,
  "attests</w>": 2919,
  "\ud835\udc6a": 2920,
  "copola": 2921,
  "rater</w>": 2922,
  "generates</w>": 2923,
  "lerate</w>": 2924,
  "lesh": 2925,
  "athing</w>": 2926,
  "staden</w>": 2927,
  "loon</w>": 2928,
  "rate": 2929,
  "raser": 2930,
  "hel</w>": 2931,
  "deliri": 2932,
  "catherin": 2933,
  "ramatic": 2934,
  "chic": 2935,
  "molesti": 2936,
  "feru": 2937,
  "overa</w>": 2938,
  "mashed</w>": 2939,
  "astati": 2940,
  "alo</w>": 2941,
  "domesticate": 2942,
  "itt</w>": 2943,
  "lolo</w>": 2944,
  "\u2014": 2945,
  "charater</w>": 2946,
  "hit</w>": 2947,
  "taro": 2948,
  "\u306a": 2949,
  "ameshan": 2950,
  "stading</w>": 2951,
  "olop": 2952,
  "dad</w>": 2953,
  "ponese</w>": 2954,
  "habenera</w>": 2955,
  "som</w>": 2956,
  "wered</w>": 2957,
  "laborat": 2958,
  "berar": 2959,
  "levitate</w>": 2960,
  "lily</w>": 2961,
  "\u7a3f": 2962,
  "miran": 2963,
  "vil</w>": 2964,
  "ast,</w>": 2965,
  "stiles.</w>": 2966,
  "\ud83d\udc4e": 2967,
  "sitta</w>": 2968,
  "stu": 2969,
  "hatically</w>": 2970,
  "rama</w>": 2971,
  "rasc": 2972,
  "acar": 2973,
  "shashitharoor</w>": 2974,
  "ilin": 2975,
  "reli</w>": 2976,
  "owhite": 2977,
  "asticam": 2978,
  "milen": 2979,
  "lamon": 2980,
  "bun</w>": 2981,
  "shitter</w>": 2982,
  "harat</w>": 2983,
  "haden": 2984,
  "ghas</w>": 2985,
  "inerama": 2986,
  "lalal": 2987,
  "has,</w>": 2988,
  "erel": 2989,
  "nescu": 2990,
  "tarali": 2991,
  "colatelover": 2992,
  "lit</w>": 2993,
  "felates</w>": 2994,
  "oman": 2995,
  "carin": 2996,
  "shit</w>": 2997,
  "!</w>": 2998,
  "terical": 2999,
  "haden</w>": 3000,
  "carine</w>": 3001,
  "\u261d": 3002,
  "werab": 3003,
  "asesu": 3004,
  "eshere</w>": 3005,
  "chacha</w>": 3006,
  "literately</w>": 3007,
  "stador": 3008,
  "amad": 3009,
  "rader": 3010,
  "st": 3011,
  "calat</w>": 3012,
  "olera": 3013,
  "cales</w>": 3014,
  "leric": 3015,
  "manely</w>": 3016,
  "casting</w>": 3017,
  "astin</w>": 3018,
  "derate": 3019,
  "ringu": 3020,
  "files</w>": 3021,
  "\u25b6": 3022,
  "shale": 3023,
  "rooming</w>": 3024,
  "itun": 3025,
  "araman": 3026,
  "pover": 3027,
  "tastes,</w>": 3028,
  "colades,</w>": 3029,
  "never": 3030,
  "\u0146": 3031,
  "\ud835\udfec": 3032,
  "\ud83e\udee7": 3033,
  "\\ner": 3034,
  "sh": 3035,
  "ropon": 3036,
  "stiliti": 3037,
  "\u30c4": 3038,
  "genes</w>": 3039,
  "pene</w>": 3040,
  "lerab": 3041,
  "\u6708": 3042,
  "adin": 3043,
  "somol</w>": 3044,
  "oones.</w>": 3045,
  "alev": 3046,
  "iral": 3047,
  "dit,</w>": 3048,
  "sthev": 3049,
  "rola</w>": 3050,
  "matical</w>": 3051,
  "lom": 3052,
  "owa</w>": 3053,
  "att,</w>": 3054,
  "halit": 3055,
  "\ud83e\uddd8": 3056,
  "tatical</w>": 3057,
  "dashan": 3058,
  "ineland</w>": 3059,
  "whata</w>": 3060,
  "tun</w>": 3061,
  "geral": 3062,
  "rats</w>": 3063,
  "rilaterali": 3064,
  "\u7f8e": 3065,
  "chilis</w>": 3066,
  "\u00e2": 3067,
  "riting</w>": 3068,
  "tite": 3069,
  "cast": 3070,
  "ditating</w>": 3071,
  "ith": 3072,
  "ameli": 3073,
  "\ud83d\udcf2": 3074,
  "liter": 3075,
  "inest,</w>": 3076,
  "ooped</w>": 3077,
  "hasis</w>": 3078,
  "bon": 3079,
  "aboom</w>": 3080,
  "ovicane</w>": 3081,
  "\ud835\udc90": 3082,
  "siting</w>": 3083,
  "fun": 3084,
  "whiting</w>": 3085,
  "madela": 3086,
  "tititititit</w>": 3087,
  "larou": 3088,
  "harine": 3089,
  "astest</w>": 3090,
  "tabo": 3091,
  "elica": 3092,
  "tth": 3093,
  "attache": 3094,
  "ben": 3095,
  "hiting</w>": 3096,
  "daco": 3097,
  "l": 3098,
  "fero</w>": 3099,
  "atest.</w>": 3100,
  "satta</w>": 3101,
  "chinese": 3102,
  "proving": 3103,
  "lath": 3104,
  "cooperate</w>": 3105,
  "caboo": 3106,
  "\ud83c\udf82": 3107,
  "cheshire</w>": 3108,
  "telescopes,</w>": 3109,
  "omestand</w>": 3110,
  "chirila</w>": 3111,
  "\ud835\uddf2": 3112,
  "rital": 3113,
  "dithering</w>": 3114,
  "is</w>": 3115,
  "mattic": 3116,
  "ra": 3117,
  "desc": 3118,
  "inger</w>": 3119,
  "ttich</w>": 3120,
  "machi</w>": 3121,
  "open</w>": 3122,
  "itt,</w>": 3123,
  "porin</w>": 3124,
  "polar": 3125,
  "ittering</w>": 3126,
  "damatto</w>": 3127,
  "anes,</w>": 3128,
  "\u30b5": 3129,
  "taly</w>": 3130,
  "irate</w>": 3131,
  "terest": 3132,
  "es": 3133,
  "mariti": 3134,
  "hesel": 3135,
  "charin</w>": 3136,
  "ovits</w>": 3137,
  "matar": 3138,
  "mitab": 3139,
  "reras": 3140,
  "prolo": 3141,
  "casta": 3142,
  "gere": 3143,
  "taming</w>": 3144,
  "mitta": 3145,
  "hase": 3146,
  "desaro</w>": 3147,
  "gun</w>": 3148,
  "mene": 3149,
  "fere": 3150,
  "geland</w>": 3151,
  "ascher": 3152,
  "whines,</w>": 3153,
  "colic": 3154,
  "sticat</w>": 3155,
  "bered</w>": 3156,
  "oli</w>": 3157,
  "cop": 3158,
  "ate": 3159,
  "esarit": 3160,
  "foreveru": 3161,
  "unes": 3162,
  "delicate</w>": 3163,
  "opo": 3164,
  "carel": 3165,
  "sac": 3166,
  "abolical": 3167,
  "ingese</w>": 3168,
  "adine": 3169,
  "miro</w>": 3170,
  "asif</w>": 3171,
  "boof</w>": 3172,
  "itates</w>": 3173,
  "tastily</w>": 3174,
  "tititititittitititi": 3175,
  "thac": 3176,
  "\ud83d\ude49": 3177,
  "doming": 3178,
  "hittin</w>": 3179,
  "he": 3180,
  "loov": 3181,
  "dichen</w>": 3182,
  "shadowe": 3183,
  "\ud83d\ude15": 3184,
  "\ud835\uddfb": 3185,
  "asale": 3186,
  "foreshadowed</w>": 3187,
  "larati</w>": 3188,
  "arade": 3189,
  "\u2071": 3190,
  "iloving</w>": 3191,
  "colon</w>": 3192,
  "ramun": 3193,
  "ilitating</w>": 3194,
  "aramin": 3195,
  "ru": 3196,
  "dasher</w>": 3197,
  "maman": 3198,
  "\ud83d\udca7": 3199,
  "direlo": 3200,
  "polan": 3201,
  "itin</w>": 3202,
  "irar": 3203,
  "\u261e": 3204,
  "vilab": 3205,
  "generali": 3206,
  "\u20e3": 3207,
  "minesto</w>": 3208,
  "terin": 3209,
  "minen": 3210,
  "pesome": 3211,
  "enen": 3212,
  "icolaman": 3213,
  "ramen": 3214,
  "doris</w>": 3215,
  "coolest": 3216,
  "lat,</w>": 3217,
  "eloun": 3218,
  "atis</w>": 3219,
  "catering</w>": 3220,
  "melow</w>": 3221,
  "ricate": 3222,
  "asham</w>": 3223,
  "radines,</w>": 3224,
  "scores,</w>": 3225,
  "hades,</w>": 3226,
  "atened</w>": 3227,
  "arer</w>": 3228,
  "lomat.</w>": 3229,
  "enot</w>": 3230,
  "mamash": 3231,
  "lache": 3232,
  "laras": 3233,
  "ram": 3234,
  "satel": 3235,
  "damat": 3236,
  "telescopes</w>": 3237,
  "gerate": 3238,
  "ascal": 3239,
  "movie</w>": 3240,
  "leren": 3241,
  "oon": 3242,
  "estab": 3243,
  "ver": 3244,
  "raded</w>": 3245,
  "vitamin": 3246,
  "athing": 3247,
  "romero": 3248,
  "mone</w>": 3249,
  "elit": 3250,
  "viri": 3251,
  "loore</w>": 3252,
  "testine": 3253,
  "\"": 3254,
  "coman": 3255,
  "asab": 3256,
  "athi": 3257,
  "hasten</w>": 3258,
  "des</w>": 3259,
  "st.</w>": 3260,
  "daring": 3261,
  "itenes": 3262,
  "scores": 3263,
  "the</w>": 3264,
  "ades</w>": 3265,
  "elerating": 3266,
  "taber": 3267,
  "boored</w>": 3268,
  "\u009b": 3269,
  "hilated</w>": 3270,
  "thall</w>": 3271,
  "tile</w>": 3272,
  "aling</w>": 3273,
  "thelo": 3274,
  "delicatel": 3275,
  "astac": 3276,
  "deleri": 3277,
  "lolit's</w>": 3278,
  "whales</w>": 3279,
  "olope": 3280,
  "schach": 3281,
  "hado": 3282,
  "sel": 3283,
  "dari</w>": 3284,
  "roman": 3285,
  "rester</w>": 3286,
  "waron": 3287,
  "momo": 3288,
  "..<br</w>": 3289,
  "man": 3290,
  "icome": 3291,
  "gh": 3292,
  "sti": 3293,
  "hada": 3294,
  "shaber": 3295,
  "dames</w>": 3296,
  "lon": 3297,
  "lira</w>": 3298,
  "moric": 3299,
  "lameles": 3300,
  "athene": 3301,
  "hada</w>": 3302,
  "\ud83d\udc10": 3303,
  "9": 3304,
  "\u008c": 3305,
  "elope</w>": 3306,
  "dami</w>": 3307,
  "amestar": 3308,
  "minot</w>": 3309,
  "ilines": 3310,
  "ted</w>": 3311,
  "malab": 3312,
  "ttal": 3313,
  "cot</w>": 3314,
  "macha</w>": 3315,
  "casado</w>": 3316,
  "sterile</w>": 3317,
  "\u201e": 3318,
  "whala": 3319,
  "fel</w>": 3320,
  "\u2614": 3321,
  "mitating": 3322,
  "arin</w>": 3323,
  "omelines": 3324,
  "adame": 3325,
  "sasha": 3326,
  "\ud83c\uddf0": 3327,
  "stice</w>": 3328,
  "alor": 3329,
  "lil</w>": 3330,
  "cather": 3331,
  "shading": 3332,
  "attan</w>": 3333,
  "at.</w>": 3334,
  "mest</w>": 3335,
  "machine": 3336,
  "belabou": 3337,
  "onest,</w>": 3338,
  "menes</w>": 3339,
  "americas": 3340,
  "heromones": 3341,
  "boomeran": 3342,
  "pes": 3343,
  "\u00f8": 3344,
  "mamare": 3345,
  "operate": 3346,
  "wesom</w>": 3347,
  "\ud835\udc83": 3348,
  "ests</w>": 3349,
  "sically</w>": 3350,
  "ama</w>": 3351,
  "\ud83d\udc40": 3352,
  "lomas": 3353,
  "scada</w>": 3354,
  "oones": 3355,
  "\u0d91": 3356,
  "scares": 3357,
  "ve</w>": 3358,
  "gering</w>": 3359,
  "dilati": 3360,
  "shaming</w>": 3361,
  "madame</w>": 3362,
  "\ud83d\udc97": 3363,
  "asher</w>": 3364,
  "omitting</w>": 3365,
  "omati": 3366,
  "moles": 3367,
  "\u00e5": 3368,
  "omicha": 3369,
  "evilest.</w>": 3370,
  "tane</w>": 3371,
  "amer": 3372,
  "lamaro": 3373,
  "chatting</w>": 3374,
  "diri</w>": 3375,
  "lather": 3376,
  "ines,</w>": 3377,
  "males,</w>": 3378,
  "sheli": 3379,
  "scaster</w>": 3380,
  "call</w>": 3381,
  "acare</w>": 3382,
  "lesinger</w>": 3383,
  "hic": 3384,
  "e": 3385,
  "alike</w>": 3386,
  "runes</w>": 3387,
  "chases,</w>": 3388,
  "lating": 3389,
  "esomenes": 3390,
  "thest": 3391,
  "mooner": 3392,
  "salita</w>": 3393,
  "sinesi": 3394,
  "owere</w>": 3395,
  "scovere": 3396,
  "calan": 3397,
  "moles</w>": 3398,
  "\ud83e\udde0": 3399,
  "wasall</w>": 3400,
  "marines": 3401,
  "ilomala": 3402,
  "ittan": 3403,
  "\ud83d\udd8b": 3404,
  "$": 3405,
  "estate</w>": 3406,
  "dachan</w>": 3407,
  "arun</w>": 3408,
  "morita": 3409,
  "opere": 3410,
  "shira": 3411,
  "generates.</w>": 3412,
  "serene</w>": 3413,
  "withe</w>": 3414,
  "lithe": 3415,
  "an't</w>": 3416,
  "chaste</w>": 3417,
  "oone</w>": 3418,
  "corine</w>": 3419,
  "rasta": 3420,
  "\ud83d\udcdc": 3421,
  "asalico": 3422,
  "hiti": 3423,
  "shile": 3424,
  "elowa</w>": 3425,
  "lacun": 3426,
  "moola": 3427,
  "perer</w>": 3428,
  "\ud83c\udf36": 3429,
  "ticate</w>": 3430,
  "tun": 3431,
  "reste": 3432,
  "tastes</w>": 3433,
  "enerar": 3434,
  "whitte": 3435,
  "sasati": 3436,
  "athered</w>": 3437,
  "lesel": 3438,
  "ricone</w>": 3439,
  "madoo": 3440,
  "scatter</w>": 3441,
  "desis</w>": 3442,
  "lesasan": 3443,
  "irolamo": 3444,
  "theses</w>": 3445,
  "adores": 3446,
  "alabe": 3447,
  "\ud83d\udcbb": 3448,
  "schach</w>": 3449,
  "\ud835\udc98": 3450,
  "hines</w>": 3451,
  "aloun": 3452,
  "scasting": 3453,
  "orati": 3454,
  "ving</w>": 3455,
  "labor</w>": 3456,
  "\ud83d\udca9": 3457,
  "ghest</w>": 3458,
  "sharon": 3459,
  "rori": 3460,
  "ild</w>": 3461,
  "salomon</w>": 3462,
  "damico</w>": 3463,
  "malit": 3464,
  "mital": 3465,
  "pelin</w>": 3466,
  "alestate": 3467,
  "ramat": 3468,
  "lasti": 3469,
  "caron": 3470,
  "richer": 3471,
  "irit,</w>": 3472,
  "dest,</w>": 3473,
  "tadora</w>": 3474,
  "der</w>": 3475,
  "\u2935": 3476,
  "helicop": 3477,
  "tami": 3478,
  "\u80a1": 3479,
  "thas": 3480,
  "enese": 3481,
  "ritam": 3482,
  "alesi": 3483,
  "labeling</w>": 3484,
  "chelan</w>": 3485,
  "rali</w>": 3486,
  "\\n</w>": 3487,
  "tteran": 3488,
  "cathe": 3489,
  "atar": 3490,
  "chamor": 3491,
  "roope": 3492,
  "\ud83d\udc4d": 3493,
  "lasting</w>": 3494,
  "asin</w>": 3495,
  "aring": 3496,
  "omaches</w>": 3497,
  "adaches": 3498,
  "vitamic": 3499,
  "michalis</w>": 3500,
  "mitthi</w>": 3501,
  "ramar</w>": 3502,
  "rat.</w>": 3503,
  "nero</w>": 3504,
  "\ud83d\ude0f": 3505,
  "pores.</w>": 3506,
  "tinel</w>": 3507,
  "rachi": 3508,
  "file</w>": 3509,
  "molone": 3510,
  "\ud83d\ude35": 3511,
  "ritam</w>": 3512,
  "gre</w>": 3513,
  "whad": 3514,
  "ericoman": 3515,
  "hadi": 3516,
  "lerov": 3517,
  "owor": 3518,
  "peron": 3519,
  "filing</w>": 3520,
  "data": 3521,
  "dor</w>": 3522,
  "delin": 3523,
  "cones</w>": 3524,
  "reshared</w>": 3525,
  "larine": 3526,
  "shade</w>": 3527,
  "shes</w>": 3528,
  "lesinger": 3529,
  "whi</w>": 3530,
  "coom": 3531,
  "wadi</w>": 3532,
  "shen": 3533,
  "eshi's</w>": 3534,
  "ratitu": 3535,
  "romati": 3536,
  "owho</w>": 3537,
  "satan</w>": 3538,
  "gener": 3539,
  "eneri": 3540,
  "sterine</w>": 3541,
  "masha</w>": 3542,
  "herold</w>": 3543,
  "prominen": 3544,
  "evil": 3545,
  "doper</w>": 3546,
  "adit": 3547,
  "deline</w>": 3548,
  "lacab": 3549,
  "tinelone": 3550,
  "olasco</w>": 3551,
  "\ud83c\uddfb": 3552,
  "neling</w>": 3553,
  "icola": 3554,
  "witha": 3555,
  "mower</w>": 3556,
  "roov": 3557,
  "sed</w>": 3558,
  "helan": 3559,
  "raderi": 3560,
  "serac": 3561,
  "whenever</w>": 3562,
  "ha": 3563,
  "foresa": 3564,
  "damari": 3565,
  "asi": 3566,
  "moma": 3567,
  "hilarati": 3568,
  "chitt": 3569,
  "generically</w>": 3570,
  "italo": 3571,
  "ro": 3572,
  "rad.</w>": 3573,
  "\u0dda": 3574,
  "ilas</w>": 3575,
  "schit": 3576,
  "scolored</w>": 3577,
  "whiner</w>": 3578,
  "olin": 3579,
  "\u8a9e": 3580,
  "oola": 3581,
  "hel": 3582,
  "lamel": 3583,
  "merated</w>": 3584,
  "ironed</w>": 3585,
  "descou": 3586,
  "erased</w>": 3587,
  "moro</w>": 3588,
  "esch": 3589,
  "lasic": 3590,
  "peramen": 3591,
  "\u26c4": 3592,
  "lamor": 3593,
  "hata</w>": 3594,
  "arabov": 3595,
  "alex": 3596,
  "matting</w>": 3597,
  "amo": 3598,
  "ashevich</w>": 3599,
  "aru": 3600,
  "\u2640": 3601,
  "inest": 3602,
  "neselan": 3603,
  "wel</w>": 3604,
  "\ud83d\udcef": 3605,
  "orites": 3606,
  "morou": 3607,
  "hene</w>": 3608,
  "ramed</w>": 3609,
  "\ud83c\udf2c": 3610,
  "row": 3611,
  "maro": 3612,
  "shines": 3613,
  "\u25c6": 3614,
  "wat,</w>": 3615,
  "\u6d32": 3616,
  "tam": 3617,
  "aramilitari": 3618,
  "\u6d77": 3619,
  "chamele": 3620,
  "doled</w>": 3621,
  "icadi": 3622,
  "melade": 3623,
  "\ud83e\udd83": 3624,
  "laded</w>": 3625,
  "scated</w>": 3626,
  "laritin</w>": 3627,
  "salon</w>": 3628,
  "elaborates</w>": 3629,
  "minghel": 3630,
  "mera</w>": 3631,
  "\ud83e\udeb4": 3632,
  "moly</w>": 3633,
  "est": 3634,
  "bop</w>": 3635,
  "taling</w>": 3636,
  "covered</w>": 3637,
  "ater": 3638,
  "/><br</w>": 3639,
  "\ud83d\udcad": 3640,
  "es,</w>": 3641,
  "overall</w>": 3642,
  "wame": 3643,
  "ath": 3644,
  "ache": 3645,
  "teler": 3646,
  "perin</w>": 3647,
  "oris</w>": 3648,
  "herit.</w>": 3649,
  "\ud83c\udf7b": 3650,
  "sen't</w>": 3651,
  "omop": 3652,
  "waco</w>": 3653,
  "latestar": 3654,
  "tarich": 3655,
  "romilow</w>": 3656,
  "itto</w>": 3657,
  "i'": 3658,
  "stes,</w>": 3659,
  "sabo": 3660,
  "gene": 3661,
  "macop": 3662,
  "scala</w>": 3663,
  "mitali</w>": 3664,
  "delon</w>": 3665,
  "aramilitar": 3666,
  "vitali": 3667,
  "severit": 3668,
  "polati": 3669,
  "amas": 3670,
  "hene": 3671,
  "ither</w>": 3672,
  "alore": 3673,
  "lesa": 3674,
  "beris</w>": 3675,
  "desa": 3676,
  "micali": 3677,
  "generating": 3678,
  "ilera</w>": 3679,
  "hats</w>": 3680,
  "berates</w>": 3681,
  "aming": 3682,
  "cases</w>": 3683,
  "roladen": 3684,
  "evering</w>": 3685,
  "dolan": 3686,
  "lamenes": 3687,
  "cameras</w>": 3688,
  "wera": 3689,
  "colori": 3690,
  "sthan": 3691,
  "tever</w>": 3692,
  "operan": 3693,
  "elopes": 3694,
  "everest</w>": 3695,
  "masten</w>": 3696,
  "matica</w>": 3697,
  "wara</w>": 3698,
  "mater": 3699,
  "lad.</w>": 3700,
  "staste": 3701,
  "\u02b7": 3702,
  "eron": 3703,
  "mones,</w>": 3704,
  "perati": 3705,
  "eliner": 3706,
  "acou": 3707,
  "felike</w>": 3708,
  "fescu": 3709,
  "amera</w>": 3710,
  "\ud835\udc88": 3711,
  "proline</w>": 3712,
  "olen": 3713,
  "atel</w>": 3714,
  "pt</w>": 3715,
  "ican": 3716,
  "elerated</w>": 3717,
  "severan": 3718,
  "dits</w>": 3719,
  "sharo": 3720,
  "waring</w>": 3721,
  "atile</w>": 3722,
  "colorer": 3723,
  "festing": 3724,
  "italin": 3725,
  "bou": 3726,
  "satirically</w>": 3727,
  "sthat": 3728,
  "dachi": 3729,
  "fel": 3730,
  "devit": 3731,
  "tamen": 3732,
  "stil</w>": 3733,
  "\ud83d\udc26": 3734,
  "colila</w>": 3735,
  "nes</w>": 3736,
  "sicat": 3737,
  "tales,</w>": 3738,
  "iner</w>": 3739,
  "hita</w>": 3740,
  "tunes,</w>": 3741,
  "aloot</w>": 3742,
  "pool</w>": 3743,
  "oned</w>": 3744,
  "teresa</w>": 3745,
  "testthis</w>": 3746,
  "mares,</w>": 3747,
  "ately</w>": 3748,
  "michal": 3749,
  "masa</w>": 3750,
  "\u275e": 3751,
  "olom</w>": 3752,
  "asal": 3753,
  "reveran": 3754,
  "radical": 3755,
  "mat</w>": 3756,
  "labu": 3757,
  "une": 3758,
  "arily</w>": 3759,
  "raca</w>": 3760,
  "chiladas.</w>": 3761,
  "seshel": 3762,
  "boom": 3763,
  "stelo": 3764,
  "olitu": 3765,
  "machin": 3766,
  "z": 3767,
  "salad.</w>": 3768,
  "seri": 3769,
  "madat": 3770,
  "stest": 3771,
  "lite</w>": 3772,
  "olac": 3773,
  "y</w>": 3774,
  "fer</w>": 3775,
  "lith": 3776,
  "y": 3777,
  "over</w>": 3778,
  "\u270b": 3779,
  "\ud83d\ude18": 3780,
  "hites": 3781,
  "\u884c": 3782,
  "festo</w>": 3783,
  "shacol": 3784,
  "haler": 3785,
  "shitt.</w>": 3786,
  "gener</w>": 3787,
  "iti</w>": 3788,
  "liner": 3789,
  "achin": 3790,
  "tasitic": 3791,
  "alil</w>": 3792,
  "\ud83c\udfc8": 3793,
  "vines</w>": 3794,
  "ashi": 3795,
  "stamin": 3796,
  "chichester</w>": 3797,
  "wami</w>": 3798,
  "arith": 3799,
  "estates,</w>": 3800,
  "omesites</w>": 3801,
  "itteren": 3802,
  "icated</w>": 3803,
  "\ud83d\udd2c": 3804,
  "erase": 3805,
  "ner": 3806,
  "ora</w>": 3807,
  "oru": 3808,
  "\ud83d\ude07": 3809,
  "tileschi": 3810,
  "rora</w>": 3811,
  "\u2024": 3812,
  "\u201c": 3813,
  "omite</w>": 3814,
  "\u009e": 3815,
  "riti": 3816,
  "salon": 3817,
  "neri": 3818,
  "hader": 3819,
  "\u00ed": 3820,
  "aradi": 3821,
  "carabou": 3822,
  "cameras.</w>": 3823,
  "eving": 3824,
  "lerou": 3825,
  "micon": 3826,
  "atata</w>": 3827,
  "stene": 3828,
  "stadi": 3829,
  "\ud83d\udd0a": 3830,
  "amily</w>": 3831,
  "mirala": 3832,
  "iriting</w>": 3833,
  "saroor</w>": 3834,
  "lingham</w>": 3835,
  "moran": 3836,
  "tere": 3837,
  "cascading</w>": 3838,
  "cherith": 3839,
  "lathere": 3840,
  "deste": 3841,
  "milate</w>": 3842,
  "meland</w>": 3843,
  "elane</w>": 3844,
  "lolita</w>": 3845,
  "ascha</w>": 3846,
  "whati": 3847,
  "amadu": 3848,
  "colil": 3849,
  "somest,</w>": 3850,
  "licates.</w>": 3851,
  "\ud83c\udf55": 3852,
  "meric": 3853,
  "sterati": 3854,
  "dical": 3855,
  "wastes</w>": 3856,
  "male</w>": 3857,
  "alace</w>": 3858,
  "oow": 3859,
  "hered</w>": 3860,
  "\ud83d\udc3c": 3861,
  "melat": 3862,
  "whab": 3863,
  "adera</w>": 3864,
  "sach": 3865,
  "tital": 3866,
  "pooper": 3867,
  "matic": 3868,
  "icac": 3869,
  "gerita</w>": 3870,
  "onest</w>": 3871,
  "ow": 3872,
  "sadas</w>": 3873,
  "dome</w>": 3874,
  "delines</w>": 3875,
  "harin": 3876,
  "asu": 3877,
  "alates.</w>": 3878,
  "sen": 3879,
  "\ud83c\udd95": 3880,
  "atted</w>": 3881,
  "damasco": 3882,
  "\ud83e\udd71": 3883,
  "hesh": 3884,
  "ralic": 3885,
  "besheli": 3886,
  "ese": 3887,
  "mom</w>": 3888,
  "rif</w>": 3889,
  "\ud835\udc79": 3890,
  "inever": 3891,
  "ricon": 3892,
  "rores</w>": 3893,
  "chatela": 3894,
  "hari</w>": 3895,
  "tally</w>": 3896,
  "ritan</w>": 3897,
  "literali": 3898,
  "roovin</w>": 3899,
  "weli": 3900,
  "cand</w>": 3901,
  "colates,</w>": 3902,
  "whateveri": 3903,
  "olesome</w>": 3904,
  "amato</w>": 3905,
  "d,</w>": 3906,
  "tingu": 3907,
  "aramore": 3908,
  "\ud83e\udd1f": 3909,
  "arates</w>": 3910,
  "roli": 3911,
  "geline</w>": 3912,
  "sasin</w>": 3913,
  "camaraderi": 3914,
  "whiteli": 3915,
  "veriti": 3916,
  "ritts</w>": 3917,
  "roles,</w>": 3918,
  "ataliti": 3919,
  "\ud83d\udcc5": 3920,
  "\ud83d\udc8e": 3921,
  "role</w>": 3922,
  "ori</w>": 3923,
  "tamab": 3924,
  "amicha": 3925,
  "maca</w>": 3926,
  "aradori": 3927,
  "perabo": 3928,
  "gh</w>": 3929,
  "evilov": 3930,
  "alita</w>": 3931,
  "telade": 3932,
  "looper": 3933,
  "cun</w>": 3934,
  "riche": 3935,
  "ten</w>": 3936,
  "adata": 3937,
  "sesame": 3938,
  "opoly</w>": 3939,
  "evere": 3940,
  "racas,</w>": 3941,
  "ilovero": 3942,
  "shalin": 3943,
  "dith": 3944,
  "ttesco</w>": 3945,
  ";": 3946,
  "lore": 3947,
  "mates,</w>": 3948,
  "alonely</w>": 3949,
  "prolac": 3950,
  "castad": 3951,
  "asel</w>": 3952,
  "asamu": 3953,
  "dori</w>": 3954,
  "cade": 3955,
  "scast": 3956,
  "omeri": 3957,
  "ilabe</w>": 3958,
  "ariti": 3959,
  "theri": 3960,
  "ames,</w>": 3961,
  "pera": 3962,
  "masala</w>": 3963,
  "\u30d9": 3964,
  "aned</w>": 3965,
  "sestero</w>": 3966,
  "siting": 3967,
  "pero</w>": 3968,
  "mamat": 3969,
  "cheste": 3970,
  "larit": 3971,
  "lanesi": 3972,
  "leli": 3973,
  "samo": 3974,
  "lats</w>": 3975,
  "wad": 3976,
  "raming</w>": 3977,
  "vere</w>": 3978,
  "dilari": 3979,
  "rolen": 3980,
  "selot</w>": 3981,
  "milates</w>": 3982,
  "dom</w>": 3983,
  "ichar": 3984,
  "\ud835\uddea": 3985,
  "virile</w>": 3986,
  "shing</w>": 3987,
  "lathered</w>": 3988,
  "vitasal": 3989,
  "onerati": 3990,
  "castil": 3991,
  "atat": 3992,
  "lorita": 3993,
  "icolev": 3994,
  "\u0e4c": 3995,
  "tes": 3996,
  "omen": 3997,
  "corating</w>": 3998,
  "peles": 3999,
  "cascades,</w>": 4000,
  "oneses,</w>": 4001,
  "casev": 4002,
  "scar</w>": 4003,
  "arasites</w>": 4004,
  "icune": 4005,
  "erin</w>": 4006,
  "tamate</w>": 4007,
  "datta</w>": 4008,
  "iles</w>": 4009,
  "wore": 4010,
  "rom": 4011,
  "reled</w>": 4012,
  "amesa": 4013,
  "-": 4014,
  "\ud83c\udf6d": 4015,
  "arach": 4016,
  "ilerow</w>": 4017,
  "attache</w>": 4018,
  "onerated</w>": 4019,
  "veri</w>": 4020,
  "poral</w>": 4021,
  "escalating</w>": 4022,
  "latti": 4023,
  "filo</w>": 4024,
  "hasten": 4025,
  ",</w>": 4026,
  "tilating</w>": 4027,
  "radical</w>": 4028,
  "tinely</w>": 4029,
  "chachas</w>": 4030,
  "tered</w>": 4031,
  "erit": 4032,
  "\u2601": 4033,
  "severel": 4034,
  "sad,</w>": 4035,
  "stil": 4036,
  "rames.</w>": 4037,
  "matte</w>": 4038,
  "whatev": 4039,
  "thiru": 4040,
  "romola</w>": 4041,
  "morales": 4042,
  "charades.</w>": 4043,
  "fest.</w>": 4044,
  "inesi": 4045,
  "astab": 4046,
  "stinger": 4047,
  "iri</w>": 4048,
  "shame": 4049,
  "olab": 4050,
  "casel": 4051,
  "scooper</w>": 4052,
  "hala</w>": 4053,
  "shiric": 4054,
  "opover": 4055,
  "chamar": 4056,
  "cascades</w>": 4057,
  "dilou": 4058,
  "loomily</w>": 4059,
  "cameroon": 4060,
  "lades.</w>": 4061,
  "coon": 4062,
  "sanely</w>": 4063,
  "cabon": 4064,
  "oporo": 4065,
  "iterates</w>": 4066,
  "lorali": 4067,
  "astate": 4068,
  "rabe</w>": 4069,
  "atelin": 4070,
  "\u1d5b": 4071,
  "harold</w>": 4072,
  "mattan": 4073,
  "ilil": 4074,
  "\u00bd": 4075,
  "satt": 4076,
  "sarat": 4077,
  "\u2603": 4078,
  "calorically</w>": 4079,
  "atticu": 4080,
  "ilingu": 4081,
  "caru": 4082,
  "anesh": 4083,
  "ool": 4084,
  "ringes</w>": 4085,
  "ates,</w>": 4086,
  "neled</w>": 4087,
  "thitti": 4088,
  "atales</w>": 4089,
  "\ud83c\udf8a": 4090,
  "asteri": 4091,
  "ham": 4092,
  "fe</w>": 4093,
  "attune</w>": 4094,
  "esare</w>": 4095,
  "resa": 4096,
  "thelen": 4097,
  "de": 4098,
  "omates</w>": 4099,
  "feresten</w>": 4100,
  "colatel": 4101,
  "berattac": 4102,
  "tines,</w>": 4103,
  "ratically</w>": 4104,
  "omest": 4105,
  "romi": 4106,
  "proles": 4107,
  "thiram": 4108,
  "gel": 4109,
  "desade</w>": 4110,
  "werestar": 4111,
  "thex": 4112,
  "sharat</w>": 4113,
  "singh</w>": 4114,
  "coloric": 4115,
  "vitas</w>": 4116,
  "omoro</w>": 4117,
  "siles,</w>": 4118,
  "achare": 4119,
  "marichal</w>": 4120,
  "comi": 4121,
  "rastical": 4122,
  "telopes</w>": 4123,
  "omed</w>": 4124,
  "iren": 4125,
  "eshi": 4126,
  "omoror": 4127,
  "coleri": 4128,
  "reshen</w>": 4129,
  "\ud83d\udde3": 4130,
  "sev": 4131,
  "tites,</w>": 4132,
  "tanel": 4133,
  "goor": 4134,
  "statin</w>": 4135,
  "ferou": 4136,
  "gu": 4137,
  "rame</w>": 4138,
  "poon</w>": 4139,
  "tirade": 4140,
  "roomed</w>": 4141,
  "wattu": 4142,
  "bune": 4143,
  "icaliti": 4144,
  "\ud83d\udc69": 4145,
  "moril": 4146,
  "dener</w>": 4147,
  "datat": 4148,
  "adas": 4149,
  "\u7559": 4150,
  "thicala": 4151,
  "haser": 4152,
  "dopes.</w>": 4153,
  "rest,</w>": 4154,
  "rold</w>": 4155,
  "sical</w>": 4156,
  "lala": 4157,
  "irac": 4158,
  "ttar</w>": 4159,
  "gren": 4160,
  "belane": 4161,
  "omated</w>": 4162,
  "\ud83c\udffd": 4163,
  "scat": 4164,
  "mines,</w>": 4165,
  "elace</w>": 4166,
  "mun</w>": 4167,
  "hamelin</w>": 4168,
  "com": 4169,
  "bese": 4170,
  "lonelines": 4171,
  "erade</w>": 4172,
  "stalab": 4173,
  "salo</w>": 4174,
  "ghen": 4175,
  "\ud83c\udf0a": 4176,
  "best": 4177,
  "ingel": 4178,
  "adale": 4179,
  "asted</w>": 4180,
  "\ud83c\udfa9": 4181,
  "acamole": 4182,
  "dinged</w>": 4183,
  "dashe": 4184,
  "sicu": 4185,
  "\u2795": 4186,
  "prout</w>": 4187,
  "generally</w>": 4188,
  "amela": 4189,
  "below": 4190,
  "colades</w>": 4191,
  "done</w>": 4192,
  "oom</w>": 4193,
  "calamari</w>": 4194,
  "\ud83d\udea8": 4195,
  "astene": 4196,
  "matha": 4197,
  "roovi": 4198,
  "amata</w>": 4199,
  "lonely</w>": 4200,
  "rases</w>": 4201,
  "mabes": 4202,
  "hatti": 4203,
  "di'": 4204,
  "adel</w>": 4205,
  "catil": 4206,
  "\ud835\udc2c": 4207,
  "ling</w>": 4208,
  "arac": 4209,
  "tatami</w>": 4210,
  "ged</w>": 4211,
  "romal": 4212,
  "loo": 4213,
  "liran</w>": 4214,
  "prop": 4215,
  "doom</w>": 4216,
  "\u27e9": 4217,
  "his</w>": 4218,
  "esti</w>": 4219,
  "\u5927": 4220,
  "ttic": 4221,
  "same": 4222,
  "rita": 4223,
  "therer": 4224,
  "gresti": 4225,
  "laru": 4226,
  "of</w>": 4227,
  "shitt": 4228,
  "deli": 4229,
  "\ud83c\udfc3": 4230,
  "olari": 4231,
  "\ud83d\ude01": 4232,
  "boomed</w>": 4233,
  "atti</w>": 4234,
  "adorati": 4235,
  "lerite": 4236,
  "deresti": 4237,
  "erine</w>": 4238,
  "bolan": 4239,
  "vita": 4240,
  "orin</w>": 4241,
  "tat.</w>": 4242,
  "serate</w>": 4243,
  "stica</w>": 4244,
  "tari's</w>": 4245,
  "icoli</w>": 4246,
  "meril</w>": 4247,
  "ghiradel": 4248,
  "rar</w>": 4249,
  "escalate": 4250,
  "lingh": 4251,
  "pene": 4252,
  "diting": 4253,
  "derates,</w>": 4254,
  "boneles": 4255,
  "vilori": 4256,
  "caleli": 4257,
  "malamal</w>": 4258,
  "dot</w>": 4259,
  "\u00fa": 4260,
  "heri's</w>": 4261,
  "terica": 4262,
  "foram": 4263,
  "asad": 4264,
  "stand</w>": 4265,
  "as</w>": 4266,
  "sites": 4267,
  "desiring</w>": 4268,
  "\ud83d\ude3f": 4269,
  "waco": 4270,
  "aroled</w>": 4271,
  "tesh": 4272,
  "levin": 4273,
  "\ud83d\ude22": 4274,
  "tare": 4275,
  "\u207f": 4276,
  "terests</w>": 4277,
  "col</w>": 4278,
  "\ud83c\udfb6": 4279,
  "forest,</w>": 4280,
  "\u00f9": 4281,
  "sadora</w>": 4282,
  "madin": 4283,
  "cads</w>": 4284,
  "colat,</w>": 4285,
  "nelore</w>": 4286,
  "perine</w>": 4287,
  "arome": 4288,
  "chiti": 4289,
  "harol</w>": 4290,
  "sath": 4291,
  "raro": 4292,
  "rom</w>": 4293,
  "geste": 4294,
  "astar": 4295,
  "loone": 4296,
  "itara": 4297,
  "omili": 4298,
  "fests</w>": 4299,
  "moro": 4300,
  "wherever": 4301,
  "tesi</w>": 4302,
  "ditab": 4303,
  "charit": 4304,
  "relas</w>": 4305,
  "ool</w>": 4306,
  "opolitical</w>": 4307,
  "stamines": 4308,
  "\u0dcf": 4309,
  "sating</w>": 4310,
  "taste": 4311,
  "las": 4312,
  "5": 4313,
  "samun": 4314,
  "\u26bd": 4315,
  "melitta</w>": 4316,
  "theresa": 4317,
  "schil": 4318,
  "wes,</w>": 4319,
  "hilin": 4320,
  "dorin": 4321,
  "scaste": 4322,
  "ascal</w>": 4323,
  "mot</w>": 4324,
  "vinge": 4325,
  "achanel": 4326,
  "elites</w>": 4327,
  "provine</w>": 4328,
  "doli": 4329,
  "stares.</w>": 4330,
  "rop</w>": 4331,
  "esha</w>": 4332,
  "lorer": 4333,
  "rescore</w>": 4334,
  "tale</w>": 4335,
  "casts</w>": 4336,
  "\ud83d\ude29": 4337,
  "who</w>": 4338,
  "cali</w>": 4339,
  "ascar</w>": 4340,
  "liter</w>": 4341,
  "onesi": 4342,
  "ired</w>": 4343,
  "scoral": 4344,
  "lolool": 4345,
  "ove</w>": 4346,
  "eline</w>": 4347,
  "rabo": 4348,
  "merates</w>": 4349,
  "ttal</w>": 4350,
  "mascara</w>": 4351,
  "sace</w>": 4352,
  "thes.</w>": 4353,
  "sall</w>": 4354,
  "salad</w>": 4355,
  "datase": 4356,
  "sadon": 4357,
  "oly</w>": 4358,
  "westen": 4359,
  "inely</w>": 4360,
  "lelam": 4361,
  "never</w>": 4362,
  "hesc": 4363,
  "alas,</w>": 4364,
  "esily</w>": 4365,
  "staden": 4366,
  "rating": 4367,
  "lones.</w>": 4368,
  "doun": 4369,
  "alame": 4370,
  "mon": 4371,
  "shes": 4372,
  "silo</w>": 4373,
  "sche": 4374,
  "dire</w>": 4375,
  "olesale": 4376,
  "loon": 4377,
  "adolesc": 4378,
  "racor": 4379,
  "warily</w>": 4380,
  "dating": 4381,
  "dof</w>": 4382,
  "amaline": 4383,
  "sir</w>": 4384,
  "licate": 4385,
  "laschi": 4386,
  "carer</w>": 4387,
  "dora</w>": 4388,
  "sare": 4389,
  "\ud83d\ude1c": 4390,
  "hera": 4391,
  "chesterun": 4392,
  "reshen": 4393,
  "\u307e": 4394,
  "ole": 4395,
  "scoverab": 4396,
  "stated</w>": 4397,
  "chachi</w>": 4398,
  "sterated</w>": 4399,
  "rones": 4400,
  "hale</w>": 4401,
  "reviran": 4402,
  "telo": 4403,
  "arol</w>": 4404,
  "esales</w>": 4405,
  "lalou": 4406,
  "olan</w>": 4407,
  "rolan": 4408,
  "alamo</w>": 4409,
  "pener</w>": 4410,
  "wasa": 4411,
  "stateroom</w>": 4412,
  "cater</w>": 4413,
  "masco": 4414,
  "tire": 4415,
  "\ud83c\udf2b": 4416,
  "gered</w>": 4417,
  "stately</w>": 4418,
  "tesich": 4419,
  "acac": 4420,
  "\u30c7": 4421,
  "eraticate</w>": 4422,
  "romand</w>": 4423,
  "sate</w>": 4424,
  "reling</w>": 4425,
  "alites</w>": 4426,
  "genera</w>": 4427,
  "\u0101": 4428,
  "lames": 4429,
  "rune": 4430,
  "lasher</w>": 4431,
  "castical": 4432,
  "\u0637": 4433,
  "mili": 4434,
  "tener</w>": 4435,
  "vitt": 4436,
  "\ud83d\ude14": 4437,
  "fested</w>": 4438,
  "ites.</w>": 4439,
  "lamas.</w>": 4440,
  "rasco</w>": 4441,
  "teri</w>": 4442,
  "\u26a7": 4443,
  "\ud83e\uddd1": 4444,
  "irates,</w>": 4445,
  "oloo": 4446,
  "mitatu": 4447,
  "iles,</w>": 4448,
  "are": 4449,
  "itanes</w>": 4450,
  "doned</w>": 4451,
  "evin": 4452,
  "tale": 4453,
  "nestat": 4454,
  "amu": 4455,
  "eramu": 4456,
  "\u2049": 4457,
  "hilat": 4458,
  "ditti": 4459,
  "owen": 4460,
  "wading</w>": 4461,
  "\u2b1c": 4462,
  "steroo</w>": 4463,
  "lithering</w>": 4464,
  "casera</w>": 4465,
  "chali": 4466,
  "matine": 4467,
  "delicates": 4468,
  "\u00ec": 4469,
  "aditi": 4470,
  "devi's</w>": 4471,
  "icam</w>": 4472,
  "ing": 4473,
  "chili'": 4474,
  "chicas</w>": 4475,
  "atheran": 4476,
  "theshiro": 4477,
  "goom": 4478,
  "achelor": 4479,
  "oomed</w>": 4480,
  "\ud83d\udd0d": 4481,
  "marab": 4482,
  "omalou": 4483,
  "estites</w>": 4484,
  "\ud83d\ude03": 4485,
  "sadoman": 4486,
  "asc": 4487,
  "sader</w>": 4488,
  "h": 4489,
  "eli's</w>": 4490,
  "star": 4491,
  "acache</w>": 4492,
  "acades.</w>": 4493,
  "proving</w>": 4494,
  "amar</w>": 4495,
  "maste": 4496,
  "ricate</w>": 4497,
  "amon</w>": 4498,
  "madele": 4499,
  "s.</w>": 4500,
  "marone": 4501,
  "riched</w>": 4502,
  "rasher": 4503,
  "icares": 4504,
  "aber</w>": 4505,
  "malar": 4506,
  "vital</w>": 4507,
  "chamomile</w>": 4508,
  "vi's</w>": 4509,
  "adou": 4510,
  "dela</w>": 4511,
  "dolitt": 4512,
  "arilin": 4513,
  "rastu": 4514,
  "sca": 4515,
  "unev": 4516,
  "saste": 4517,
  "satas": 4518,
  "\u2022": 4519,
  "chilada</w>": 4520,
  "mas</w>": 4521,
  "tinen": 4522,
  "states</w>": 4523,
  "shiri": 4524,
  "vitaline": 4525,
  "itad</w>": 4526,
  "rir": 4527,
  "orating": 4528,
  "hathi": 4529,
  "doo</w>": 4530,
  "\u00df": 4531,
  "masher": 4532,
  "chad</w>": 4533,
  "laten": 4534,
  "berate</w>": 4535,
  "sittin": 4536,
  "scoli": 4537,
  "bored</w>": 4538,
  "iland</w>": 4539,
  "ttit": 4540,
  "whitest</w>": 4541,
  "whal": 4542,
  "dit's</w>": 4543,
  "desta": 4544,
  "dalen": 4545,
  "ader": 4546,
  "mescale</w>": 4547,
  "dev": 4548,
  "loru": 4549,
  "coop": 4550,
  "alit": 4551,
  "domo</w>": 4552,
  "lari": 4553,
  "nel</w>": 4554,
  "chacun</w>": 4555,
  "ramab": 4556,
  "laby</w>": 4557,
  "scopo": 4558,
  "love</w>": 4559,
  "taster": 4560,
  "scarines": 4561,
  "\u2728": 4562,
  "asines": 4563,
  "land</w>": 4564,
  "adama</w>": 4565,
  "icati": 4566,
  "dal": 4567,
  "white": 4568,
  "unevitab": 4569,
  "scales": 4570,
  "thade</w>": 4571,
  "cov": 4572,
  "hates": 4573,
  "calamari": 4574,
  "itac": 4575,
  "alili": 4576,
  "rasic": 4577,
  "runel</w>": 4578,
  "shitter": 4579,
  "tithe</w>": 4580,
  "ichi": 4581,
  "sir": 4582,
  "\ud83d\udce1": 4583,
  "olat": 4584,
  "lachere</w>": 4585,
  "aricati": 4586,
  "mire</w>": 4587,
  "ititi": 4588,
  "hito</w>": 4589,
  "poon": 4590,
  "eshe": 4591,
  "machined</w>": 4592,
  "ones": 4593,
  "i</w>": 4594,
  "all</w>": 4595,
  "stales</w>": 4596,
  "orally</w>": 4597,
  "adan": 4598,
  "labeling": 4599,
  "desireles": 4600,
  "meshar</w>": 4601,
  "terow": 4602,
  "polates</w>": 4603,
  "stiro</w>": 4604,
  "omore": 4605,
  "rascal": 4606,
  "l</w>": 4607,
  "wathed</w>": 4608,
  "thales": 4609,
  "\u80b2": 4610,
  "ori": 4611,
  "ke</w>": 4612,
  "mes.</w>": 4613,
  "lololol</w>": 4614,
  "viras</w>": 4615,
  "leshe": 4616,
  "macaro": 4617,
  "madi": 4618,
  "oren</w>": 4619,
  "asaden": 4620,
  "hamo": 4621,
  "onerev": 4622,
  "\u0098": 4623,
  "coone": 4624,
  "amoun": 4625,
  "tite</w>": 4626,
  "stas</w>": 4627,
  "iterati": 4628,
  "matically</w>": 4629,
  "sherin</w>": 4630,
  "shatila</w>": 4631,
  "tabones,</w>": 4632,
  "mariner": 4633,
  "sadashi": 4634,
  "scowor": 4635,
  "lele</w>": 4636,
  "rol</w>": 4637,
  "\ud83e\udd11": 4638,
  "chica": 4639,
  "\ud83e\udd2b": 4640,
  "shen</w>": 4641,
  "malori": 4642,
  "\ud83d\udc9a": 4643,
  "peline": 4644,
  "tashan</w>": 4645,
  "\ud83d\udc4c": 4646,
  "ichi's</w>": 4647,
  "shite</w>": 4648,
  "mered</w>": 4649,
  "itt": 4650,
  "bev": 4651,
  "qu": 4652,
  "rich</w>": 4653,
  "doori": 4654,
  "colas</w>": 4655,
  "dati": 4656,
  "cooperating": 4657,
  "hatama</w>": 4658,
  "atitu": 4659,
  "ch</w>": 4660,
  "eloper</w>": 4661,
  "sitar": 4662,
  "aschila</w>": 4663,
  "tami</w>": 4664,
  "ralala</w>": 4665,
  "ilal</w>": 4666,
  "dowall</w>": 4667,
  "ttere": 4668,
  "siter</w>": 4669,
  "6": 4670,
  "catat": 4671,
  "aming</w>": 4672,
  "\ua71b": 4673,
  "aritas</w>": 4674,
  "could</w>": 4675,
  "powered</w>": 4676,
  "chil": 4677,
  "olerab": 4678,
  "amat": 4679,
  "gelov": 4680,
  "theshel": 4681,
  "sately</w>": 4682,
  "ooled</w>": 4683,
  "sade</w>": 4684,
  "hated</w>": 4685,
  "eses": 4686,
  "genera": 4687,
  "thing</w>": 4688,
  "whiling</w>": 4689,
  "chatir": 4690,
  "masev": 4691,
  "\ud83e\udd0e": 4692,
  "moreland</w>": 4693,
  "machi": 4694,
  "poole": 4695,
  "\ud835\uddda": 4696,
  "omaster</w>": 4697,
  "stac": 4698,
  "desaster</w>": 4699,
  "littering</w>": 4700,
  "chaber": 4701,
  "arichar": 4702,
  "dice</w>": 4703,
  "literal</w>": 4704,
  "laren": 4705,
  "ilar": 4706,
  "gelopou": 4707,
  "\ud83d\uddfa": 4708,
  "everest,</w>": 4709,
  "casoma": 4710,
  "omot</w>": 4711,
  "hither</w>": 4712,
  "ditated</w>": 4713,
  "sterating": 4714,
  "\ud835\udde7": 4715,
  "rasin": 4716,
  "loring</w>": 4717,
  "desil": 4718,
  "hatt": 4719,
  "domestically</w>": 4720,
  "pomales</w>": 4721,
  "ralo": 4722,
  "sesin": 4723,
  "ittil": 4724,
  "\u7d22": 4725,
  "mal": 4726,
  "chest.</w>": 4727,
  "charing</w>": 4728,
  "veritab": 4729,
  "stali": 4730,
  "heron</w>": 4731,
  "scoveri": 4732,
  "\u667a": 4733,
  "salev": 4734,
  "lalis</w>": 4735,
  "rashin": 4736,
  "halis</w>": 4737,
  "molati": 4738,
  "vical</w>": 4739,
  "owal": 4740,
  "hich": 4741,
  "michale": 4742,
  "moor": 4743,
  "ricading</w>": 4744,
  "\ud83d\ude4f": 4745,
  "erally</w>": 4746,
  "casa</w>": 4747,
  "ites,</w>": 4748,
  "omon": 4749,
  "esu": 4750,
  "ther": 4751,
  "atherin": 4752,
  "\ud83d\ude33": 4753,
  "amal": 4754,
  "ricou": 4755,
  "shach</w>": 4756,
  "lol</w>": 4757,
  "pelo</w>": 4758,
  "boot</w>": 4759,
  "terada</w>": 4760,
  "olese</w>": 4761,
  "titan": 4762,
  "olasc": 4763,
  "les": 4764,
  "marou": 4765,
  "cooper</w>": 4766,
  "colan": 4767,
  "ware</w>": 4768,
  "itale": 4769,
  "open": 4770,
  "pelican</w>": 4771,
  "esir</w>": 4772,
  "tteren</w>": 4773,
  "ras,</w>": 4774,
  "dach": 4775,
  "ingham</w>": 4776,
  "pow</w>": 4777,
  "acore</w>": 4778,
  "viru": 4779,
  "scalon": 4780,
  "adiron": 4781,
  "shamed</w>": 4782,
  "enel": 4783,
  "whac": 4784,
  "sarat</w>": 4785,
  "site": 4786,
  "acher</w>": 4787,
  "tiler</w>": 4788,
  "ichinger</w>": 4789,
  "deron": 4790,
  "filero": 4791,
  "lones</w>": 4792,
  "lowes,</w>": 4793,
  "oneles": 4794,
  "enes</w>": 4795,
  "ashi's</w>": 4796,
  "arala</w>": 4797,
  "hine</w>": 4798,
  "sestin": 4799,
  "rico</w>": 4800,
  "rasa": 4801,
  "rathin</w>": 4802,
  "arada": 4803,
  "iril": 4804,
  "ash": 4805,
  "eliche</w>": 4806,
  "thesam": 4807,
  "deran": 4808,
  "carou": 4809,
  "mop": 4810,
  "overabun": 4811,
  "rabel": 4812,
  "ghata": 4813,
  "\u00bf": 4814,
  "coolest,</w>": 4815,
  "casa": 4816,
  "mira</w>": 4817,
  "alates,</w>": 4818,
  "tilely</w>": 4819,
  "ramas,</w>": 4820,
  "gest": 4821,
  "evichit": 4822,
  "estac": 4823,
  "mile</w>": 4824,
  "shares</w>": 4825,
  "sican": 4826,
  "sterically</w>": 4827,
  "cama</w>": 4828,
  "sador</w>": 4829,
  "adast": 4830,
  "ramel": 4831,
  "carolin": 4832,
  "[": 4833,
  "prolon": 4834,
  "scoo": 4835,
  "haling": 4836,
  "harilall</w>": 4837,
  "deric": 4838,
  "lical": 4839,
  "alesce</w>": 4840,
  "gelatin</w>": 4841,
  "amami": 4842,
  "corate": 4843,
  "bomite</w>": 4844,
  "shadi</w>": 4845,
  "dora": 4846,
  "mashes</w>": 4847,
  "wad,</w>": 4848,
  "ileron</w>": 4849,
  "boli</w>": 4850,
  "miral": 4851,
  "omitte": 4852,
  "shera</w>": 4853,
  "gerac": 4854,
  "maladi": 4855,
  "mical": 4856,
  "irines": 4857,
  "madi</w>": 4858,
  "shal</w>": 4859,
  "arat</w>": 4860,
  "sired</w>": 4861,
  "stami</w>": 4862,
  "elis</w>": 4863,
  "tasi": 4864,
  "gering": 4865,
  "shires</w>": 4866,
  "n": 4867,
  "amari": 4868,
  "salar": 4869,
  "vicar</w>": 4870,
  "loo</w>": 4871,
  "stit": 4872,
  "bestestest</w>": 4873,
  "lines</w>": 4874,
  "dasa": 4875,
  "stash": 4876,
  "\ud83d\ude3c": 4877,
  "arama</w>": 4878,
  "\u1d52": 4879,
  "testin": 4880,
  "hanen": 4881,
  "elerin": 4882,
  "tilev": 4883,
  "haste</w>": 4884,
  "lomats</w>": 4885,
  "mariner</w>": 4886,
  "tabori": 4887,
  "wex": 4888,
  "terene": 4889,
  "lasa": 4890,
  "ororiti": 4891,
  "iteri": 4892,
  "elati": 4893,
  "rolin</w>": 4894,
  "tit.</w>": 4895,
  "hates.</w>": 4896,
  "chil</w>": 4897,
  "beratel": 4898,
  "cha</w>": 4899,
  "\ud83d\udd35": 4900,
  "charo</w>": 4901,
  "lever</w>": 4902,
  "adoring</w>": 4903,
  "acall</w>": 4904,
  "\u6b3e": 4905,
  "\u0643": 4906,
  "sicated</w>": 4907,
  "bera": 4908,
  "merest</w>": 4909,
  "ralar": 4910,
  "perin": 4911,
  "restara": 4912,
  "licates,</w>": 4913,
  "chastened</w>": 4914,
  "ratti</w>": 4915,
  "derer</w>": 4916,
  "derates": 4917,
  "aching</w>": 4918,
  "cored</w>": 4919,
  "cada": 4920,
  "hesitate</w>": 4921,
  "melon</w>": 4922,
  "shadoo": 4923,
  "\ud83d\udc9c": 4924,
  "peste</w>": 4925,
  "\u00b3": 4926,
  "telescop": 4927,
  "sitat": 4928,
  "acabou": 4929,
  "ilatan</w>": 4930,
  "hame</w>": 4931,
  "arado</w>": 4932,
  "damom</w>": 4933,
  "irates": 4934,
  "water": 4935,
  "lares,</w>": 4936,
  "\u0317": 4937,
  "athering</w>": 4938,
  "derica</w>": 4939,
  "amas</w>": 4940,
  "meriting</w>": 4941,
  "\ud83e\udd2f": 4942,
  "tattac": 4943,
  "stically</w>": 4944,
  "mened</w>": 4945,
  "itama</w>": 4946,
  "fered</w>": 4947,
  "abo": 4948,
  "lowest,</w>": 4949,
  "oope": 4950,
  "ttis</w>": 4951,
  "ricot</w>": 4952,
  "somatic": 4953,
  "sililac": 4954,
  "ali</w>": 4955,
  "lalan": 4956,
  "omate": 4957,
  "litu": 4958,
  "singu": 4959,
  "operatic": 4960,
  "wel": 4961,
  "whale": 4962,
  "alati": 4963,
  "irasi": 4964,
  "\u2194": 4965,
  "\ud83e\udd34": 4966,
  "corati": 4967,
  "licon": 4968,
  "linex": 4969,
  "veras": 4970,
  "olathe": 4971,
  "testen</w>": 4972,
  "scasting</w>": 4973,
  "arine</w>": 4974,
  "colating</w>": 4975,
  "irooloo</w>": 4976,
  "\ud83c\udf44": 4977,
  "tamar</w>": 4978,
  "olerate</w>": 4979,
  "wesome</w>": 4980,
  "colou": 4981,
  "beres": 4982,
  "sato</w>": 4983,
  "aromatic": 4984,
  "thin</w>": 4985,
  "ita</w>": 4986,
  "arately</w>": 4987,
  "thara": 4988,
  "asi</w>": 4989,
  "wales,</w>": 4990,
  "elites": 4991,
  "ingun": 4992,
  "lash": 4993,
  "eloped</w>": 4994,
  "damon</w>": 4995,
  "wesomenes": 4996,
  "verine": 4997,
  "sese": 4998,
  "boon": 4999,
  "latt.</w>": 5000,
  "colore": 5001,
  "dover": 5002,
  "dad": 5003,
  "cabu": 5004,
  "operates": 5005,
  "mita</w>": 5006,
  "dira</w>": 5007,
  "dicare</w>": 5008,
  "omever</w>": 5009,
  "eras.</w>": 5010,
  "lores</w>": 5011,
  "ghas,</w>": 5012,
  "lololol": 5013,
  "merab": 5014,
  "\u25b8": 5015,
  "rily</w>": 5016,
  "hasen": 5017,
  "shalom": 5018,
  "matt</w>": 5019,
  "olasca": 5020,
  "oramas</w>": 5021,
  "inerating</w>": 5022,
  "teresti": 5023,
  "lomatic": 5024,
  "ener</w>": 5025,
  "rene": 5026,
  "\ud83e\udd18": 5027,
  "olate</w>": 5028,
  "rashes,</w>": 5029,
  "astero": 5030,
  "attire</w>": 5031,
  "adex": 5032,
  "mashal": 5033,
  "sing": 5034,
  "en't</w>": 5035,
  "\ud83e\udd42": 5036,
  "thines": 5037,
  "omiru": 5038,
  "asam</w>": 5039,
  "adines": 5040,
  "literal": 5041,
  "scooper": 5042,
  "maraschin": 5043,
  "chines": 5044,
  "darin": 5045,
  "aben": 5046,
  "anex": 5047,
  "states,</w>": 5048,
  "\ud83d\uddbc": 5049,
  "with</w>": 5050,
  "icoli": 5051,
  "stere": 5052,
  "dastev": 5053,
  "copou": 5054,
  "somed</w>": 5055,
  "ran</w>": 5056,
  "aramo": 5057,
  "aler": 5058,
  "mitting": 5059,
  "hescu": 5060,
  "asily</w>": 5061,
  "esalily</w>": 5062,
  "ttan": 5063,
  "pooped</w>": 5064,
  "tene</w>": 5065,
  "pe</w>": 5066,
  "fen</w>": 5067,
  "salou": 5068,
  "ingun</w>": 5069,
  "whenever": 5070,
  "\u00f0": 5071,
  "resevered</w>": 5072,
  "taramo": 5073,
  "loover</w>": 5074,
  "heres": 5075,
  "teral</w>": 5076,
  "atine": 5077,
  "danely</w>": 5078,
  "radamu": 5079,
  "\ud83d\udfe2": 5080,
  "orily</w>": 5081,
  "acol": 5082,
  "sale</w>": 5083,
  "esticati": 5084,
  "lamely</w>": 5085,
  "melan": 5086,
  "minesc": 5087,
  "mara": 5088,
  "chiles": 5089,
  "romo": 5090,
  "dashing</w>": 5091,
  "corin": 5092,
  "ataboo</w>": 5093,
  "esome</w>": 5094,
  "ari</w>": 5095,
  "mis</w>": 5096,
  "hater": 5097,
  "stevita</w>": 5098,
  "rari</w>": 5099,
  "wada</w>": 5100,
  "mithali": 5101,
  "arasala": 5102,
  "camomile</w>": 5103,
  "owel": 5104,
  "proot</w>": 5105,
  "catalo": 5106,
  "minest": 5107,
  "amica</w>": 5108,
  "athar": 5109,
  "laner</w>": 5110,
  "herevil": 5111,
  "lopes</w>": 5112,
  "tila</w>": 5113,
  "tteri": 5114,
  "elaborati": 5115,
  "teru": 5116,
  "\u0e34": 5117,
  "sader": 5118,
  "samer": 5119,
  "rowed</w>": 5120,
  "\ud83d\udce7": 5121,
  "ju": 5122,
  "itical</w>": 5123,
  "asal</w>": 5124,
  "astines": 5125,
  "omatic": 5126,
  "icara": 5127,
  "hathe": 5128,
  "astil": 5129,
  "omit,</w>": 5130,
  "beste": 5131,
  "astiche</w>": 5132,
  "omore</w>": 5133,
  "ritical</w>": 5134,
  "ilad</w>": 5135,
  "marita</w>": 5136,
  "tti": 5137,
  "perates</w>": 5138,
  "\u5f8b": 5139,
  "icom": 5140,
  "belasco</w>": 5141,
  "licorac": 5142,
  "oloman</w>": 5143,
  "lad": 5144,
  "polov": 5145,
  "manes</w>": 5146,
  "nevi": 5147,
  "sabela</w>": 5148,
  "reshest,</w>": 5149,
  "they</w>": 5150,
  "mune</w>": 5151,
  "opes.</w>": 5152,
  "scab": 5153,
  "\u00e6": 5154,
  "chit.</w>": 5155,
  "pen": 5156,
  "sterone": 5157,
  "ritter</w>": 5158,
  "samira</w>": 5159,
  "aloman": 5160,
  "hattachar": 5161,
  "levit": 5162,
  "eshabe": 5163,
  "esing</w>": 5164,
  "tter": 5165,
  "esc": 5166,
  "my</w>": 5167,
  "\u2018": 5168,
  "molar": 5169,
  "ovice</w>": 5170,
  "bore</w>": 5171,
  "lan": 5172,
  "sitel": 5173,
  "richal": 5174,
  "that</w>": 5175,
  "it</w>": 5176,
  "s": 5177,
  "you</w>": 5178,
  "colates": 5179,
  "fesh": 5180,
  "arine": 5181,
  "amitab": 5182,
  "chat</w>": 5183,
  "titu": 5184,
  "lithe</w>": 5185,
  "goon": 5186,
  "hala": 5187,
  "roovin": 5188,
  "rather</w>": 5189,
  "reshing": 5190,
  "aching": 5191,
  "tam</w>": 5192,
  "sch": 5193,
  "\u2122": 5194,
  "ami's</w>": 5195,
  "literatu": 5196,
  "lila</w>": 5197,
  "masami</w>": 5198,
  "tala": 5199,
  "ol": 5200,
  "steresting</w>": 5201,
  "somest</w>": 5202,
  "rithes</w>": 5203,
  "thevir": 5204,
  "oon</w>": 5205,
  "rashi": 5206,
  "\ud83c\udffc": 5207,
  "cales.</w>": 5208,
  "radit": 5209,
  "rese": 5210,
  "sadi": 5211,
  "rerele": 5212,
  "shined</w>": 5213,
  "asar": 5214,
  "camerash": 5215,
  "itting": 5216,
  "litte</w>": 5217,
  "selac": 5218,
  "ghan": 5219,
  "racadab": 5220,
  "bel</w>": 5221,
  "ritten</w>": 5222,
  "michel</w>": 5223,
  "mirin": 5224,
  "estiti": 5225,
  "hade</w>": 5226,
  "olate": 5227,
  "veren": 5228,
  "boling</w>": 5229,
  "\ud83d\udcf7": 5230,
  "telescope</w>": 5231,
  "olabo": 5232,
  "omit.</w>": 5233,
  "munerati": 5234,
  "rin</w>": 5235,
  "ghi": 5236,
  "halab": 5237,
  "ittines": 5238,
  "ilil</w>": 5239,
  "ghere": 5240,
  "reshed</w>": 5241,
  "oop</w>": 5242,
  "laborate</w>": 5243,
  "lesal</w>": 5244,
  "asch</w>": 5245,
  "stalin</w>": 5246,
  "morer</w>": 5247,
  "moped</w>": 5248,
  "omerun</w>": 5249,
  "\\nelic": 5250,
  "waca": 5251,
  "sicast": 5252,
  "inestan": 5253,
  "nest,</w>": 5254,
  "astu": 5255,
  "\u4fe1": 5256,
  "olir": 5257,
  "attached</w>": 5258,
  "dada": 5259,
  "ladened</w>": 5260,
  "opolitan": 5261,
  "aron</w>": 5262,
  "tily</w>": 5263,
  "colades": 5264,
  "scare</w>": 5265,
  "adored</w>": 5266,
  "raru": 5267,
  "\ud835\udc8c": 5268,
  "dates": 5269,
  "asts</w>": 5270,
  "adest</w>": 5271,
  "eshadow</w>": 5272,
  "ittab": 5273,
  "habe": 5274,
  "ricately</w>": 5275,
  "mora</w>": 5276,
  "athir": 5277,
  "ashes</w>": 5278,
  "\ud83e\udd10": 5279,
  "inesca": 5280,
  "whit.</w>": 5281,
  "mila</w>": 5282,
  "olesel": 5283,
  "wac": 5284,
  "abon": 5285,
  "loun": 5286,
  "lit,</w>": 5287,
  "\ud83d\udead": 5288,
  "\u203c": 5289,
  "irene</w>": 5290,
  "corice</w>": 5291,
  "fun</w>": 5292,
  "owering": 5293,
  "elate</w>": 5294,
  "berin": 5295,
  "\u30e7": 5296,
  "lowen</w>": 5297,
  "verop": 5298,
  "cooper": 5299,
  "devin": 5300,
  "stam</w>": 5301,
  "ese</w>": 5302,
  "tat</w>": 5303,
  "attach</w>": 5304,
  "ilera": 5305,
  "lomara</w>": 5306,
  "\u0091": 5307,
  "omou": 5308,
  "vice</w>": 5309,
  "telab": 5310,
  "omatter": 5311,
  "mating</w>": 5312,
  "televi": 5313,
  "acomo": 5314,
  "\ud83e\uddf6": 5315,
  "omas,</w>": 5316,
  "chere": 5317,
  "mamoru": 5318,
  "hero</w>": 5319,
  "talen": 5320,
  "hane</w>": 5321,
  "harata": 5322,
  "delicate": 5323,
  "some": 5324,
  "hicu": 5325,
  "for": 5326,
  "sitt": 5327,
  "stat</w>": 5328,
  "comened</w>": 5329,
  "shis</w>": 5330,
  "ches,</w>": 5331,
  "asthan</w>": 5332,
  "siren": 5333,
  "oming": 5334,
  "\u008a": 5335,
  "aboon</w>": 5336,
  "ropop": 5337,
  "stelo</w>": 5338,
  "lares</w>": 5339,
  "cal": 5340,
  "miracolo</w>": 5341,
  "\ud83d\ude21": 5342,
  "dicab": 5343,
  "whitting": 5344,
  "chen": 5345,
  "lamy</w>": 5346,
  "itari": 5347,
  "macher</w>": 5348,
  "lenel": 5349,
  "corin</w>": 5350,
  "cameron": 5351,
  "tasti": 5352,
  "litterati</w>": 5353,
  "alow</w>": 5354,
  "darev": 5355,
  "rathi</w>": 5356,
  "whales.</w>": 5357,
  "casal</w>": 5358,
  "opera": 5359,
  "ali": 5360,
  "sarole</w>": 5361,
  "ashaman": 5362,
  "alor</w>": 5363,
  "rin": 5364,
  "oring": 5365,
  "singel</w>": 5366,
  "ghin</w>": 5367,
  "poland</w>": 5368,
  "ritically</w>": 5369,
  "ticated</w>": 5370,
  "miti": 5371,
  "calamit": 5372,
  "everest.</w>": 5373,
  "lil": 5374,
  "\u0e27": 5375,
  "ritates": 5376,
  "desade": 5377,
  "halovic": 5378,
  "somali</w>": 5379,
  "haro</w>": 5380,
  "ghast": 5381,
  "perines": 5382,
  "linger</w>": 5383,
  "elerade": 5384,
  "dar": 5385,
  "talin": 5386,
  "esther": 5387,
  "ex": 5388,
  "asically</w>": 5389,
  "owes</w>": 5390,
  "ritical": 5391,
  "\ud83d\udc7c": 5392,
  "camara": 5393,
  "\ud83e\udd19": 5394,
  "tasting</w>": 5395,
  "adaches,</w>": 5396,
  "dared</w>": 5397,
  "rade": 5398,
  "melamine</w>": 5399,
  "scores.</w>": 5400,
  "pere": 5401,
  "lithered</w>": 5402,
  "le": 5403,
  "mabel": 5404,
  "comin": 5405,
  "ilalas": 5406,
  "caracas,</w>": 5407,
  "shera": 5408,
  "elita": 5409,
  "itti": 5410,
  "dites.</w>": 5411,
  "ines</w>": 5412,
  "shades</w>": 5413,
  "fes.</w>": 5414,
  "cades</w>": 5415,
  "datan": 5416,
  "habo</w>": 5417,
  "chitale</w>": 5418,
  "bowan": 5419,
  "rilo": 5420,
  "political": 5421,
  "\ud83c\udf7f": 5422,
  "operated</w>": 5423,
  "alama</w>": 5424,
  "sterical</w>": 5425,
  "er": 5426,
  "thelin": 5427,
  "waric": 5428,
  "eld</w>": 5429,
  "ilev": 5430,
  "lerical</w>": 5431,
  "oo": 5432,
  "linger": 5433,
  "score</w>": 5434,
  "dun</w>": 5435,
  "chalo</w>": 5436,
  "olating</w>": 5437,
  "dilated</w>": 5438,
  "maren</w>": 5439,
  "resel": 5440,
  "tad": 5441,
  "ritene": 5442,
  "peram": 5443,
  "att": 5444,
  "polines": 5445,
  "bolica": 5446,
  "west": 5447,
  "lara</w>": 5448,
  "tilitari": 5449,
  "was,</w>": 5450,
  "date</w>": 5451,
  "oli": 5452,
  "ricab": 5453,
  "scoring</w>": 5454,
  "romama": 5455,
  "aromali": 5456,
  "singer</w>": 5457,
  "devi</w>": 5458,
  "mores,</w>": 5459,
  "ritinghel": 5460,
  "enes,</w>": 5461,
  "bolo": 5462,
  "rit": 5463,
  "owas": 5464,
  "icolor</w>": 5465,
  "sascha</w>": 5466,
  "teres": 5467,
  "morale</w>": 5468,
  "athil</w>": 5469,
  "astest.</w>": 5470,
  "titit": 5471,
  "se</w>": 5472,
  "chinese</w>": 5473,
  "peror</w>": 5474,
  "tate": 5475,
  "hades</w>": 5476,
  "samaritan": 5477,
  "besi</w>": 5478,
  "scattering</w>": 5479,
  "tese</w>": 5480,
  "ditti</w>": 5481,
  "ricated</w>": 5482,
  "amomo": 5483,
  "litten</w>": 5484,
  "escalat": 5485,
  "nered</w>": 5486,
  "oro</w>": 5487,
  "itan</w>": 5488,
  "mel": 5489,
  "talon</w>": 5490,
  "\u4ecb": 5491,
  "pon</w>": 5492,
  "severe": 5493,
  "eraben": 5494,
  "ami": 5495,
  "cameramen": 5496,
  "esen": 5497,
  "tati</w>": 5498,
  "\u00f3": 5499,
  "raditi": 5500,
  "stare": 5501,
  "dest.</w>": 5502,
  "powerad": 5503,
  "sama</w>": 5504,
  "owel</w>": 5505,
  "scarel": 5506,
  "scovering</w>": 5507,
  "derab": 5508,
  "evita</w>": 5509,
  "eladon": 5510,
  "porou": 5511,
  "tane": 5512,
  "berer": 5513,
  "adoon</w>": 5514,
  "\u3051": 5515,
  "hits</w>": 5516,
  "rasting": 5517,
  "maracas.</w>": 5518,
  "cadam": 5519,
  "shand</w>": 5520,
  "morelo": 5521,
  "ingha": 5522,
  "masala": 5523,
  "masil": 5524,
  "lading</w>": 5525,
  "dorama</w>": 5526,
  "adichath": 5527,
  "\u00ea": 5528,
  "geling</w>": 5529,
  "\ud83d\udce2": 5530,
  "eratic": 5531,
  "\u502b": 5532,
  "chaden": 5533,
  "testu": 5534,
  "\ud83d\ude47": 5535,
  "tereste": 5536,
  "neru": 5537,
  "moor</w>": 5538,
  "mately</w>": 5539,
  "grev": 5540,
  "teri": 5541,
  "bores</w>": 5542,
  "cope</w>": 5543,
  "\ud83c\udf1a": 5544,
  "wari": 5545,
  "pone</w>": 5546,
  "\ud83e\uddbe": 5547,
  "thenex": 5548,
  "tta</w>": 5549,
  "sener": 5550,
  "ane": 5551,
  "wer": 5552,
  "samin": 5553,
  "chit": 5554,
  "erel</w>": 5555,
  "lan</w>": 5556,
  "amese": 5557,
  "camaril": 5558,
  "mad.</w>": 5559,
  "thara</w>": 5560,
  "carest,</w>": 5561,
  "generates,</w>": 5562,
  "lattes,</w>": 5563,
  "athic": 5564,
  "cheli": 5565,
  "macadam": 5566,
  "hilari": 5567,
  "miting</w>": 5568,
  "harilal": 5569,
  "\u1d4d": 5570,
  "ttes": 5571,
  "oleric": 5572,
  "casama": 5573,
  "miro": 5574,
  "domen</w>": 5575,
  "wadel": 5576,
  "adican</w>": 5577,
  "\u4e03": 5578,
  "lol": 5579,
  "cama": 5580,
  "erad": 5581,
  "dones</w>": 5582,
  "ast": 5583,
  "milanese": 5584,
  "bola</w>": 5585,
  "dattic": 5586,
  "dering</w>": 5587,
  "tito</w>": 5588,
  "nesthesi": 5589,
  "mastu": 5590,
  "bop": 5591,
  "lasico": 5592,
  "sine</w>": 5593,
  "orade</w>": 5594,
  "..": 5595,
  "mathe": 5596,
  "\u7fbd": 5597,
  "fed</w>": 5598,
  "icoo": 5599,
  "somes</w>": 5600,
  "powera": 5601,
  "st</w>": 5602,
  "poun": 5603,
  "samic": 5604,
  "\u27a4": 5605,
  "had": 5606,
  "lovis</w>": 5607,
  "atasha": 5608,
  "rined</w>": 5609,
  "\u691c": 5610,
  "ooloo": 5611,
  "dol": 5612,
  "irical</w>": 5613,
  "icas": 5614,
  "char</w>": 5615,
  "hata": 5616,
  "ilitater</w>": 5617,
  "dere": 5618,
  "sabe": 5619,
  "eradicat": 5620,
  "lonel": 5621,
  "molested</w>": 5622,
  "comical": 5623,
  "atha</w>": 5624,
  "cola</w>": 5625,
  "madame": 5626,
  "milati": 5627,
  "gelic": 5628,
  "abo</w>": 5629,
  "matham</w>": 5630,
  "tasted</w>": 5631,
  "camil": 5632,
  "nesicar": 5633,
  "oles</w>": 5634,
  "ron</w>": 5635,
  "lating</w>": 5636,
  "rather": 5637,
  "asa</w>": 5638,
  "atale</w>": 5639,
  "mela": 5640,
  "\ud83c\udf41": 5641,
  "chattar": 5642,
  "ali's</w>": 5643,
  "tteril": 5644,
  "\ud83e\udee3": 5645,
  "ilo": 5646,
  "rilan": 5647,
  "haled</w>": 5648,
  "catering": 5649,
  "thical</w>": 5650,
  "labone": 5651,
  "milon": 5652,
  "\u2192": 5653,
  "do": 5654,
  "laboring</w>": 5655,
  "gero": 5656,
  "br</w>": 5657,
  "eses,</w>": 5658,
  "lool</w>": 5659,
  "shirow": 5660,
  "moron": 5661,
  "iran</w>": 5662,
  "asten</w>": 5663,
  "lir": 5664,
  "astel": 5665,
  "serand</w>": 5666,
  "ingen": 5667,
  "lout</w>": 5668,
  "erowa": 5669,
  "doma": 5670,
  "elerate": 5671,
  "tasco</w>": 5672,
  "omer": 5673,
  "lamar</w>": 5674,
  "mowe": 5675,
  "hastily</w>": 5676,
  "sasun": 5677,
  "periled</w>": 5678,
  "whatel": 5679,
  "domov": 5680,
  "orites,</w>": 5681,
  "ichan": 5682,
  "\ud83d\udc7e": 5683,
  "sheril": 5684,
  "elas</w>": 5685,
  "rades,</w>": 5686,
  "ris</w>": 5687,
  "ico": 5688,
  "math": 5689,
  "miles,</w>": 5690,
  "adele": 5691,
  "athab": 5692,
  "vitati": 5693,
  "owhere</w>": 5694,
  "fores": 5695,
  "coveral": 5696,
  "ilab": 5697,
  "lastere": 5698,
  "\ud83d\udc4f": 5699,
  "americolor</w>": 5700,
  "tadan": 5701,
  "ses,</w>": 5702,
  "<": 5703,
  "sical": 5704,
  "dinger": 5705,
  "cheril": 5706,
  "ast.</w>": 5707,
  "eses.</w>": 5708,
  "ritic": 5709,
  "michiru": 5710,
  "moran</w>": 5711,
  "mor": 5712,
  "escher</w>": 5713,
  "wali": 5714,
  "dama</w>": 5715,
  "amamore": 5716,
  "haran</w>": 5717,
  "adite</w>": 5718,
  "hatter": 5719,
  "radesh": 5720,
  "\ud83e\udd2a": 5721,
  "powe": 5722,
  "raching</w>": 5723,
  "tuner": 5724,
  "overex": 5725,
  "derich</w>": 5726,
  "itted</w>": 5727,
  "ora": 5728,
  "sticati": 5729,
  "stinghi": 5730,
  "ilad": 5731,
  "\ud83d\ude46": 5732,
  "esomes.</w>": 5733,
  "dare</w>": 5734,
  "che</w>": 5735,
  "boles</w>": 5736,
  "revi": 5737,
  "wamori</w>": 5738,
  "lesar": 5739,
  "devilic": 5740,
  "sado": 5741,
  "caraboo</w>": 5742,
  "ttu": 5743,
  "boned</w>": 5744,
  "vilan</w>": 5745,
  "\ud83e\udde8": 5746,
  "delal": 5747,
  "mored</w>": 5748,
  "lelit</w>": 5749,
  "stall</w>": 5750,
  "molestati": 5751,
  "acally</w>": 5752,
  "min": 5753,
  "lit.</w>": 5754,
  "rad": 5755,
  "\u2b50": 5756,
  "\u008b": 5757,
  "\ud83c\udf34": 5758,
  "levine": 5759,
  "adab": 5760,
  "mattere": 5761,
  "orale</w>": 5762,
  "terile": 5763,
  "\ud83d\udc98": 5764,
  "lower</w>": 5765,
  "porar": 5766,
  "\u0e21": 5767,
  "come": 5768,
  "tas": 5769,
  "maliti": 5770,
  "irala": 5771,
  "ineli": 5772,
  "sts</w>": 5773,
  "ropolis</w>": 5774,
  "amati": 5775,
  "alomes</w>": 5776,
  "scaler": 5777,
  "mada": 5778,
  "roles.</w>": 5779,
  "opon</w>": 5780,
  "amelas</w>": 5781,
  "\ud83d\ude4c": 5782,
  "\ud83d\ude38": 5783,
  "dones": 5784,
  "virolo": 5785,
  "wherever</w>": 5786,
  "theran": 5787,
  "watter</w>": 5788,
  "irer": 5789,
  "sila": 5790,
  "sil</w>": 5791,
  "madilov": 5792,
  "chelor</w>": 5793,
  "melines,</w>": 5794,
  "arash": 5795,
  "adis</w>": 5796,
  "merit,</w>": 5797,
  "inged</w>": 5798,
  "vis</w>": 5799,
  "pestic": 5800,
  "roun": 5801,
  "chili": 5802,
  "scolorati": 5803,
  "serene": 5804,
  "stine</w>": 5805,
  "ttes</w>": 5806,
  "tting</w>": 5807,
  "rester": 5808,
  "lorat": 5809,
  "tata": 5810,
  "arad": 5811,
  "lonese</w>": 5812,
  "dov": 5813,
  "achad</w>": 5814,
  "lal</w>": 5815,
  "mones.</w>": 5816,
  "mitic": 5817,
  "caca</w>": 5818,
  "hires</w>": 5819,
  "dolorou": 5820,
  "atered</w>": 5821,
  "ghered</w>": 5822,
  "pooling</w>": 5823,
  "\u00a7": 5824,
  "cower</w>": 5825,
  "rera": 5826,
  "aselin": 5827,
  "scom</w>": 5828,
  "momen": 5829,
  "comare": 5830,
  "lar": 5831,
  "rasher</w>": 5832,
  "ritata": 5833,
  "cased</w>": 5834,
  "ttera": 5835,
  "eradicated</w>": 5836,
  "\u20ac": 5837,
  "vinely</w>": 5838,
  "proom": 5839,
  "\ud80c\udcf5": 5840,
  "filone": 5841,
  "estatic": 5842,
  "tamiro": 5843,
  "tests</w>": 5844,
  "dor": 5845,
  "caracas</w>": 5846,
  "dit</w>": 5847,
  "mol": 5848,
  "ting": 5849,
  "\u0648": 5850,
  "tely</w>": 5851,
  "ilene</w>": 5852,
  "achala</w>": 5853,
  "tesco</w>": 5854,
  "\ud83d\ude04": 5855,
  "foreshadow</w>": 5856,
  "astas,</w>": 5857,
  "lene</w>": 5858,
  "mines</w>": 5859,
  "lasico</w>": 5860,
  "sterol</w>": 5861,
  "\ud83d\udee0": 5862,
  "hin</w>": 5863,
  "moviline</w>": 5864,
  "dali</w>": 5865,
  "rower</w>": 5866,
  "miramu": 5867,
  "forab": 5868,
  "athin</w>": 5869,
  "tamali": 5870,
  "adorab": 5871,
  "mati</w>": 5872,
  "poles.</w>": 5873,
  "do</w>": 5874,
  "loomis</w>": 5875,
  "cove</w>": 5876,
  "eloma</w>": 5877,
  "ed</w>": 5878,
  "al</w>": 5879,
  "anenes": 5880,
  "prone": 5881,
  "latten</w>": 5882,
  "\u7d44": 5883,
  "ene</w>": 5884,
  "ramer": 5885,
  "atter": 5886,
  "dad,</w>": 5887,
  "tirene</w>": 5888,
  "siles": 5889,
  "colove</w>": 5890,
  "elicot</w>": 5891,
  "\ud835\udc1c": 5892,
  "oun": 5893,
  "wasu": 5894,
  "stas": 5895,
  "sit": 5896,
  "chastic": 5897,
  "merolo": 5898,
  "one</w>": 5899,
  "din": 5900,
  "cones.</w>": 5901,
  "fero": 5902,
  "aboun": 5903,
  "caric": 5904,
  "hases</w>": 5905,
  "casting": 5906,
  "caradine</w>": 5907,
  "domesticati": 5908,
  "aded</w>": 5909,
  "\ud835\ude28": 5910,
  "astero</w>": 5911,
  "erou": 5912,
  "\u2193": 5913,
  "rand</w>": 5914,
  "hireling": 5915,
  "\ud83e\uddea": 5916,
  "thesa": 5917,
  "lev": 5918,
  "dam</w>": 5919,
  "statesi": 5920,
  "tatar": 5921,
  "perabun": 5922,
  "\ud83e\udd37": 5923,
  "ghest,</w>": 5924,
  "comas</w>": 5925,
  "icol": 5926,
  "inel</w>": 5927,
  "last</w>": 5928,
  "\u30e9": 5929,
  "cas,</w>": 5930,
  "\ud83d\udd14": 5931,
  "miched</w>": 5932,
  "wats</w>": 5933,
  "\u00ab": 5934,
  "pel": 5935,
  "shiner</w>": 5936,
  "lorin": 5937,
  "litteraly</w>": 5938,
  "hatts</w>": 5939,
  "amoo": 5940,
  "devich</w>": 5941,
  "onere": 5942,
  "acati": 5943,
  "hiladi": 5944,
  "salin</w>": 5945,
  "hase</w>": 5946,
  "haril": 5947,
  "reve</w>": 5948,
  "macha": 5949,
  "witha</w>": 5950,
  "gerit": 5951,
  "abel</w>": 5952,
  "derati": 5953,
  "geshac": 5954,
  "lorine</w>": 5955,
  "halic": 5956,
  "iro</w>": 5957,
  "irit's</w>": 5958,
  "lilo": 5959,
  "linese": 5960,
  "scot</w>": 5961,
  "tabon": 5962,
  "chattering</w>": 5963,
  "marat": 5964,
  "lalica": 5965,
  "estes,</w>": 5966,
  "mescaline</w>": 5967,
  "ored</w>": 5968,
  "lich": 5969,
  "boricu": 5970,
  "somo": 5971,
  "sely</w>": 5972,
  "abes": 5973,
  "ooly</w>": 5974,
  "achan": 5975,
  "b": 5976,
  "enen</w>": 5977,
  "literating</w>": 5978,
  "foreshadowe": 5979,
  "s</w>": 5980,
  "chase</w>": 5981,
  "scones</w>": 5982,
  "whatati": 5983,
  "\ud83e\udd76": 5984,
  "revil": 5985,
  "younes</w>": 5986,
  "morab": 5987,
  "ingere": 5988,
  "bel": 5989,
  "aresh": 5990,
  "\u30b0": 5991,
  "eradicate": 5992,
  "doner</w>": 5993,
  "terest,</w>": 5994,
  "steres</w>": 5995,
  "shane</w>": 5996,
  "ttabesome": 5997,
  "lonesome</w>": 5998,
  "olesome": 5999,
  "alitati": 6000,
  "\ud835\udc2e": 6001,
  "asenes": 6002,
  "stinesco": 6003,
  "denero</w>": 6004,
  "iling</w>": 6005,
  "tesan</w>": 6006,
  "levi": 6007,
  "arener": 6008,
  "inges</w>": 6009,
  "amese</w>": 6010,
  "ica": 6011,
  "oolan</w>": 6012,
  "thast</w>": 6013,
  "\ud83d\ude48": 6014,
  "copene": 6015,
  "\ud83c\udfb5": 6016,
  "com</w>": 6017,
  "malachi's</w>": 6018,
  "leshed</w>": 6019,
  "asco</w>": 6020,
  "loom": 6021,
  "iresi": 6022,
  "mitting</w>": 6023,
  "\ud835\udfee": 6024,
  "escalated</w>": 6025,
  "rasile": 6026,
  "adomin": 6027,
  "esita</w>": 6028,
  "ge</w>": 6029,
  "attested</w>": 6030,
  "tteren": 6031,
  "calico</w>": 6032,
  "beron</w>": 6033,
  "aterer</w>": 6034,
  "gela</w>": 6035,
  "lolev": 6036,
  "athere": 6037,
  "cooperate": 6038,
  "ooner</w>": 6039,
  "child</w>": 6040,
  "por</w>": 6041,
  "casat": 6042,
  "cori": 6043,
  "boomer": 6044,
  "sada": 6045,
  "miling</w>": 6046,
  "irated</w>": 6047,
  "tater</w>": 6048,
  "shader</w>": 6049,
  "beral": 6050,
  "lads</w>": 6051,
  "atil": 6052,
  "mirit</w>": 6053,
  "perating": 6054,
  "ricolore</w>": 6055,
  "erase</w>": 6056,
  "atthe": 6057,
  "ches.</w>": 6058,
  "tharon": 6059,
  "desire</w>": 6060,
  "pope</w>": 6061,
  "hashex": 6062,
  "harel": 6063,
  "itan": 6064,
  "\u00ee": 6065,
  "perile": 6066,
  "mune": 6067,
  "anel</w>": 6068,
  "iron</w>": 6069,
  "ames": 6070,
  "dale": 6071,
  "descu": 6072,
  "chirac": 6073,
  "orenes": 6074,
  "ashing</w>": 6075,
  "colon": 6076,
  "laric": 6077,
  "ritin": 6078,
  "tame": 6079,
  "amita</w>": 6080,
  "olerates</w>": 6081,
  "ghes</w>": 6082,
  "on": 6083,
  "\u2708": 6084,
  "atican": 6085,
  "fen": 6086,
  "ramadi</w>": 6087,
  "ricatel": 6088,
  "hares</w>": 6089,
  "washes</w>": 6090,
  "hatten": 6091,
  "maso</w>": 6092,
  "olov": 6093,
  "foral": 6094,
  "eromesi": 6095,
  "sily</w>": 6096,
  "shel": 6097,
  "ttali": 6098,
  "\u00a6": 6099,
  "oun</w>": 6100,
  "ropolati": 6101,
  "ooper</w>": 6102,
  "rooving</w>": 6103,
  "tenes": 6104,
  "itteri": 6105,
  "ti</w>": 6106,
  "ching": 6107,
  "lerin": 6108,
  "delicac": 6109,
  "rowan": 6110,
  "ratti": 6111,
  "lope": 6112,
  "irit</w>": 6113,
  "hesteri": 6114,
  "weric": 6115,
  "borat</w>": 6116,
  "dunes,</w>": 6117,
  "atical</w>": 6118,
  "meral": 6119,
  "whatthe": 6120,
  "alone</w>": 6121,
  "chaste": 6122,
  "wasti": 6123,
  "tthamittal": 6124,
  "olingu": 6125,
  "shin": 6126,
  "lomerated</w>": 6127,
  "rooling": 6128,
  "singh": 6129,
  "omasel": 6130,
  "caber": 6131,
  "ttel": 6132,
  "merite": 6133,
  "athes</w>": 6134,
  "alala</w>": 6135,
  "asalamel</w>": 6136,
  "militari": 6137,
  "selor</w>": 6138,
  "gex": 6139,
  "\ud83c\udf4a": 6140,
  "ooned</w>": 6141,
  "adopt</w>": 6142,
  "stich</w>": 6143,
  "heromone": 6144,
  "coma": 6145,
  "ashen": 6146,
  "\\nestab": 6147,
  "tero</w>": 6148,
  "ould</w>": 6149,
  "rases.</w>": 6150,
  "ri": 6151,
  "\ud83d\ude12": 6152,
  "loral</w>": 6153,
  "dicatab": 6154,
  "relates,</w>": 6155,
  "lones": 6156,
  "lom</w>": 6157,
  "rolori</w>": 6158,
  "tastically</w>": 6159,
  "derachi": 6160,
  "stel</w>": 6161,
  "\ud83c\udf45": 6162,
  "lescope": 6163,
  "liches,</w>": 6164,
  "dome": 6165,
  "olo</w>": 6166,
  "rev": 6167,
  "macad": 6168,
  "latingu": 6169,
  "sast": 6170,
  "rates": 6171,
  "orine</w>": 6172,
  "\ud83c\udde6": 6173,
  "tuner</w>": 6174,
  "ericamar": 6175,
  "lat": 6176,
  "asta": 6177,
  "talal": 6178,
  "leline": 6179,
  "that.</w>": 6180,
  "berich": 6181,
  "mester</w>": 6182,
  "merit.</w>": 6183,
  "telope": 6184,
  "lely</w>": 6185,
  "lalala": 6186,
  "lattened</w>": 6187,
  "oresh": 6188,
  "funeral": 6189,
  "casale": 6190,
  "ramune": 6191,
  "\u26a0": 6192,
  "con</w>": 6193,
  "masticate</w>": 6194,
  "datting</w>": 6195,
  "whalen</w>": 6196,
  "chaser</w>": 6197,
  "castic": 6198,
  "elo": 6199,
  "irou": 6200,
  "lateral</w>": 6201,
  "licated</w>": 6202,
  "forex": 6203,
  "militi": 6204,
  "politico</w>": 6205,
  "fora": 6206,
  "thalit": 6207,
  "gesterone</w>": 6208,
  "icooper</w>": 6209,
  "rits</w>": 6210,
  "olesale</w>": 6211,
  "alita": 6212,
  "shades.</w>": 6213,
  "overe": 6214,
  "lattes.</w>": 6215,
  "peratu": 6216,
  "verine</w>": 6217,
  "ittering": 6218,
  "rado</w>": 6219,
  "ingham": 6220,
  "forun": 6221,
  "west.</w>": 6222,
  "hesitates,</w>": 6223,
  "chating": 6224,
  "\ud835\ude2a": 6225,
  "thelonel": 6226,
  "lou": 6227,
  "tating</w>": 6228,
  "eringer</w>": 6229,
  "shasta</w>": 6230,
  "sti</w>": 6231,
  "evita": 6232,
  "en</w>": 6233,
  "ner</w>": 6234,
  "melo</w>": 6235,
  "whiner": 6236,
  "domic": 6237,
  "sit.</w>": 6238,
  "onelove</w>": 6239,
  "\ud83d\udc95": 6240,
  "inene": 6241,
  "waroop</w>": 6242,
  "dalene": 6243,
  "ower</w>": 6244,
  "alile": 6245,
  "dened</w>": 6246,
  "tase</w>": 6247,
  "\u0082": 6248,
  "cast,</w>": 6249,
  "\ud83c\uddf7": 6250,
  "loren": 6251,
  "\ud83e\udd1e": 6252,
  "overed</w>": 6253,
  "doomu": 6254,
  "ome</w>": 6255,
  "chira": 6256,
  "powerades</w>": 6257,
  "vilo</w>": 6258,
  "comes</w>": 6259,
  "atesca": 6260,
  "datacol": 6261,
  "dovis</w>": 6262,
  "ttanesca</w>": 6263,
  "camer": 6264,
  "taratin": 6265,
  "hitte</w>": 6266,
  "her</w>": 6267,
  "moori": 6268,
  "scor": 6269,
  "perac": 6270,
  "amite": 6271,
  "dined</w>": 6272,
  "<br</w>": 6273,
  "esti": 6274,
  "\u2744": 6275,
  "sesili": 6276,
  "romar": 6277,
  "salata</w>": 6278,
  "ilasam</w>": 6279,
  "k": 6280,
  "sat": 6281,
  "inel": 6282,
  "gher</w>": 6283,
  "'t</w>": 6284,
  "\ud83c\udf92": 6285,
  "chineseroom</w>": 6286,
  "dowal": 6287,
  "tabu": 6288,
  "aritas.</w>": 6289,
  "scovi": 6290,
  "moovi": 6291,
  "bed</w>": 6292,
  "latitu": 6293,
  "siles.</w>": 6294,
  "feral": 6295,
  "bower": 6296,
  "evera</w>": 6297,
  "sera</w>": 6298,
  "tharomas</w>": 6299,
  "lico": 6300,
  "coron": 6301,
  "meles": 6302,
  "alam": 6303,
  "adarashan": 6304,
  "mesis</w>": 6305,
  "icar": 6306,
  "chest,</w>": 6307,
  "hasing</w>": 6308,
  "dito</w>": 6309,
  "litel": 6310,
  "erene": 6311,
  "filamen": 6312,
  "vits</w>": 6313,
  "ratted</w>": 6314,
  "mines": 6315,
  "operate</w>": 6316,
  "hither": 6317,
  "opener": 6318,
  "acan": 6319,
  "tada": 6320,
  "hater</w>": 6321,
  "icalit": 6322,
  "olates</w>": 6323,
  "tales</w>": 6324,
  "roon": 6325,
  "chating</w>": 6326,
  "\ud83d\udd7a": 6327,
  "lich</w>": 6328,
  "omu": 6329,
  "helan</w>": 6330,
  "ringen": 6331,
  "amun": 6332,
  "din</w>": 6333,
  "asome": 6334,
  "walesa": 6335,
  "icher": 6336,
  "tires,</w>": 6337,
  "alou": 6338,
  "whithin</w>": 6339,
  "vit</w>": 6340,
  "meses</w>": 6341,
  "scoop</w>": 6342,
  "rittered</w>": 6343,
  "enerab": 6344,
  "dines.</w>": 6345,
  "atharine": 6346,
  "alatab": 6347,
  "ramas": 6348,
  "ate</w>": 6349,
  "matin": 6350,
  "virile": 6351,
  "bele": 6352,
  "poveri": 6353,
  "titta": 6354,
  "chalov": 6355,
  "delila": 6356,
  "/>": 6357,
  "washed</w>": 6358,
  "scattered</w>": 6359,
  "doolally</w>": 6360,
  "peratel": 6361,
  "loop": 6362,
  "olesomenes": 6363,
  "erely</w>": 6364,
  "neve</w>": 6365,
  "sto</w>": 6366,
  "dericado</w>": 6367,
  "mittan": 6368,
  "ered</w>": 6369,
  "rasta</w>": 6370,
  "rades.</w>": 6371,
  "charest,</w>": 6372,
  "tta": 6373,
  "gre": 6374,
  "satti</w>": 6375,
  "comes,</w>": 6376,
  "\ud83c\udf99": 6377,
  "\u2755": 6378,
  "whe": 6379,
  "pev": 6380,
  "rad,</w>": 6381,
  "mera": 6382,
  "raman": 6383,
  "wesen": 6384,
  "rade</w>": 6385,
  "resting</w>": 6386,
  "\u009c": 6387,
  "poo</w>": 6388,
  "\u30b7": 6389,
  "alami": 6390,
  "miring</w>": 6391,
  "berov": 6392,
  "tastes.</w>": 6393,
  "sades": 6394,
  "radoo": 6395,
  "\ud83e\udd0f": 6396,
  "\u5229": 6397,
  "tads</w>": 6398,
  "thane": 6399,
  "loran": 6400,
  "lestar</w>": 6401,
  "waste</w>": 6402,
  "thelex": 6403,
  "hite": 6404,
  "lowere": 6405,
  "calori": 6406,
  "caca": 6407,
  "alira": 6408,
  "\ud83c\udd74": 6409,
  "\\nevi": 6410,
  "reses": 6411,
  "chitale": 6412,
  "marile": 6413,
  "chata": 6414,
  "\ud83c\udf1e": 6415,
  "sa</w>": 6416,
  "ires,</w>": 6417,
  "icolou": 6418,
  "aring</w>": 6419,
  "ttesil": 6420,
  "atascade": 6421,
  "asame</w>": 6422,
  "thatt": 6423,
  "ascow": 6424,
  "me</w>": 6425,
  "achan</w>": 6426,
  "\ud83d\ude27": 6427,
  "pered</w>": 6428,
  "ricor": 6429,
  "leland</w>": 6430,
  "lalalal": 6431,
  "shadi": 6432,
  "than": 6433,
  "amar": 6434,
  "thalate": 6435,
  "daru": 6436,
  "lowel": 6437,
  "ras</w>": 6438,
  "\ud83c\udf2e": 6439,
  "cole</w>": 6440,
  "amically</w>": 6441,
  "heromone</w>": 6442,
  "orite</w>": 6443,
  "cheru": 6444,
  "revitali": 6445,
  "titas": 6446,
  "reshe": 6447,
  "\ud83d\ude2e": 6448,
  "rou": 6449,
  "lora</w>": 6450,
  "\u27a1": 6451,
  "estates</w>": 6452,
  "withan": 6453,
  "domer": 6454,
  "taloned</w>": 6455,
  "lestat.</w>": 6456,
  "nelo": 6457,
  "estes": 6458,
  "nesca": 6459,
  "serif</w>": 6460,
  "ticore": 6461,
  "fele</w>": 6462,
  "mast</w>": 6463,
  "\u6bbf": 6464,
  "\ud83c\udfa5": 6465,
  "arale": 6466,
  "liche</w>": 6467,
  "orines": 6468,
  "generalin": 6469,
  "omache": 6470,
  "funes": 6471,
  "rare</w>": 6472,
  "\u30c8": 6473,
  "dicamen": 6474,
  "eneras</w>": 6475,
  "bones": 6476,
  "sabomil": 6477,
  "irala</w>": 6478,
  "rere</w>": 6479,
  "boris</w>": 6480,
  "walon</w>": 6481,
  "fil": 6482,
  "\ud83c\udfdb": 6483,
  "ding</w>": 6484,
  "satired</w>": 6485,
  "lare</w>": 6486,
  "castel": 6487,
  "mires": 6488,
  "ac": 6489,
  "liche": 6490,
  "colin": 6491,
  "theses,</w>": 6492,
  "\ud83c\udd93": 6493,
  "ratin</w>": 6494,
  "deshe": 6495,
  "inesti": 6496,
  "lelou": 6497,
  "maratama</w>": 6498,
  "\ud83d\udcaf": 6499,
  "thari": 6500,
  "lades": 6501,
  "fest,</w>": 6502,
  "vilatu": 6503,
  "vitamu": 6504,
  "olest": 6505,
  "relen": 6506,
  "you": 6507,
  "opolitical": 6508,
  "lowed</w>": 6509,
  "oom": 6510,
  "maco": 6511,
  "loneli": 6512,
  "amine": 6513,
  "thir": 6514,
  "stalac": 6515,
  "chac": 6516,
  "mop</w>": 6517,
  "\ud83e\udd86": 6518,
  "alot</w>": 6519,
  "morely</w>": 6520,
  "bonese": 6521,
  "lade": 6522,
  "e</w>": 6523,
  "camera": 6524,
  "marine": 6525,
  "amila</w>": 6526,
  "anen": 6527,
  "goo</w>": 6528,
  "testines</w>": 6529,
  "mattha": 6530,
  "poori": 6531,
  "schel": 6532,
  "ichatg": 6533,
  "amir": 6534,
  "resi</w>": 6535,
  "hesine": 6536,
  "acade": 6537,
  "sabon": 6538,
  "dolis</w>": 6539,
  "cher": 6540,
  "cally</w>": 6541,
  "gelatin": 6542,
  "scathing</w>": 6543,
  "statham": 6544,
  "sesitter": 6545,
  "@": 6546,
  "casti": 6547,
  "aratel": 6548,
  "ritis</w>": 6549,
  "mithi</w>": 6550,
  "dolesc": 6551,
  "ir": 6552,
  "\u7269": 6553,
  "lorela": 6554,
  "moron</w>": 6555,
  "sitter": 6556,
  "boweled</w>": 6557,
  "stin</w>": 6558,
  "\u23f1": 6559,
  "case</w>": 6560,
  "calama": 6561,
  "\u30a4": 6562,
  "several</w>": 6563,
  "alamin</w>": 6564,
  "run</w>": 6565,
  "chela": 6566,
  "wab": 6567,
  "dola": 6568,
  "ramune</w>": 6569,
  "telest": 6570,
  "esun": 6571,
  "forest.</w>": 6572,
  "itally</w>": 6573,
  "aroo": 6574,
  "iled</w>": 6575,
  "descas</w>": 6576,
  "asti</w>": 6577,
  "adir</w>": 6578,
  "licore</w>": 6579,
  "sades.</w>": 6580,
  "mi's</w>": 6581,
  "la</w>": 6582,
  "iter": 6583,
  "restate</w>": 6584,
  "schen": 6585,
  "camach": 6586,
  "unen": 6587,
  "miles": 6588,
  "tastes": 6589,
  "shitting</w>": 6590,
  "vili</w>": 6591,
  "stanely</w>": 6592,
  "ghac": 6593,
  "generas": 6594,
  "\ufffc": 6595,
  "amalin": 6596,
  "laborati": 6597,
  "\ud83d\udc30": 6598,
  "vichan</w>": 6599,
  "adoon": 6600,
  "ashes,</w>": 6601,
  "estes</w>": 6602,
  "cheler</w>": 6603,
  "poof</w>": 6604,
  "thaste</w>": 6605,
  "feric": 6606,
  "omar": 6607,
  "erer</w>": 6608,
  "das": 6609,
  "\ud83d\udca4": 6610,
  "\ud83d\udeb6": 6611,
  "\\nele": 6612,
  "whita": 6613,
  "lades,</w>": 6614,
  "tithesi": 6615,
  "literar": 6616,
  "wele": 6617,
  "scolo": 6618,
  "domesticating</w>": 6619,
  "erenes": 6620,
  "alad</w>": 6621,
  "sin</w>": 6622,
  "ounen</w>": 6623,
  "bold</w>": 6624,
  "aladi": 6625,
  "gelical</w>": 6626,
  "cowater": 6627,
  "tirely</w>": 6628,
  "bovine</w>": 6629,
  "lat.</w>": 6630,
  "latt</w>": 6631,
  "amit": 6632,
  "\ud83d\ude1b": 6633,
  "water</w>": 6634,
  "tithesis</w>": 6635,
  "deled</w>": 6636,
  "tata</w>": 6637,
  "lita": 6638,
  "beran": 6639,
  "har": 6640,
  "esel</w>": 6641,
  "orites.</w>": 6642,
  "very</w>": 6643,
  "fering</w>": 6644,
  "lene": 6645,
  "elari": 6646,
  "larami": 6647,
  "mame": 6648,
  "rada</w>": 6649,
  "verun": 6650,
  "reshener": 6651,
  "alal": 6652,
  "\ud83d\ude0e": 6653,
  "loor</w>": 6654,
  "mach</w>": 6655,
  "itat": 6656,
  "tinel": 6657,
  "sabel": 6658,
  "haned</w>": 6659,
  "chit</w>": 6660,
  "ateles": 6661,
  "rero": 6662,
  "scopo</w>": 6663,
  "lam": 6664,
  "reveres</w>": 6665,
  "liron": 6666,
  "mitating</w>": 6667,
  "orita</w>": 6668,
  "erile</w>": 6669,
  "mast": 6670,
  "itir": 6671,
  "\u00ad": 6672,
  "ichat": 6673,
  "littered</w>": 6674,
  "icar</w>": 6675,
  "domestical": 6676,
  "boone": 6677,
  "\u200b": 6678,
  "lomo</w>": 6679,
  "boone</w>": 6680,
  "\u5b9a": 6681,
  "mather": 6682,
  "alow": 6683,
  "lesome</w>": 6684,
  "maden</w>": 6685,
  "ralen": 6686,
  "sam</w>": 6687,
  "singen": 6688,
  "inelover</w>": 6689,
  "ilin</w>": 6690,
  "dila": 6691,
  "mate</w>": 6692,
  "satire</w>": 6693,
  "walo": 6694,
  "tacam": 6695,
  "eraded</w>": 6696,
  "adic": 6697,
  "gelev": 6698,
  "stilan": 6699,
  "opes,</w>": 6700,
  "elen": 6701,
  "ashan</w>": 6702,
  "\u25ef": 6703,
  "\u00b0": 6704,
  "est</w>": 6705,
  "danes": 6706,
  "hale": 6707,
  "esit</w>": 6708,
  "astated</w>": 6709,
  "sit,</w>": 6710,
  "devere</w>": 6711,
  "datab": 6712,
  "forese": 6713,
  "merically</w>": 6714,
  "hitting": 6715,
  "berati": 6716,
  "mopolitan</w>": 6717,
  "adon</w>": 6718,
  "masts</w>": 6719,
  "machat": 6720,
  "anest,</w>": 6721,
  "titilating</w>": 6722,
  "mores.</w>": 6723,
  "ithaca</w>": 6724,
  "ges": 6725,
  "\u0dd9": 6726,
  "mer</w>": 6727,
  "opold</w>": 6728,
  "aroon": 6729,
  "merited</w>": 6730,
  "arame": 6731,
  "adingre": 6732,
  "\ud83d\ude80": 6733,
  "loped</w>": 6734,
  "bores": 6735,
  "lanes,</w>": 6736,
  "elopes.</w>": 6737,
  "powero": 6738,
  "sevi</w>": 6739,
  "rading</w>": 6740,
  "tamar": 6741,
  "ritta</w>": 6742,
  "rican": 6743,
  "tuned</w>": 6744,
  "mashing</w>": 6745,
  "deling": 6746,
  "melen": 6747,
  "eshar": 6748,
  "asare": 6749,
  "ringe": 6750,
  "lathe": 6751,
  "sales</w>": 6752,
  "whing": 6753,
  "\u26d3": 6754,
  "chester</w>": 6755,
  "thadon": 6756,
  "madan</w>": 6757,
  "sari": 6758,
  "reveren": 6759,
  "thered</w>": 6760,
  "charade": 6761,
  "din't</w>": 6762,
  "there</w>": 6763,
  "asco": 6764,
  "calor": 6765,
  "mice</w>": 6766,
  "atilo": 6767,
  "mower": 6768,
  "lattice</w>": 6769,
  "op</w>": 6770,
  "une</w>": 6771,
  "rore": 6772,
  "tacat</w>": 6773,
  "\u0099": 6774,
  "como": 6775,
  "eled</w>": 6776,
  "mester": 6777,
  "samat": 6778,
  "\u1d9c": 6779,
  "escalade</w>": 6780,
  "shine</w>": 6781,
  "molal</w>": 6782,
  "lithi": 6783,
  "sala": 6784,
  "catacom": 6785,
  "\ud83d\udde8": 6786,
  "porane": 6787,
  "omorow</w>": 6788,
  "ither": 6789,
  "olin</w>": 6790,
  "\ud83d\udfea": 6791,
  "scabe": 6792,
  "haratar": 6793,
  "\\nex": 6794,
  "oreling": 6795,
  "astel</w>": 6796,
  "politicall</w>": 6797,
  "ola</w>": 6798,
  "racha": 6799,
  "ichelad": 6800,
  "asha": 6801,
  "thalate</w>": 6802,
  "menes": 6803,
  "machine</w>": 6804,
  "lach</w>": 6805,
  "lase": 6806,
  "sama": 6807,
  "arata": 6808,
  "romane": 6809,
  "astating</w>": 6810,
  "geles,</w>": 6811,
  "sab": 6812,
  "ttelin": 6813,
  "root</w>": 6814,
  "dita": 6815,
  "belov": 6816,
  "hitter</w>": 6817,
  "omical": 6818,
  "seling</w>": 6819,
  "lop</w>": 6820,
  "dowe": 6821,
  "dowed</w>": 6822,
  "omaru": 6823,
  "lama</w>": 6824,
  "rool</w>": 6825,
  "one": 6826,
  "atal": 6827,
  "sine": 6828,
  "atti": 6829,
  "cascade</w>": 6830,
  "olabel": 6831,
  "lero</w>": 6832,
  "orol": 6833,
  "perab": 6834,
  "ren": 6835,
  "mich</w>": 6836,
  "aca": 6837,
  "lad,</w>": 6838,
  "eri's</w>": 6839,
  "sham": 6840,
  "atteri": 6841,
  "ovi</w>": 6842,
  "danese</w>": 6843,
  "mates": 6844,
  "coloring</w>": 6845,
  "rowe": 6846,
  "pesha": 6847,
  "selen": 6848,
  "esines": 6849,
  "olow</w>": 6850,
  "site</w>": 6851,
  "att.</w>": 6852,
  "goop": 6853,
  "melita": 6854,
  "tadata</w>": 6855,
  "cales": 6856,
  "scast,</w>": 6857,
  "\u00b8": 6858,
  "tirel": 6859,
  "chelated</w>": 6860,
  "owh": 6861,
  "mathing</w>": 6862,
  "whichever</w>": 6863,
  "cared</w>": 6864,
  "desires</w>": 6865,
  "damame</w>": 6866,
  "ricaded</w>": 6867,
  "amines": 6868,
  "t,</w>": 6869,
  "inelines</w>": 6870,
  "momi": 6871,
  "hil</w>": 6872,
  "\\nev": 6873,
  "iral</w>": 6874,
  "pro</w>": 6875,
  "lores,</w>": 6876,
  "richi": 6877,
  "dest": 6878,
  "opener</w>": 6879,
  "chasing": 6880,
  "erar": 6881,
  "tesaren": 6882,
  "forate</w>": 6883,
  "pone": 6884,
  "forever</w>": 6885,
  "dad.</w>": 6886,
  "taras</w>": 6887,
  "icolerichi": 6888,
  "scathe": 6889,
  "whatabou": 6890,
  "polic": 6891,
  "oopoo": 6892,
  "\ud83e\udde1": 6893,
  "charac": 6894,
  "tache": 6895,
  "tast</w>": 6896,
  "ttines": 6897,
  "omad": 6898,
  "ingeste": 6899,
  "poraril": 6900,
  "\u6587": 6901,
  "liti": 6902,
  "wale": 6903,
  "\u516b": 6904,
  "adingrese": 6905,
  "where</w>": 6906,
  "attaca</w>": 6907,
  "ttest</w>": 6908,
  "coliti": 6909,
  "low</w>": 6910,
  "attac": 6911,
  "italow": 6912,
  "lame</w>": 6913,
  "whiting": 6914,
  "denes": 6915,
  "sitting": 6916,
  "elope": 6917,
  "ttil": 6918,
  "al": 6919,
  "omo": 6920,
  "\ud83c\udf7a": 6921,
  "rachelasha</w>": 6922,
  "itter</w>": 6923,
  "erith": 6924,
  "tamon</w>": 6925,
  "maseve</w>": 6926,
  "iches": 6927,
  "larasati</w>": 6928,
  "salama": 6929,
  "ittel": 6930,
  "that,</w>": 6931,
  "schac": 6932,
  "asamo": 6933,
  "\ud83d\udcb0": 6934,
  "esco</w>": 6935,
  "whelan</w>": 6936,
  "vital": 6937,
  "maches": 6938,
  "taloo</w>": 6939,
  "lade</w>": 6940,
  "wane": 6941,
  "ratate</w>": 6942,
  "maline</w>": 6943,
  "talo": 6944,
  "hinge</w>": 6945,
  "popol</w>": 6946,
  "tase": 6947,
  "irate": 6948,
  "ithe": 6949,
  "der": 6950,
  "belen</w>": 6951,
  "shami": 6952,
  "tad,</w>": 6953,
  "that": 6954,
  "mithi'": 6955,
  "lilo</w>": 6956,
  "casi</w>": 6957,
  "\u3011": 6958,
  "sad</w>": 6959,
  "scarabe": 6960,
  "\ud83e\udef0": 6961,
  "cara": 6962,
  "\u262e": 6963,
  "\ud835\ude2f": 6964,
  "sesc": 6965,
  "domiti": 6966,
  "shest</w>": 6967,
  "\u8a00": 6968,
  "caste</w>": 6969,
  "chichi</w>": 6970,
  "mara</w>": 6971,
  "\ud83e\udd7a": 6972,
  "sarin": 6973,
  "dico": 6974,
  "thes</w>": 6975,
  "stat.</w>": 6976,
  "\ud83d\ude0a": 6977,
  "*": 6978,
  "lamates</w>": 6979,
  "hil": 6980,
  "testine</w>": 6981,
  "caroline": 6982,
  "mesel": 6983,
  "stamo": 6984,
  "\ud835\ude2d": 6985,
  "teren": 6986,
  "stes</w>": 6987,
  "generati": 6988,
  "penes,</w>": 6989,
  "castel</w>": 6990,
  "scou": 6991,
  "seled</w>": 6992,
  "gela": 6993,
  "\ud83e\udd24": 6994,
  "halite": 6995,
  "revere</w>": 6996,
  "..</w>": 6997,
  "camerica</w>": 6998,
  "lowen": 6999,
  "scast.</w>": 7000,
  "meshi": 7001,
  "\u0e0b": 7002,
  "\ud83c\uddf9": 7003,
  "acol</w>": 7004,
  "lachi</w>": 7005,
  "derex": 7006,
  "oleran": 7007,
  "ade</w>": 7008,
  "laro": 7009,
  "ri's</w>": 7010,
  "wesomenes</w>": 7011,
  "ditar": 7012,
  "tali": 7013,
  "ghab": 7014,
  "rachel": 7015,
  "meled</w>": 7016,
  "singer": 7017,
  "restating</w>": 7018,
  "caroon</w>": 7019,
  "tharam</w>": 7020,
  "catela": 7021,
  "mo": 7022,
  "esomel": 7023,
  "ingested</w>": 7024,
  "mirate</w>": 7025,
  "aberi": 7026,
  "olari</w>": 7027,
  "lores.</w>": 7028,
  "caro</w>": 7029,
  "orich": 7030,
  "latestu": 7031,
  "adol": 7032,
  "a</w>": 7033,
  "gun": 7034,
  "irited</w>": 7035,
  "ado</w>": 7036,
  "dely</w>": 7037,
  "erasing</w>": 7038,
  "alove</w>": 7039,
  "chine": 7040,
  "sthi": 7041,
  "delam": 7042,
  "corex": 7043,
  "caster": 7044,
  "shil": 7045,
  "tesco": 7046,
  "borated</w>": 7047,
  "\ud83c\udfb8": 7048,
  "mado": 7049,
  "ingre": 7050,
  "castelo": 7051,
  "roo": 7052,
  "san": 7053,
  "chamath": 7054,
  "shita": 7055,
  "itala": 7056,
  "roomer": 7057,
  "perado</w>": 7058,
  "forenel": 7059,
  "weler": 7060,
  "iner": 7061,
  "castane": 7062,
  "ropes,</w>": 7063,
  "ramon</w>": 7064,
  "atatu": 7065,
  "vito</w>": 7066,
  "aromathera": 7067,
  "prome</w>": 7068,
  "moomen": 7069,
  "elica</w>": 7070,
  "aroun": 7071,
  "tele</w>": 7072,
  "elaborating</w>": 7073,
  "waner</w>": 7074,
  "ooner": 7075,
  "`": 7076,
  "rasha</w>": 7077,
  "riten": 7078,
  "\u0d85": 7079,
  "damen": 7080,
  "raler": 7081,
  "esth": 7082,
  "satin</w>": 7083,
  "haben</w>": 7084,
  "\u30a8": 7085,
  "tamo</w>": 7086,
  "saladit": 7087,
  "\u1d48": 7088,
  "tte": 7089,
  "cats</w>": 7090,
  "delen": 7091,
  "june": 7092,
  "\ud83d\udda4": 7093,
  "shed</w>": 7094,
  "sest</w>": 7095,
  "whamo": 7096,
  "elites.</w>": 7097,
  "caterer": 7098,
  "lica</w>": 7099,
  "tamas": 7100,
  "berate": 7101,
  "scovite</w>": 7102,
  "attu": 7103,
  "\u221e": 7104,
  "hases.</w>": 7105,
  "orites</w>": 7106,
  "\ud83e\udd0c": 7107,
  "samou": 7108,
  "loomer": 7109,
  "\ud83d\ude08": 7110,
  "ashe": 7111,
  "salir</w>": 7112,
  "tamilese</w>": 7113,
  "\ud83d\ude05": 7114,
  "silicate": 7115,
  "bes.</w>": 7116,
  "arora</w>": 7117,
  "ricating</w>": 7118,
  "neler": 7119,
  "statu": 7120,
  "\ud83d\udd57": 7121,
  "mol</w>": 7122,
  "ineles": 7123,
  "dally</w>": 7124,
  "elen</w>": 7125,
  "boner": 7126,
  "\u25fc": 7127,
  "covery</w>": 7128,
  "destinely</w>": 7129,
  "lesta": 7130,
  "esita": 7131,
  "salo": 7132,
  "sing</w>": 7133,
  "omachaches,</w>": 7134,
  "\ud835\uddf5": 7135,
  "dama": 7136,
  "mabel</w>": 7137,
  "olas": 7138,
  "core</w>": 7139,
  "scovering": 7140,
  "herit": 7141,
  "stitis</w>": 7142,
  "woron": 7143,
  "caramoo</w>": 7144,
  "moot</w>": 7145,
  "loro": 7146,
  "omero</w>": 7147,
  "\u270c": 7148,
  "shares": 7149,
  "abe": 7150,
  "whither</w>": 7151,
  "amilar</w>": 7152,
  "wanes,</w>": 7153,
  "latan": 7154,
  "\u30fb": 7155,
  "rale</w>": 7156,
  "ittera</w>": 7157,
  "war": 7158,
  "gerin</w>": 7159,
  "poma": 7160,
  "vile</w>": 7161,
  "esa</w>": 7162,
  "atales": 7163,
  "arade</w>": 7164,
  "asari</w>": 7165,
  "catalon": 7166,
  "riler": 7167,
  "leverer": 7168,
  "halari": 7169,
  "titel": 7170,
  "camelot</w>": 7171,
  "dolo": 7172,
  "est.</w>": 7173,
  "malala": 7174,
  "runest": 7175,
  "felines,</w>": 7176,
  "\ud83d\udd34": 7177,
  "erile": 7178,
  "cune": 7179,
  "relate": 7180,
  "mattering</w>": 7181,
  "vicara": 7182,
  "elopes,</w>": 7183,
  "ich": 7184,
  "doran</w>": 7185,
  "ttheli": 7186,
  "elov": 7187,
  "stasi": 7188,
  "labon": 7189,
  "lamin": 7190,
  "ilit": 7191,
  "hilarit": 7192,
  "\u279d": 7193,
  "dout</w>": 7194,
  "les,</w>": 7195,
  "aran</w>": 7196,
  "thever": 7197,
  "hastil": 7198,
  "american": 7199,
  "marine</w>": 7200,
  "hal</w>": 7201,
  "alolo": 7202,
  "polabe": 7203,
  "chat.</w>": 7204,
  "omical</w>": 7205,
  "littering": 7206,
  "dowad": 7207,
  "p": 7208,
  "sicali": 7209,
  "adow</w>": 7210,
  "olati": 7211,
  "meralit": 7212,
  "rite": 7213,
  "alattitu": 7214,
  "pestilan": 7215,
  "borou": 7216,
  "ot</w>": 7217,
  "\\never": 7218,
  "cas.</w>": 7219,
  "amab": 7220,
  "itami</w>": 7221,
  "ilites.</w>": 7222,
  "adache": 7223,
  "rored</w>": 7224,
  "dara</w>": 7225,
  "\ud83d\udd28": 7226,
  "oolore": 7227,
  "chilichal": 7228,
  "stama</w>": 7229,
  "veral</w>": 7230,
  "mile": 7231,
  "wade</w>": 7232,
  "chitt,</w>": 7233,
  "lestar": 7234,
  "amir</w>": 7235,
  "caratheri": 7236,
  "ses</w>": 7237,
  "coren": 7238,
  "\ud83d\ude2f": 7239,
  "beneli": 7240,
  "mats</w>": 7241,
  "shashitharoor": 7242,
  "schade": 7243,
  "hashi": 7244,
  "cadab": 7245,
  "shitta": 7246,
  "ow</w>": 7247,
  "overan": 7248,
  "g</w>": 7249,
  "goop</w>": 7250,
  "aroun</w>": 7251,
  "sachi": 7252,
  "looming": 7253,
  "derates</w>": 7254,
  "ringed</w>": 7255,
  "ladic": 7256,
  "ringe</w>": 7257,
  "escalates</w>": 7258,
  "hadith": 7259,
  "sicate": 7260,
  "\u20bf": 7261,
  "mita": 7262,
  "operas.</w>": 7263,
  "atan</w>": 7264,
  "mar</w>": 7265,
  "bes</w>": 7266,
  "cabe</w>": 7267,
  "fest": 7268,
  "bela</w>": 7269,
  "sesa": 7270,
  "verac": 7271,
  "g": 7272,
  "sam": 7273,
  "\ud83c\udfdd": 7274,
  "dopen": 7275,
  "lel": 7276,
  "stener</w>": 7277,
  "\u064a": 7278,
  "nerit</w>": 7279,
  "dit.</w>": 7280,
  "\ud83d\ude40": 7281,
  "it.</w>": 7282,
  "meron</w>": 7283,
  "opon": 7284,
  "severin</w>": 7285,
  "lomat</w>": 7286,
  "wan't</w>": 7287,
  "\ud835\uddfc": 7288,
  "rasi</w>": 7289,
  "es</w>": 7290,
  "colada</w>": 7291,
  "lering</w>": 7292,
  "ingest": 7293,
  "owes.</w>": 7294,
  "mitthi's</w>": 7295,
  "relased</w>": 7296,
  "pop</w>": 7297,
  "milariti": 7298,
  "latham</w>": 7299,
  "chest</w>": 7300,
  "hilates</w>": 7301,
  "ritten": 7302,
  "irab": 7303,
  "mitat": 7304,
  "alatica": 7305,
  "anel": 7306,
  "geradam": 7307,
  "mates</w>": 7308,
  "wal</w>": 7309,
  "eser</w>": 7310,
  "restt": 7311,
  "chicaner": 7312,
  "chero": 7313,
  "sthestar</w>": 7314,
  "\u0096": 7315,
  "theresa</w>": 7316,
  "\ud83d\udfe6": 7317,
  "copeland</w>": 7318,
  ")": 7319,
  "lattering</w>": 7320,
  "radab": 7321,
  "mithere": 7322,
  "moral": 7323,
  "lamic": 7324,
  "chats</w>": 7325,
  "desing": 7326,
  "weve</w>": 7327,
  "care": 7328,
  "polo": 7329,
  "whenev": 7330,
  "mith": 7331,
  "mane": 7332,
  "bolic": 7333,
  "dite</w>": 7334,
  "ratha": 7335,
  "vilarasa": 7336,
  "pout</w>": 7337,
  "\ud83d\udcca": 7338,
  "meshing</w>": 7339,
  "nesu": 7340,
  "in't</w>": 7341,
  "lovit": 7342,
  "\ud83c\udfae": 7343,
  "atamin</w>": 7344,
  "promes": 7345,
  "rites.</w>": 7346,
  "haber": 7347,
  "catu": 7348,
  "arole</w>": 7349,
  "somes": 7350,
  "das</w>": 7351,
  "fune</w>": 7352,
  "matthi": 7353,
  "ichines": 7354,
  "rathin": 7355,
  "tamin": 7356,
  "vil": 7357,
  "estev": 7358,
  "bevera": 7359,
  "watan": 7360,
  "destal": 7361,
  "rests</w>": 7362,
  "mittally</w>": 7363,
  "thestar": 7364,
  "rates,</w>": 7365,
  "\ud83c\udffe": 7366,
  "stati</w>": 7367,
  "satires,</w>": 7368,
  "ratex": 7369,
  "satin": 7370,
  "itar</w>": 7371,
  "sthe": 7372,
  "stener": 7373,
  "chico": 7374,
  "descope</w>": 7375,
  "onerou": 7376,
  "wamerican": 7377,
  "hilarated</w>": 7378,
  "ilash": 7379,
  "atically</w>": 7380,
  "shirata": 7381,
  "omone": 7382,
  "diles.</w>": 7383,
  "ichat</w>": 7384,
  "acade</w>": 7385,
  "\uff01": 7386,
  "mits</w>": 7387,
  "tari</w>": 7388,
  "\ud83d\udc3f": 7389,
  "\u2120": 7390,
  "provin": 7391,
  "ttering</w>": 7392,
  "dalar": 7393,
  "atha": 7394,
  "dir": 7395,
  "hasta</w>": 7396,
  "olomon": 7397,
  "omely</w>": 7398,
  "rasu": 7399,
  "stines": 7400,
  "beser": 7401,
  "onel</w>": 7402,
  "da": 7403,
  "wasaroun": 7404,
  "chatter</w>": 7405,
  "di's</w>": 7406,
  "stared</w>": 7407,
  "testi": 7408,
  "\u201d": 7409,
  "bolero": 7410,
  "esit": 7411,
  "tit's</w>": 7412,
  "reri</w>": 7413,
  "onest": 7414,
  "\u0093": 7415,
  "polines</w>": 7416,
  "ashined</w>": 7417,
  "ireles": 7418,
  "saly</w>": 7419,
  "ald</w>": 7420,
  "hesitati": 7421,
  "onese</w>": 7422,
  "hatic": 7423,
  "radam</w>": 7424,
  "matthar": 7425,
  "\u25fe": 7426,
  "orama</w>": 7427,
  "militarily</w>": 7428,
  "last": 7429,
  "resca": 7430,
  "colov": 7431,
  "acamole</w>": 7432,
  "\ud83d\udc55": 7433,
  "bola": 7434,
  "gham": 7435,
  "asen": 7436,
  "lacates</w>": 7437,
  "stth": 7438,
  "singed</w>": 7439,
  "\ud83d\udcfa": 7440,
  "welov": 7441,
  "moral</w>": 7442,
  "ghened</w>": 7443,
  "tamer": 7444,
  "caramel</w>": 7445,
  "molar</w>": 7446,
  "deron</w>": 7447,
  "lould</w>": 7448,
  "mares": 7449,
  "cathic": 7450,
  "ramo": 7451,
  "rine": 7452,
  "\ud83c\udfa7": 7453,
  "shamari": 7454,
  "caterin": 7455,
  "chate": 7456,
  "boomi</w>": 7457,
  "\u5973": 7458,
  "levitating": 7459,
  "alen": 7460,
  "tamara</w>": 7461,
  "siliti": 7462,
  "wan": 7463,
  "eru": 7464,
  "cor</w>": 7465,
  "chiladas</w>": 7466,
  "tesc": 7467,
  "borati": 7468,
  "\u2800": 7469,
  "seve</w>": 7470,
  "ire</w>": 7471,
  "rop": 7472,
  "colonel": 7473,
  "\ud83d\udcac": 7474,
  "charest": 7475,
  "meshing": 7476,
  "omeles": 7477,
  "rashad</w>": 7478,
  "scol": 7479,
  "ranes.</w>": 7480,
  "itel</w>": 7481,
  "mesa</w>": 7482,
  "thirar": 7483,
  "erade": 7484,
  "asica</w>": 7485,
  "covering</w>": 7486,
  "dinger</w>": 7487,
  "owab": 7488,
  "le</w>": 7489,
  "lam</w>": 7490,
  "line": 7491,
  "seshit</w>": 7492,
  "generat": 7493,
  "canes.</w>": 7494,
  "hates</w>": 7495,
  "dades": 7496,
  "abou": 7497,
  "verab": 7498,
  "tero": 7499,
  "delaro": 7500,
  "siren</w>": 7501,
  "halon</w>": 7502,
  "tit": 7503,
  "stal</w>": 7504,
  "sache": 7505,
  "devine": 7506,
  "onener": 7507,
  "pomac": 7508,
  "\ud835\udc1a": 7509,
  "elas,</w>": 7510,
  "lamin</w>": 7511,
  "omor": 7512,
  "are</w>": 7513,
  "wasted</w>": 7514,
  "taran": 7515,
  "ale</w>": 7516,
  "ghes,</w>": 7517,
  "datashe": 7518,
  "lel</w>": 7519,
  "ilor</w>": 7520,
  "asan": 7521,
  "rates</w>": 7522,
  "ricades.</w>": 7523,
  "ditu": 7524,
  "rastic": 7525,
  "icala": 7526,
  "richa</w>": 7527,
  "vitalit": 7528,
  "adach</w>": 7529,
  "chat,</w>": 7530,
  "athering": 7531,
  "elad": 7532,
  "whites,</w>": 7533,
  "ramone</w>": 7534,
  "\ud835\udc0f": 7535,
  "lamatic": 7536,
  "esche": 7537,
  "\u8a69": 7538,
  "shalom</w>": 7539,
  "las,</w>": 7540,
  "severed</w>": 7541,
  "gerine</w>": 7542,
  "loop</w>": 7543,
  "\ud83e\udd1a": 7544,
  "inge</w>": 7545,
  "wasab": 7546,
  "vicari": 7547,
  "sared</w>": 7548,
  "marich</w>": 7549,
  "helene": 7550,
  "and</w>": 7551,
  "pel</w>": 7552,
  "lasterer": 7553,
  "ashely</w>": 7554,
  "watered</w>": 7555,
  "aric": 7556,
  "\u6fb3": 7557,
  "merex": 7558,
  "oone": 7559,
  "satire": 7560,
  "litan": 7561,
  "shere": 7562,
  "elel": 7563,
  "ramer</w>": 7564,
  "aloperati": 7565,
  "monel": 7566,
  "pely</w>": 7567,
  "caramil": 7568,
  "mases,</w>": 7569,
  "rache": 7570,
  "roomate": 7571,
  "shabu": 7572,
  "delof</w>": 7573,
  "shatha": 7574,
  "ropt</w>": 7575,
  "laster</w>": 7576,
  "so</w>": 7577,
  "arin": 7578,
  "alama": 7579,
  "res</w>": 7580,
  "olesaler": 7581,
  "tadu": 7582,
  "mitate": 7583,
  "mitely</w>": 7584,
  "lattan": 7585,
  "atheral": 7586,
  "chelon</w>": 7587,
  "dored</w>": 7588,
  "sitam</w>": 7589,
  "gere</w>": 7590,
  "ttha": 7591,
  "olev": 7592,
  "\ud83c\udf11": 7593,
  "cac": 7594,
  "lastered</w>": 7595,
  "haler</w>": 7596,
  "cane": 7597,
  "alesc": 7598,
  "cone</w>": 7599,
  "romes": 7600,
  "whites</w>": 7601,
  "stiles": 7602,
  "\ud83d\udd10": 7603,
  "salari": 7604,
  "\u263a": 7605,
  "hiladel": 7606,
  "ascale</w>": 7607,
  "malen": 7608,
  "shatter</w>": 7609,
  "esin": 7610,
  "\u0dc1": 7611,
  "ttar": 7612,
  "starene</w>": 7613,
  "inero": 7614,
  "lines": 7615,
  "ca</w>": 7616,
  "machiner": 7617,
  "rittin</w>": 7618,
  "charitab": 7619,
  "serasi</w>": 7620,
  "scan</w>": 7621,
  "teris</w>": 7622,
  "radames,</w>": 7623,
  "where": 7624,
  "amoli": 7625,
  "nev": 7626,
  "shichin": 7627,
  "\ud835\udc6e": 7628,
  "tice</w>": 7629,
  "moore": 7630,
  "ler</w>": 7631,
  "calari": 7632,
  "door": 7633,
  "ameline</w>": 7634,
  "\u0e19": 7635,
  "eriri</w>": 7636,
  "lati": 7637,
  "ghin": 7638,
  "heri</w>": 7639,
  "mittal</w>": 7640,
  "mi</w>": 7641,
  "terine</w>": 7642,
  "everu": 7643,
  "mineral": 7644,
  "eril": 7645,
  "fese": 7646,
  "tamorone": 7647,
  "genev": 7648,
  "~": 7649,
  "alate</w>": 7650,
  "ooring": 7651,
  "asto</w>": 7652,
  "lola": 7653,
  "\ud83e\udd1d": 7654,
  "ritab": 7655,
  "itats</w>": 7656,
  "mador": 7657,
  "asthen": 7658,
  "ashita": 7659,
  "opeles": 7660,
  "tating": 7661,
  "lower": 7662,
  "sinel": 7663,
  "pooper</w>": 7664,
  "el</w>": 7665,
  "laron": 7666,
  "hattan</w>": 7667,
  "mes,</w>": 7668,
  "\u0142": 7669,
  "\ud83c\uddfa": 7670,
  "foresi": 7671,
  "meril": 7672,
  "aterin": 7673,
  "tashal": 7674,
  "dala": 7675,
  "oor</w>": 7676,
  "adicam</w>": 7677,
  "charo": 7678,
  "tamates,</w>": 7679,
  "move</w>": 7680,
  "\ud83d\ude34": 7681,
  "dar</w>": 7682,
  "ral</w>": 7683,
  "irit": 7684,
  "destine</w>": 7685,
  "milin</w>": 7686,
  "amis</w>": 7687,
  "wathe</w>": 7688,
  "s,</w>": 7689,
  "scali": 7690,
  "vira</w>": 7691,
  "dasil": 7692,
  "scope</w>": 7693,
  "ricati": 7694,
  "shames</w>": 7695,
  "ores.</w>": 7696,
  "omes,</w>": 7697,
  "\u0da7": 7698,
  "sch</w>": 7699,
  "rela": 7700,
  "bese</w>": 7701,
  "seren": 7702,
  "\u2692": 7703,
  "ritated</w>": 7704,
  "charat": 7705,
  "\u2198": 7706,
  "derated</w>": 7707,
  "literated</w>": 7708,
  "p</w>": 7709,
  "bolo</w>": 7710,
  "stating</w>": 7711,
  "ritt.</w>": 7712,
  "taminen": 7713,
  "co": 7714,
  "dolin": 7715,
  "riracha": 7716,
  "wev": 7717,
  "cowa": 7718,
  "amithab": 7719,
  "bener</w>": 7720,
  "hamad": 7721,
  "\u274c": 7722,
  "ades,</w>": 7723,
  "thira": 7724,
  "oolen</w>": 7725,
  "ingest</w>": 7726,
  "orin": 7727,
  "aline": 7728,
  "rone</w>": 7729,
  "itt.</w>": 7730,
  "esce</w>": 7731,
  "aratari": 7732,
  "teran": 7733,
  "sich</w>": 7734,
  "tamari</w>": 7735,
  "radel": 7736,
  "pooner": 7737,
  "ireli": 7738,
  "ira": 7739,
  "oral</w>": 7740,
  "x": 7741,
  "se": 7742,
  "\ud835\ude39": 7743,
  "madon": 7744,
  "roladex": 7745,
  "acherou": 7746,
  "milal": 7747,
  "achar": 7748,
  "\ud835\udc89": 7749,
  "onerate</w>": 7750,
  "doomed</w>": 7751,
  "mitas": 7752,
  "omilov": 7753,
  "sacu": 7754,
  "\ud83d\udc81": 7755,
  "radon": 7756,
  "\u80fd": 7757,
  "orito</w>": 7758,
  "romer": 7759,
  "owever</w>": 7760,
  "coper": 7761,
  "calamiti": 7762,
  "malin": 7763,
  "testa": 7764,
  "poru": 7765,
  "domed</w>": 7766,
  "hesi": 7767,
  "\ud83d\udcf0": 7768,
  "testines,</w>": 7769,
  "comical</w>": 7770,
  "ras": 7771,
  "saron": 7772,
  "\u2620": 7773,
  "silicone</w>": 7774,
  "thesan": 7775,
  "thelan": 7776,
  "ichir</w>": 7777,
  "evilit": 7778,
  "comu": 7779,
  "saru": 7780,
  "\ud83d\udcb8": 7781,
  "morales</w>": 7782,
  "elaborates.</w>": 7783,
  "ari": 7784,
  "\u231b": 7785,
  "ric": 7786,
  "bering</w>": 7787,
  "ttally</w>": 7788,
  "was</w>": 7789,
  "arades</w>": 7790,
  "meri": 7791,
  "masc": 7792,
  "esco": 7793,
  "wads</w>": 7794,
  "enerati": 7795,
  "owhere": 7796,
  "sthand</w>": 7797,
  "hachel</w>": 7798,
  "d.</w>": 7799,
  "belated</w>": 7800,
  "atto</w>": 7801,
  "bex": 7802,
  "romes</w>": 7803,
  "loope": 7804,
  "reshest</w>": 7805,
  "hashed</w>": 7806,
  "filic": 7807,
  "perov": 7808,
  "poped</w>": 7809,
  "chasing</w>": 7810,
  "erola</w>": 7811,
  "rorich": 7812,
  "testing</w>": 7813,
  "above</w>": 7814,
  "tev": 7815,
  "adaches.</w>": 7816,
  "staring</w>": 7817,
  "erite</w>": 7818,
  "re</w>": 7819,
  "esta</w>": 7820,
  "promo": 7821,
  "lace</w>": 7822,
  "cower": 7823,
  "peri": 7824,
  "milo</w>": 7825,
  "amore": 7826,
  "\ud83e\udd29": 7827,
  "\ud83c\udfc4": 7828,
  "mel</w>": 7829,
  "macal": 7830,
  "scattane": 7831,
  "gened</w>": 7832,
  "\uff1f": 7833,
  "acast</w>": 7834,
  "omicon</w>": 7835,
  "cated</w>": 7836,
  "diner</w>": 7837,
  "peri</w>": 7838,
  "politel": 7839,
  "gelica</w>": 7840,
  "tasac": 7841,
  "feres</w>": 7842,
  "miner</w>": 7843,
  "charicatu": 7844,
  "\ud83d\udcf1": 7845,
  "desatu": 7846,
  "\udb40\udc67": 7847,
  "escon": 7848,
  "\ud835\udc86": 7849,
  "sari</w>": 7850,
  "tab": 7851,
  "ares,</w>": 7852,
  "mov": 7853,
  "dala</w>": 7854,
  "camila": 7855,
  "thelov": 7856,
  "sasa": 7857,
  "evic": 7858,
  "peres,</w>": 7859,
  "\ud835\udc85": 7860,
  "amorada": 7861,
  "aramir</w>": 7862,
  "\ud83d\ude42": 7863,
  "hasin": 7864,
  "min</w>": 7865,
  "doner": 7866,
  "erate</w>": 7867,
  "ating</w>": 7868,
  "\ud835\udc12": 7869,
  "enenes": 7870,
  "rasco": 7871,
  "il": 7872,
  "aste": 7873,
  "michel": 7874,
  "\ud83e\uddda": 7875,
  "vich": 7876,
  "\u4ea4": 7877,
  "fenel": 7878,
  "herab": 7879,
  "ar": 7880,
  "beled</w>": 7881,
  "omited</w>": 7882,
  "watt</w>": 7883,
  "lad</w>": 7884,
  "mattel": 7885,
  "raline": 7886,
  "asun": 7887,
  "eren": 7888,
  "dalov": 7889,
  "tadata": 7890,
  "asten": 7891,
  "lovin</w>": 7892,
  "shines.</w>": 7893,
  "litt,</w>": 7894,
  "ichita": 7895,
  "veron": 7896,
  "levi</w>": 7897,
  "ram</w>": 7898,
  "arest": 7899,
  "laming": 7900,
  "omach": 7901,
  "ramon": 7902,
  "itas": 7903,
  "hating</w>": 7904,
  "shitted</w>": 7905,
  "elaborate": 7906,
  "hilitic": 7907,
  "\ud83e\ude78": 7908,
  "scal": 7909,
  "weren": 7910,
  "ires.</w>": 7911,
  "tical</w>": 7912,
  "gelove</w>": 7913,
  "littere": 7914,
  "ghel": 7915,
  "sesame</w>": 7916,
  "dered</w>": 7917,
  "hing": 7918,
  "belate": 7919,
  "elad</w>": 7920,
  "abevi": 7921,
  "dolele": 7922,
  "perabo</w>": 7923,
  "dingu": 7924,
  "cone": 7925,
  "\ud83e\uddf5": 7926,
  "anera</w>": 7927,
  "alitab": 7928,
  "oome</w>": 7929,
  "atitis</w>": 7930,
  "dicoot</w>": 7931,
  "elerates</w>": 7932,
  "merica</w>": 7933,
  "saram": 7934,
  "chelon": 7935,
  "si": 7936,
  "owered</w>": 7937,
  "tested</w>": 7938,
  "domesticated</w>": 7939,
  "ritate</w>": 7940,
  "\ud83e\udef5": 7941,
  "charom": 7942,
  "herite": 7943,
  "dener": 7944,
  "pestilen": 7945,
  "teli": 7946,
  "omachache</w>": 7947,
  "estically</w>": 7948,
  "amor": 7949,
  "shades,</w>": 7950,
  "shatter": 7951,
  "wene": 7952,
  "\ud83d\udc46": 7953,
  "corel": 7954,
  "tar": 7955,
  "severale</w>": 7956,
  "chad": 7957,
  "coo</w>": 7958,
  "booring</w>": 7959,
  "restic": 7960,
  "rasche</w>": 7961,
  "esome": 7962,
  "wasteland</w>": 7963,
  "tales": 7964,
  "to</w>": 7965,
  "ashes.</w>": 7966,
  "corat": 7967,
  "senes": 7968,
  "sadesi": 7969,
  "rashe": 7970,
  "mitates.</w>": 7971,
  "oou": 7972,
  "everingham": 7973,
  "aborin": 7974,
  "ramac": 7975,
  "gesta": 7976,
  "coli</w>": 7977,
  "politically</w>": 7978,
  "lamati": 7979,
  "maraner</w>": 7980,
  "gests</w>": 7981,
  "ditic": 7982,
  "thele": 7983,
  "derou": 7984,
  "oles.</w>": 7985,
  "olon": 7986,
  "halati": 7987,
  "mated</w>": 7988,
  "alen</w>": 7989,
  "litted</w>": 7990,
  "asting": 7991,
  "gerel</w>": 7992,
  "ringer</w>": 7993,
  "amesca": 7994,
  "wheras</w>": 7995,
  "mastadon": 7996,
  "shas</w>": 7997,
  "cores": 7998,
  "\ud83c\udf78": 7999,
  "mom": 8000,
  "viting</w>": 8001,
  "polas": 8002,
  "milin": 8003,
  "bestest</w>": 8004,
  "rashing": 8005,
  "oole</w>": 8006,
  "diren": 8007,
  "line</w>": 8008,
  "mattatat</w>": 8009,
  "doper": 8010,
  "sune</w>": 8011,
  "chex": 8012,
  "leshing</w>": 8013,
  "arabel": 8014,
  "wane</w>": 8015,
  "rones.</w>": 8016,
  "chir": 8017,
  "saline</w>": 8018,
  "siles</w>": 8019,
  "\ud83e\uddde": 8020,
  "labe": 8021,
  "delicatesen": 8022,
  "ghare</w>": 8023,
  "leling</w>": 8024,
  "owesome": 8025,
  "irarowen": 8026,
  "rically</w>": 8027,
  "asilica": 8028,
  "ti'": 8029,
  "mitt</w>": 8030,
  "ferase</w>": 8031,
  "neli": 8032,
  "attali": 8033,
  "peran</w>": 8034,
  "thering</w>": 8035,
  "irates.</w>": 8036,
  "marin</w>": 8037,
  "tamu": 8038,
  "lestat,</w>": 8039,
  "chatted</w>": 8040,
  "\u6613": 8041,
  "asca": 8042,
  "gesti": 8043,
  "owed</w>": 8044,
  "ramadores</w>": 8045,
  "acop": 8046,
  "orer": 8047,
  "thel": 8048,
  "sela</w>": 8049,
  "then</w>": 8050,
  "powa": 8051,
  "schatgpt</w>": 8052,
  "ala</w>": 8053,
  "pomeran": 8054,
  "astate</w>": 8055,
  "\ud83d\ude44": 8056,
  "hare": 8057,
  "oprol</w>": 8058,
  "tile": 8059,
  "shine": 8060,
  "roma</w>": 8061,
  "overitas": 8062,
  "marines.</w>": 8063,
  "casin</w>": 8064,
  "gevit": 8065,
  "boweling</w>": 8066,
  "matador</w>": 8067,
  "delade": 8068,
  "omoric": 8069,
  "shic": 8070,
  "atten": 8071,
  "cowel": 8072,
  "\ud83c\udf38": 8073,
  "omelab": 8074,
  "roon</w>": 8075,
  "cab": 8076,
  "bow": 8077,
  "teras": 8078,
  "americas,</w>": 8079,
  "delines.</w>": 8080,
  "rerace</w>": 8081,
  "diles</w>": 8082,
  "ramones": 8083,
  "\u0088": 8084,
  "sade": 8085,
  "\\ne": 8086,
  "attitu": 8087,
  "lita</w>": 8088,
  "radi": 8089,
  "lere": 8090,
  "lac": 8091,
  "pex": 8092,
  "tashasi": 8093,
  "oof</w>": 8094,
  "gerop": 8095,
  "ever": 8096,
  "owaromo": 8097,
  "amol": 8098,
  "rames,</w>": 8099,
  "generated</w>": 8100,
  "dop</w>": 8101,
  "ittily</w>": 8102,
  "rades": 8103,
  "loris</w>": 8104,
  "laming</w>": 8105,
  "escalating": 8106,
  "hines": 8107,
  "thened</w>": 8108,
  "shiner": 8109,
  "omatil": 8110,
  "riner": 8111,
  ">": 8112,
  "lorin</w>": 8113,
  "dicalin": 8114,
  "omat": 8115,
  "gely</w>": 8116,
  "porate": 8117,
  "aco</w>": 8118,
  "\ud83d\udcd6": 8119,
  "mand</w>": 8120,
  "shamu": 8121,
  "ithari</w>": 8122,
  "eleste": 8123,
  "hasan</w>": 8124,
  "mow</w>": 8125,
  "maran": 8126,
  "ght</w>": 8127,
  "mi": 8128,
  "watering</w>": 8129,
  "dili": 8130,
  "be</w>": 8131,
  "pom</w>": 8132,
  "ilen": 8133,
  "irati": 8134,
  "vila</w>": 8135,
  "mascot</w>": 8136,
  "ichatgpt</w>": 8137,
  "stan": 8138,
  "acado</w>": 8139,
  "erico": 8140,
  "berac": 8141,
  "melines</w>": 8142,
  "iterat": 8143,
  "stines</w>": 8144,
  "porov": 8145,
  "overachi": 8146,
  "porally</w>": 8147,
  "generes": 8148,
  "scada": 8149,
  "dabu": 8150,
  "olesterol</w>": 8151,
  "tingen": 8152,
  "castin</w>": 8153,
  "\ud83d\udc41": 8154,
  "eli</w>": 8155,
  "atting</w>": 8156,
  "ere</w>": 8157,
  "moving</w>": 8158,
  "ato</w>": 8159,
  "amot</w>": 8160,
  "siter": 8161,
  "\ud83e\udd8d": 8162,
  "itate": 8163,
  "heritab": 8164,
  "itali": 8165,
  "ad.</w>": 8166,
  "saber": 8167,
  "lara": 8168,
  "gevi": 8169,
  "macu": 8170,
  "alasa": 8171,
  "wesomes": 8172,
  "mires.</w>": 8173,
  "scola</w>": 8174,
  "omele": 8175,
  "cati": 8176,
  "omeric": 8177,
  "scaring</w>": 8178,
  "sited</w>": 8179,
  "rome</w>": 8180,
  "tene": 8181,
  "vitha": 8182,
  "selan": 8183,
  "inex": 8184,
  "asthes": 8185,
  "dame": 8186,
  "hashi</w>": 8187,
  "cowat": 8188,
  "mold</w>": 8189,
  "power": 8190,
  "charine</w>": 8191,
  "achile</w>": 8192,
  "arasitic": 8193,
  "\ud83e\udd14": 8194,
  "\u592a": 8195,
  "radines</w>": 8196,
  "datale": 8197,
  "iche": 8198,
  "icate": 8199,
  "melor": 8200,
  "\u0095": 8201,
  "verow</w>": 8202,
  "tto</w>": 8203,
  "irest": 8204,
  "aberon": 8205,
  "scares</w>": 8206,
  "wastel": 8207,
  "gesch": 8208,
  "rado": 8209,
  "feld</w>": 8210,
  "evera": 8211,
  "diresti": 8212,
  "tthing</w>": 8213,
  "scating</w>": 8214,
  "astating": 8215,
  "moman": 8216,
  "gerating": 8217,
  "coma</w>": 8218,
  "omach</w>": 8219,
  "oonest</w>": 8220,
  "hire</w>": 8221,
  "ringer": 8222,
  "comic": 8223,
  "geli": 8224,
  "\ud83c\udf79": 8225,
  "thescoo": 8226,
  "casab": 8227,
  "cast</w>": 8228,
  "lates": 8229,
  "tiring</w>": 8230,
  "ov": 8231,
  "malacha": 8232,
  "alad": 8233,
  "damit": 8234,
  "lali": 8235,
  "\ud83d\udc2e": 8236,
  "nel": 8237,
  "westi": 8238,
  "bores,</w>": 8239,
  "olesu": 8240,
  "moored</w>": 8241,
  "rerun</w>": 8242,
  "mil": 8243,
  "aloof</w>": 8244,
  "helam": 8245,
  "\ud83d\udd70": 8246,
  "ferer": 8247,
  "olar</w>": 8248,
  "thash": 8249,
  "samico</w>": 8250,
  "chest": 8251,
  "ares</w>": 8252,
  "scoope": 8253,
  "ole</w>": 8254,
  "lines,</w>": 8255,
  "forerun": 8256,
  "rested</w>": 8257,
  "aramore</w>": 8258,
  "perit": 8259,
  "hile</w>": 8260,
  "lilica</w>": 8261,
  "vit.</w>": 8262,
  "onesing</w>": 8263,
  "poorest,</w>": 8264,
  "\u008e": 8265,
  "mould</w>": 8266,
  "atere": 8267,
  "diro</w>": 8268,
  "pests</w>": 8269,
  "bevis</w>": 8270,
  "booming": 8271,
  "porate</w>": 8272,
  "asil</w>": 8273,
  "tari": 8274,
  "scovery</w>": 8275,
  "lorine": 8276,
  "ooming</w>": 8277,
  "bol": 8278,
  "\ud83d\ude26": 8279,
  "alin": 8280,
  "\ud83c\udf40": 8281,
  "tilati": 8282,
  "maren": 8283,
  "destined</w>": 8284,
  "tade": 8285,
  "olas</w>": 8286,
  "comen": 8287,
  "oprop": 8288,
  "orat": 8289,
  "atalit": 8290,
  "ittest.</w>": 8291,
  "li</w>": 8292,
  "ada</w>": 8293,
  "pera</w>": 8294,
  "delines,</w>": 8295,
  "iraled</w>": 8296,
  "\u2642": 8297,
  "cherice</w>": 8298,
  "\u30b3": 8299,
  "deliti": 8300,
  "cash": 8301,
  "irat</w>": 8302,
  "vite": 8303,
  "rases,</w>": 8304,
  "lole": 8305,
  "scal</w>": 8306,
  "amescoop": 8307,
  "erov": 8308,
  "ricates</w>": 8309,
  "rely</w>": 8310,
  "esar</w>": 8311,
  "\ud83d\udca1": 8312,
  "lican": 8313,
  "belin": 8314,
  "adori": 8315,
  "bov": 8316,
  "ingered</w>": 8317,
  "revit": 8318,
  "somu": 8319,
  "hith": 8320,
  "hela": 8321,
  "liches": 8322,
  "acharach": 8323,
  "nelas</w>": 8324,
  "gerero</w>": 8325,
  "mastan</w>": 8326,
  "tamor": 8327,
  "lastic": 8328,
  "fering": 8329,
  "\ud835\ude25": 8330,
  "jun</w>": 8331,
  "oritati": 8332,
  "ara": 8333,
  "proli": 8334,
  "lat</w>": 8335,
  "dit": 8336,
  "anese</w>": 8337,
  "polite</w>": 8338,
  "camile": 8339,
  "shit,</w>": 8340,
  "dicam</w>": 8341,
  "\ud83d\udc99": 8342,
  "pela": 8343,
  "tinges</w>": 8344,
  "charin": 8345,
  "chatterer</w>": 8346,
  "share": 8347,
  "verilo": 8348,
  "olero</w>": 8349,
  "sham</w>": 8350,
  "abed</w>": 8351,
  "lero": 8352,
  "deschanel": 8353,
  "hester</w>": 8354,
  "ti": 8355,
  "onev": 8356,
  "arach</w>": 8357,
  "mically</w>": 8358,
  "masaru": 8359,
  "radic": 8360,
  "daneli": 8361,
  "westing</w>": 8362,
  "bof</w>": 8363,
  "caten": 8364,
  "tunes.</w>": 8365,
  "hi's</w>": 8366,
  "mamas": 8367,
  "sari's</w>": 8368,
  "label": 8369,
  "seles": 8370,
  "achil": 8371,
  "resche": 8372,
  "\u8d37": 8373,
  "ilateral</w>": 8374,
  "lenevic": 8375,
  "elest.</w>": 8376,
  "gest.</w>": 8377,
  "\ud83d\ude41": 8378,
  "resc": 8379,
  "lore</w>": 8380,
  "_": 8381,
  "lowes</w>": 8382,
  "milated</w>": 8383,
  "omily</w>": 8384,
  "she</w>": 8385,
  "warenes": 8386,
  "anener": 8387,
  "taliti": 8388,
  "saber</w>": 8389,
  "&": 8390,
  "\ud83d\udc8c": 8391,
  "scon": 8392,
  "covering": 8393,
  "itiles": 8394,
  "dou": 8395,
  "chami": 8396,
  "chasten": 8397,
  "bom": 8398,
  "powab": 8399,
  "athali": 8400,
  "teste": 8401,
  "colom": 8402,
  "thand</w>": 8403,
  "bever": 8404,
  "loving</w>": 8405,
  "perest": 8406,
  "gherab": 8407,
  "cowhand</w>": 8408,
  "sest,</w>": 8409,
  "theseri": 8410,
  "boland</w>": 8411,
  "last,</w>": 8412,
  "nevil</w>": 8413,
  "porely</w>": 8414,
  "lamest</w>": 8415,
  "licon</w>": 8416,
  "borat.</w>": 8417,
  "poop</w>": 8418,
  "\ud83d\udc0d": 8419,
  "gerol": 8420,
  "staro</w>": 8421,
  "dabou": 8422,
  "esar": 8423,
  "descaling</w>": 8424,
  "oora": 8425,
  "weler</w>": 8426,
  "atican</w>": 8427,
  "lacar": 8428,
  "calate</w>": 8429,
  "roma": 8430,
  "haling</w>": 8431,
  "were</w>": 8432,
  "tines.</w>": 8433,
  "cades,</w>": 8434,
  "westh": 8435,
  "sacola</w>": 8436,
  "athically</w>": 8437,
  "gelo": 8438,
  "casu": 8439,
  "\ud83c\udfd3": 8440,
  "scati": 8441,
  "melita</w>": 8442,
  "tilit": 8443,
  "powel": 8444,
  "borat": 8445,
  "ic": 8446,
  "relane": 8447,
  "coran</w>": 8448,
  "masa": 8449,
  "hamen": 8450,
  "care</w>": 8451,
  "shath": 8452,
  "aster</w>": 8453,
  "atately</w>": 8454,
  "devic": 8455,
  "athan</w>": 8456,
  "tically</w>": 8457,
  "attila": 8458,
  "mam</w>": 8459,
  "dole": 8460,
  "daras": 8461,
  "itterines": 8462,
  "ilama</w>": 8463,
  "thati": 8464,
  "sating": 8465,
  "ramones.</w>": 8466,
  "pestering</w>": 8467,
  "whiten</w>": 8468,
  "generate</w>": 8469,
  "boru": 8470,
  "gesi": 8471,
  "tiles": 8472,
  "licher": 8473,
  "hines,</w>": 8474,
  "scover": 8475,
  "shirin": 8476,
  "\ud83c\udf0f": 8477,
  "elerati": 8478,
  "poradical": 8479,
  "\ud83e\udeb7": 8480,
  "\u2696": 8481,
  "dacasco": 8482,
  "ghad": 8483,
  "thatt</w>": 8484,
  "alar": 8485,
  "cones": 8486,
  "henen": 8487,
  "dicat": 8488,
  "boomer</w>": 8489,
  "chese": 8490,
  "derin": 8491,
  "dashing": 8492,
  "lare": 8493,
  "omestar": 8494,
  "lowest.</w>": 8495,
  "sharing": 8496,
  "poman": 8497,
  "salome</w>": 8498,
  "\\neli": 8499,
  "ramones,</w>": 8500,
  "caroles</w>": 8501,
  "hate</w>": 8502,
  "malade": 8503,
  "tadam</w>": 8504,
  "moring": 8505,
  "chaco</w>": 8506,
  "arates,</w>": 8507,
  "scathing": 8508,
  "achel": 8509,
  "marol": 8510,
  "loring": 8511,
  "ricane</w>": 8512,
  "wor": 8513,
  "itineran": 8514,
  "row</w>": 8515,
  "amene</w>": 8516,
  "satiricon": 8517,
  "astan": 8518,
  "\ud83c\udffb": 8519,
  "icon</w>": 8520,
  "acham": 8521,
  "peres</w>": 8522,
  "dicates,</w>": 8523,
  "per": 8524,
  "inge": 8525,
  "whats</w>": 8526,
  "molin": 8527,
  "mithi's</w>": 8528,
  "eshire": 8529,
  "ritera": 8530,
  "cun": 8531,
  "cari": 8532,
  "hamil</w>": 8533,
  "thel</w>": 8534,
  "fes": 8535,
  "thames": 8536,
  "\ud83d\udcaa": 8537,
  "mesan</w>": 8538,
  "thev": 8539,
  "di": 8540,
  "\u03be": 8541,
  "polari": 8542,
  "chelor": 8543,
  "\u0092": 8544,
  "manera</w>": 8545,
  "tastic": 8546,
  "eler</w>": 8547,
  "ames.</w>": 8548,
  "charade</w>": 8549,
  "gelo</w>": 8550,
  "scaster": 8551,
  "shave</w>": 8552,
  "\ud83c\udfd6": 8553,
  "stath": 8554,
  "aromat</w>": 8555,
  "nesan": 8556,
  "dats</w>": 8557,
  "\u2665": 8558,
  "hadar</w>": 8559,
  "lamari": 8560,
  "diram</w>": 8561,
  "tesan": 8562,
  "olo": 8563,
  "wat.</w>": 8564,
  "mami</w>": 8565,
  "oner</w>": 8566,
  "iched</w>": 8567,
  "litt</w>": 8568,
  "resili": 8569,
  "\ud835\udc7b": 8570,
  "aner</w>": 8571,
  "coroner": 8572,
  "astes.</w>": 8573,
  "ado": 8574,
  "looped</w>": 8575,
  "achelor</w>": 8576,
  "atical": 8577,
  "estu": 8578,
  "aber": 8579,
  "copelan": 8580,
  "shares.</w>": 8581,
  "rath": 8582,
  "restera": 8583,
  "donen": 8584,
  "dalith": 8585,
  "cores</w>": 8586,
  "tacu": 8587,
  "atic": 8588,
  "alestine": 8589,
  "ales": 8590,
  "omo</w>": 8591,
  "herol": 8592,
  "\udb40\udc62": 8593,
  "lelo": 8594,
  "\ud835\udc82": 8595,
  "\ud835\udc7a": 8596,
  "aneri": 8597,
  "tteral</w>": 8598,
  "delane": 8599,
  "madil": 8600,
  "scar": 8601,
  "sen</w>": 8602,
  "ovin": 8603,
  "lamerica": 8604,
  "vering</w>": 8605,
  "dan</w>": 8606,
  "roof</w>": 8607,
  "sattire</w>": 8608,
  "sun</w>": 8609,
  "wed</w>": 8610,
  "ropou": 8611,
  "pore": 8612,
  "abun": 8613,
  "maman</w>": 8614,
  "dical</w>": 8615,
  "whine": 8616,
  "olated</w>": 8617,
  "asher": 8618,
  "hilarating": 8619,
  "everin": 8620,
  "dorado": 8621,
  "donenes": 8622,
  "cherites</w>": 8623,
  "ghest": 8624,
  "melon": 8625,
  "'": 8626,
  "chalo": 8627,
  "scoot</w>": 8628,
  "stashes</w>": 8629,
  "cadilac": 8630,
  "ttinge": 8631,
  "delo": 8632,
  "ladar</w>": 8633,
  "roomates</w>": 8634,
  "atiner": 8635,
  "daresa": 8636,
  "withad": 8637,
  "rane</w>": 8638,
  "des": 8639,
  "\u2069": 8640,
  "acon": 8641,
  "heritan": 8642,
  "teric": 8643,
  "lathering</w>": 8644,
  "ilir": 8645,
  "\ud83e\ude7b": 8646,
  "inerates</w>": 8647,
  "iloring</w>": 8648,
  "\ud83e\udd9c": 8649,
  "\ud83d\udc04": 8650,
  "omal": 8651,
  "derale</w>": 8652,
  "delac": 8653,
  "st,</w>": 8654,
  "resta": 8655,
  "tires</w>": 8656,
  "raco</w>": 8657,
  "\u008d": 8658,
  "\u3064": 8659,
  "wasi</w>": 8660,
  "damit,</w>": 8661,
  "shire</w>": 8662,
  "belom</w>": 8663,
  "das,</w>": 8664,
  "lates.</w>": 8665,
  "\ud83e\uddcc": 8666,
  "oming</w>": 8667,
  "lorati": 8668,
  "loving": 8669,
  "\ud83d\udcc8": 8670,
  "ol</w>": 8671,
  "doome": 8672,
  "ticalit": 8673,
  "forestati": 8674,
  "dadol": 8675,
  "eradicating</w>": 8676,
  "titta</w>": 8677,
  "stad": 8678,
  "bere": 8679,
  "ri'": 8680,
  "ds</w>": 8681,
  "lesta</w>": 8682,
  "\u00f1": 8683,
  "mari's</w>": 8684,
  "san</w>": 8685,
  "amatabo": 8686,
  "latest.</w>": 8687,
  "lamen": 8688,
  "den</w>": 8689,
  "sevic": 8690,
  "tarin": 8691,
  "waru": 8692,
  "minger": 8693,
  "thelad": 8694,
  "dine</w>": 8695,
  "cover": 8696,
  "vili": 8697,
  "rones</w>": 8698,
  "samenes": 8699,
  "tast": 8700,
  "hile": 8701,
  "doon</w>": 8702,
  "tireles": 8703,
  "thical": 8704,
  "laden": 8705,
  "\ud83d\udd2e": 8706,
  "orera": 8707,
  "ily</w>": 8708,
  "evin</w>": 8709,
  "ber</w>": 8710,
  "lite": 8711,
  "acam": 8712,
  "atenes": 8713,
  "shi</w>": 8714,
  "rites": 8715,
  "wa</w>": 8716,
  "beru": 8717,
  "thesun</w>": 8718,
  "\u0639": 8719,
  "chasit": 8720,
  "hing</w>": 8721,
  "omelas": 8722,
  "ilot</w>": 8723,
  "opt</w>": 8724,
  "chevin": 8725,
  "arabes": 8726,
  "oving</w>": 8727,
  "iler</w>": 8728,
  "nerab": 8729,
  "vitale</w>": 8730,
  "tester</w>": 8731,
  "omads</w>": 8732,
  "orilov": 8733,
  "ratt,</w>": 8734,
  "literati": 8735,
  "lanes": 8736,
  "mite": 8737,
  "ari'": 8738,
  "moon</w>": 8739,
  "\ud83d\uddfd": 8740,
  "caste": 8741,
  "adore": 8742,
  "lacha": 8743,
  "delene</w>": 8744,
  "goo": 8745,
  "veras</w>": 8746,
  "pora": 8747,
  "res.</w>": 8748,
  "ascar": 8749,
  "latted</w>": 8750,
  "siten": 8751,
  "lorado": 8752,
  "thesh": 8753,
  "arel": 8754,
  "roned</w>": 8755,
  "cale": 8756,
  "maschera": 8757,
  "michele": 8758,
  "gelamari": 8759,
  "chases": 8760,
  "prol": 8761,
  "thelaten": 8762,
  "deles": 8763,
  "promo</w>": 8764,
  "seser": 8765,
  "ratere": 8766,
  "males</w>": 8767,
  "chatter": 8768,
  "wach": 8769,
  "\u30af": 8770,
  "iting": 8771,
  "hitter": 8772,
  "forest</w>": 8773,
  "amamu": 8774,
  "asil": 8775,
  "tates</w>": 8776,
  "thal": 8777,
  "aman": 8778,
  "washing": 8779,
  "amon": 8780,
  "adabout</w>": 8781,
  "omari": 8782,
  "ilical</w>": 8783,
  "attic": 8784,
  "lorop": 8785,
  "ttara</w>": 8786,
  "achite": 8787,
  "\u0dca": 8788,
  "amatti": 8789,
  "scones,</w>": 8790,
  "master": 8791,
  "vin": 8792,
  "dare": 8793,
  "alore</w>": 8794,
  "alitt": 8795,
  "irelad": 8796,
  "estt</w>": 8797,
  "omer</w>": 8798,
  "aner": 8799,
  "ichir": 8800,
  "genesis</w>": 8801,
  "chinesenes": 8802,
  "fu": 8803,
  "ou": 8804,
  "nested</w>": 8805,
  "amical": 8806,
  "lanes.</w>": 8807,
  "\ud83d\udc94": 8808,
  "nest": 8809,
  "resen": 8810,
  "whiti": 8811,
  "dela": 8812,
  "rine</w>": 8813,
  "desired</w>": 8814,
  "made": 8815,
  "des,</w>": 8816,
  "tin": 8817,
  "hilate</w>": 8818,
  "\ud83d\ude10": 8819,
  "hili": 8820,
  "iles": 8821,
  "resaro": 8822,
  "escou": 8823,
  "gerati": 8824,
  "relas": 8825,
  "vitamine</w>": 8826,
  "castthat</w>": 8827,
  "esha": 8828,
  "\ud83e\udd13": 8829,
  "gelow": 8830,
  "thames.</w>": 8831,
  "manen</w>": 8832,
  "racar": 8833,
  "mine": 8834,
  "tamine": 8835,
  "bora</w>": 8836,
  "prot</w>": 8837,
  "hate": 8838,
  "meshed</w>": 8839,
  "latte</w>": 8840,
  "severes,</w>": 8841,
  "olatile</w>": 8842,
  "gerates</w>": 8843,
  "cow</w>": 8844,
  "rower": 8845,
  "ramatical</w>": 8846,
  "cheri": 8847,
  "bowen</w>": 8848,
  "\u6642": 8849,
  "amade": 8850,
  "felines.</w>": 8851,
  "overate": 8852,
  "cowan</w>": 8853,
  "chests</w>": 8854,
  "fesa": 8855,
  "covi": 8856,
  "aramou": 8857,
  "wales</w>": 8858,
  "shame</w>": 8859,
  "\ud83d\udcf8": 8860,
  "resha": 8861,
  "tashe": 8862,
  "\ud83d\udcb3": 8863,
  "peril</w>": 8864,
  "lashed</w>": 8865,
  "tilingu": 8866,
  "mata": 8867,
  "ricone": 8868,
  "hat</w>": 8869,
  "iran": 8870,
  "minger</w>": 8871,
  "cou": 8872,
  "mirac": 8873,
  "properites</w>": 8874,
  "deral</w>": 8875,
  "hiti</w>": 8876,
  "thever</w>": 8877,
  "titti": 8878,
  "aschald</w>": 8879,
  "cares</w>": 8880,
  "len": 8881,
  "milan</w>": 8882,
  "colatte": 8883,
  "whatta</w>": 8884,
  "whites.</w>": 8885,
  "morel": 8886,
  "resin</w>": 8887,
  "stan</w>": 8888,
  "elines": 8889,
  "reshi</w>": 8890,
  "stab": 8891,
  "atel": 8892,
  "cole": 8893,
  "lora": 8894,
  "\u265f": 8895,
  "terada": 8896,
  "lone": 8897,
  "americolor": 8898,
  "labone</w>": 8899,
  "omatical": 8900,
  "scha</w>": 8901,
  "nestin": 8902,
  "\u03c0": 8903,
  "shattered</w>": 8904,
  "roled</w>": 8905,
  "rowan</w>": 8906,
  "rare": 8907,
  "sarere": 8908,
  "\u0627": 8909,
  "ramoor": 8910,
  "\u610f": 8911,
  "case": 8912,
  "owhi": 8913,
  "iti": 8914,
  "stiles,</w>": 8915,
  "resting": 8916,
  "salas</w>": 8917,
  "\u0d9a": 8918,
  "festen": 8919,
  "anesthe": 8920,
  "licori": 8921,
  "lachat": 8922,
  "lest": 8923,
  "attering</w>": 8924,
  "thine</w>": 8925,
  "its</w>": 8926,
  "miru": 8927,
  "ilaterally</w>": 8928,
  "siri": 8929,
  "watere": 8930,
  "serex": 8931,
  "tting": 8932,
  "lader</w>": 8933,
  "fela": 8934,
  "\ud835\uddf9": 8935,
  "tasting": 8936,
  "rel</w>": 8937,
  "eso</w>": 8938,
  "ratten</w>": 8939,
  "lared</w>": 8940,
  "mones</w>": 8941,
  "stened</w>": 8942,
  "poow</w>": 8943,
  "esed</w>": 8944,
  "dam": 8945,
  "olil": 8946,
  "rittatas,</w>": 8947,
  "\u02e1": 8948,
  "nero": 8949,
  "arit": 8950,
  "ges.</w>": 8951,
  "ador</w>": 8952,
  "sats</w>": 8953,
  "tunes": 8954,
  "icating</w>": 8955,
  "sticou": 8956,
  "erevi": 8957,
  "hac": 8958,
  "alitical</w>": 8959,
  "bom</w>": 8960,
  "deshare": 8961,
  "rit</w>": 8962,
  ".": 8963,
  "lomat": 8964,
  "arami": 8965,
  "\u0010": 8966,
  "mich": 8967,
  "lalo</w>": 8968,
  "amada": 8969,
  "richar": 8970,
  "peren": 8971,
  "ithin": 8972,
  "labore": 8973,
  "asta</w>": 8974,
  "gestab": 8975,
  "whit": 8976,
  "aminer</w>": 8977,
  "herited</w>": 8978,
  "scoming</w>": 8979,
  "th": 8980,
  "pomi": 8981,
  "labora": 8982,
  "olori": 8983,
  "somer": 8984,
  "aren't</w>": 8985,
  "cabo": 8986,
  "ttes,</w>": 8987,
  "dile": 8988,
  "eras": 8989,
  "charater": 8990,
  "chiles</w>": 8991,
  "weld</w>": 8992,
  "attired</w>": 8993,
  "vitamin</w>": 8994,
  "dily</w>": 8995,
  "ilitated</w>": 8996,
  "stit</w>": 8997,
  "hamel": 8998,
  "\u010d": 8999,
  "dolou": 9000,
  "mes": 9001,
  "lolita": 9002,
  "genero": 9003,
  "vitto</w>": 9004,
  "halest": 9005,
  "moop": 9006,
  "sened</w>": 9007,
  "thad,</w>": 9008,
  "vir": 9009,
  "has": 9010,
  "static": 9011,
  "ovicar": 9012,
  "rithe</w>": 9013,
  "lading": 9014,
  "sitto</w>": 9015,
  "ingh</w>": 9016,
  "saloon</w>": 9017,
  "romasan": 9018,
  "this</w>": 9019,
  "militar": 9020,
  "mala": 9021,
  "gelou": 9022,
  "lingu": 9023,
  "ashed</w>": 9024,
  "sin": 9025,
  "proper": 9026,
  "shire": 9027,
  "\u8cde": 9028,
  "rescale</w>": 9029,
  "eradicates</w>": 9030,
  "michali": 9031,
  "schab": 9032,
  "lomalin": 9033,
  "coolan": 9034,
  "tamin</w>": 9035,
  "ttas</w>": 9036,
  "alates</w>": 9037,
  "generi": 9038,
  "owa": 9039,
  "ases.</w>": 9040,
  "whines</w>": 9041,
  "ladores": 9042,
  "\u6770": 9043,
  "mares.</w>": 9044,
  "tama": 9045,
  "rashan": 9046,
  "radeshi": 9047,
  "\ud835\udc21": 9048,
  "\ud83c\udf93": 9049,
  "hashe": 9050,
  "chi</w>": 9051,
  "waster</w>": 9052,
  "\ud83d\udd96": 9053,
  "eral</w>": 9054,
  "aboo": 9055,
  "saras</w>": 9056,
  "ritti": 9057,
  "icola</w>": 9058,
  "mastering</w>": 9059,
  "tamari": 9060,
  "whiter</w>": 9061,
  "alala": 9062,
  "iting</w>": 9063,
  "atamala</w>": 9064,
  "dorado</w>": 9065,
  "amela</w>": 9066,
  "desires,</w>": 9067,
  "\ud83d\ude2d": 9068,
  "til": 9069,
  "owen</w>": 9070,
  "ttac": 9071,
  "chenel": 9072,
  "masticati": 9073,
  "deviled</w>": 9074,
  "vered</w>": 9075,
  "madu": 9076,
  "itis</w>": 9077,
  "oritari": 9078,
  "marow</w>": 9079,
  "hero": 9080,
  "share</w>": 9081,
  "amou": 9082,
  "atast": 9083,
  "whitt</w>": 9084,
  "rashing</w>": 9085,
  "mattered</w>": 9086,
  "eviron": 9087,
  "radora": 9088,
  "ilon": 9089,
  "li": 9090,
  "goon</w>": 9091,
  "on</w>": 9092,
  "ather": 9093,
  "verite": 9094,
  "ittesting</w>": 9095,
  "halo</w>": 9096,
  "lalaman": 9097,
  "cherite</w>": 9098,
  "vitir": 9099,
  "pow": 9100,
  "salamis</w>": 9101,
  "attest": 9102,
  "lami": 9103,
  "\u2764": 9104,
  "escor": 9105,
  "mitte": 9106,
  "miral</w>": 9107,
  "acore": 9108,
  "mola</w>": 9109,
  "aren": 9110,
  "waned</w>": 9111,
  "calico": 9112,
  "chatgpt</w>": 9113,
  "arating": 9114,
  "resir": 9115,
  "wat</w>": 9116,
  "matil": 9117,
  "cori</w>": 9118,
  "chatil": 9119,
  "withering</w>": 9120,
  "sacoun": 9121,
  "chalic": 9122,
  "tune</w>": 9123,
  "america</w>": 9124,
  "filed</w>": 9125,
  "resari": 9126,
  "\ud83c\udf10": 9127,
  "destab": 9128,
  "masche": 9129,
  "resan": 9130,
  "ilerama": 9131,
  "mad,</w>": 9132,
  "pol": 9133,
  "dales.</w>": 9134,
  "sesh": 9135,
  "chiles,</w>": 9136,
  "taru": 9137,
  "mitati": 9138,
  "scoopes</w>": 9139,
  "coolest</w>": 9140,
  "latt,</w>": 9141,
  "charas": 9142,
  "arolin": 9143,
  "adicam": 9144,
  "itadel": 9145,
  "matti</w>": 9146,
  "comed</w>": 9147,
  "fores</w>": 9148,
  "latel": 9149,
  "dita</w>": 9150,
  "wen</w>": 9151,
  "alom": 9152,
  "lane": 9153,
  "ramas</w>": 9154,
  "helo</w>": 9155,
  "rest": 9156,
  "tade</w>": 9157,
  "hasche": 9158,
  "sabu": 9159,
  "ghes.</w>": 9160,
  "lamine": 9161,
  "\u02b0": 9162,
  "room</w>": 9163,
  "\ud83e\udee4": 9164,
  "tattered</w>": 9165,
  "resev": 9166,
  "it's</w>": 9167,
  "sades</w>": 9168,
  "lomar</w>": 9169,
  "whither": 9170,
  "estt": 9171,
  "rest.</w>": 9172,
  "owes": 9173,
  "lescasil": 9174,
  "\u0e0f": 9175,
  "amoralit": 9176,
  "labones.</w>": 9177,
  "\u00b2": 9178,
  "les.</w>": 9179,
  "teling</w>": 9180,
  "chanel": 9181,
  "pola</w>": 9182,
  "ser": 9183,
  "\ud83e\ude9e": 9184,
  "relates</w>": 9185,
  "generou": 9186,
  "sales": 9187,
  "adorada": 9188,
  "deline": 9189,
  "ase": 9190,
  "elico": 9191,
  "asch": 9192,
  "mashing": 9193,
  "mame</w>": 9194,
  "\ud83d\udc4a": 9195,
  "pen</w>": 9196,
  "rascal</w>": 9197,
  "tela": 9198,
  "\ud835\ude06": 9199,
  "scolou": 9200,
  "lares": 9201,
  "ar</w>": 9202,
  "miner": 9203,
  "perone</w>": 9204,
  "literally</w>": 9205,
  "deriti": 9206,
  "gest</w>": 9207,
  "west</w>": 9208,
  "omata</w>": 9209,
  "sally</w>": 9210,
  "cases.</w>": 9211,
  "leverer</w>": 9212,
  "severes</w>": 9213,
  "deror": 9214,
  "rittan": 9215,
  "riteri": 9216,
  "besti": 9217,
  "bolam</w>": 9218,
  "boring</w>": 9219,
  "lamed</w>": 9220,
  "rov": 9221,
  "marathi": 9222,
  "pele</w>": 9223,
  "romane</w>": 9224,
  "scaril": 9225,
  "richest</w>": 9226,
  "sili</w>": 9227,
  "attiti": 9228,
  "alachi": 9229,
  "derating</w>": 9230,
  "belaru": 9231,
  "sacar": 9232,
  "\ud83c\uddeb": 9233,
  "delores</w>": 9234,
  "caman": 9235,
  "sarat.</w>": 9236,
  "tthi</w>": 9237,
  "haras": 9238,
  "adac": 9239,
  "lachi": 9240,
  "provine": 9241,
  "vines": 9242,
  "whaling</w>": 9243,
  "lop": 9244,
  "adow": 9245,
  "omache</w>": 9246,
  "perel": 9247,
  "erading</w>": 9248,
  "ritates,</w>": 9249,
  "shaman": 9250,
  "withered</w>": 9251,
  "richel": 9252,
  "thes,</w>": 9253,
  "\ud83d\ude43": 9254,
  "wither": 9255,
  "loored</w>": 9256,
  "estate": 9257,
  "ghar": 9258,
  "hamin</w>": 9259,
  "shar": 9260,
  "\ud83e\udee1": 9261,
  "olera</w>": 9262,
  "staling": 9263,
  "chesteru": 9264,
  "olop</w>": 9265,
  "escha": 9266,
  "cath": 9267,
  "alice</w>": 9268,
  "eseste": 9269,
  "teresting": 9270,
  "dataman": 9271,
  "\ud83c\udf4b": 9272,
  "wesu": 9273,
  "\u00ae": 9274,
  "boop</w>": 9275,
  "peshi": 9276,
  "doli</w>": 9277,
  "damom": 9278,
  "herits</w>": 9279,
  "berel</w>": 9280,
  "neroo</w>": 9281,
  "damita": 9282,
  "chase": 9283,
  "tunes</w>": 9284,
  "dither": 9285,
  "militan": 9286,
  "terar": 9287,
  "omom</w>": 9288,
  "ared</w>": 9289,
  "dashi": 9290,
  "tired</w>": 9291,
  "sala</w>": 9292,
  "olatilit": 9293,
  "scalon</w>": 9294,
  "doling</w>": 9295,
  "boor</w>": 9296,
  "omath": 9297,
  "halatan": 9298,
  "lowor": 9299,
  "hilo": 9300,
  "iterating</w>": 9301,
  "sabe</w>": 9302,
  "covera": 9303,
  "c": 9304,
  "perated</w>": 9305,
  "sal": 9306,
  "marita": 9307,
  "ned</w>": 9308,
  "boo</w>": 9309,
  "malari": 9310,
  "ticolare": 9311,
  "t": 9312,
  "asa": 9313,
  "litt": 9314,
  "cherou": 9315,
  "ada": 9316,
  "catit</w>": 9317,
  "hering</w>": 9318,
  "bovis</w>": 9319,
  "orow</w>": 9320,
  "amil</w>": 9321,
  "lover": 9322,
  "weres</w>": 9323,
  "levin</w>": 9324,
  "era": 9325,
  "wast": 9326,
  "\u2753": 9327,
  "alero": 9328,
  "mat.</w>": 9329,
  "relo": 9330,
  "rates.</w>": 9331,
  "relic": 9332,
  "cones,</w>": 9333,
  "shit.</w>": 9334,
  "reri": 9335,
  "lori</w>": 9336,
  "scorin": 9337,
  "lester": 9338,
  "borate": 9339,
  "mir</w>": 9340,
  "thically</w>": 9341,
  "machas</w>": 9342,
  "ingerale</w>": 9343,
  "aloo": 9344,
  "gero</w>": 9345,
  "n</w>": 9346,
  "cow": 9347,
  "here": 9348,
  "melitta": 9349,
  "stads</w>": 9350,
  "fevered</w>": 9351,
  "ase</w>": 9352,
  "loner</w>": 9353,
  "cooped</w>": 9354,
  "rasa</w>": 9355,
  "alan": 9356,
  "stiches</w>": 9357,
  "tamate": 9358,
  "las</w>": 9359,
  "mathil": 9360,
  "\ud83c\udf4e": 9361,
  "eres": 9362,
  "samal": 9363,
  "descamu": 9364,
  "copen": 9365,
  "dalone</w>": 9366,
  "talite": 9367,
  "ilon</w>": 9368,
  "alari": 9369,
  "\ud83d\ude19": 9370,
  "\\nes": 9371,
  "hath": 9372,
  "carol": 9373,
  "mitthi": 9374,
  "tand</w>": 9375,
  "lashes.</w>": 9376,
  "ricatu": 9377,
  "thine": 9378,
  "festati": 9379,
  "felon</w>": 9380,
  "lomat,</w>": 9381,
  "\u6295": 9382,
  "sthan</w>": 9383,
  "whel": 9384,
  "lamato</w>": 9385,
  "talala": 9386,
  "hara</w>": 9387,
  "colab": 9388,
  "hen": 9389,
  "morate</w>": 9390,
  "tati": 9391,
  "anely</w>": 9392,
  "itu": 9393,
  "tall</w>": 9394,
  "deran</w>": 9395,
  "severi": 9396,
  "bow</w>": 9397,
  "orama": 9398,
  "fere</w>": 9399,
  "boon</w>": 9400,
  "mashan": 9401,
  "feratu": 9402,
  "shanes": 9403,
  "stila</w>": 9404,
  "runes,</w>": 9405,
  "manes": 9406,
  "wash": 9407,
  "mesu": 9408,
  "doran": 9409,
  "taboo": 9410,
  "lane</w>": 9411,
  "ever</w>": 9412,
  "ges</w>": 9413,
  "diron</w>": 9414,
  "tast,</w>": 9415,
  "caching</w>": 9416,
  "ttas,</w>": 9417,
  "meraner</w>": 9418,
  "bowele": 9419,
  "literate": 9420,
  "iradot</w>": 9421,
  "omesc": 9422,
  "\u2066": 9423,
  "ope": 9424,
  "ilely</w>": 9425,
  "an": 9426,
  "tabor</w>": 9427,
  "thesis</w>": 9428,
  "danel": 9429,
  "bole</w>": 9430,
  "itering</w>": 9431,
  "siri's</w>": 9432,
  "ilever": 9433,
  "iching</w>": 9434,
  "neveren": 9435,
  "olower": 9436,
  "esta": 9437,
  "\ud83c\udf05": 9438,
  "elot</w>": 9439,
  "merase</w>": 9440,
  "acooper</w>": 9441,
  "\u00bb": 9442,
  "elamaran</w>": 9443,
  "vitaco": 9444,
  "omating": 9445,
  "dale</w>": 9446,
  "athe": 9447,
  "den't</w>": 9448,
  "gen</w>": 9449,
  "ched</w>": 9450,
  "vilo": 9451,
  "lovin": 9452,
  "lither</w>": 9453,
  "iram</w>": 9454,
  "mada</w>": 9455,
  "cooling": 9456,
  "ferati": 9457,
  "teresan": 9458,
  "sarab": 9459,
  "iric": 9460,
  "owever": 9461,
  "darasi": 9462,
  "domine</w>": 9463,
  "berating</w>": 9464,
  "aramoun": 9465,
  "war</w>": 9466,
  "boor": 9467,
  "shaled</w>": 9468,
  "mittad": 9469,
  "ralol": 9470,
  "teradac": 9471,
  "si's</w>": 9472,
  "rame": 9473,
  "enely</w>": 9474,
  "oper</w>": 9475,
  "theru": 9476,
  "omit": 9477,
  "olesc": 9478,
  "rilingu": 9479,
  "\ud83c\udfaf": 9480,
  "\u2694": 9481,
  "theste": 9482,
  "casan": 9483,
  "cover</w>": 9484,
  "rora": 9485,
  "cates</w>": 9486,
  "dasar</w>": 9487,
  "rolo</w>": 9488,
  "boratto</w>": 9489,
  "\u2b1b": 9490,
  "samati</w>": 9491,
  "omiting": 9492,
  "esin</w>": 9493,
  "mithing</w>": 9494,
  "\ud835\udc2d": 9495,
  "shal": 9496,
  "che": 9497,
  "domestic": 9498,
  "ilesu": 9499,
  "?": 9500,
  "gherita</w>": 9501,
  "deroun": 9502,
  "mattes</w>": 9503,
  "cade</w>": 9504,
  "terati": 9505,
  "stalely</w>": 9506,
  "macon</w>": 9507,
  "ithel": 9508,
  "tame</w>": 9509,
  "weru": 9510,
  "gesting": 9511,
  "melamine": 9512,
  "colas.</w>": 9513,
  "pole</w>": 9514,
  "mamas.</w>": 9515,
  "ittesting": 9516,
  "\ud83d\udd73": 9517,
  "icune</w>": 9518,
  "rooped</w>": 9519,
  "cashil": 9520,
  "erac": 9521,
  "soming</w>": 9522,
  "boli": 9523,
  "dite": 9524,
  "lesco": 9525,
  "bowel</w>": 9526,
  "aroli": 9527,
  "ramola</w>": 9528,
  "rowen": 9529,
  "meringu": 9530,
  "loradora</w>": 9531,
  "dopes</w>": 9532,
  "ithan": 9533,
  "moomin": 9534,
  "desir": 9535,
  "berones</w>": 9536,
  "mitt": 9537,
  "stado</w>": 9538,
  "ela": 9539,
  "rashines": 9540,
  "scher": 9541,
  "\ud835\udc08": 9542,
  "gerasa": 9543,
  "chero</w>": 9544,
  "\ud83c\uddff": 9545,
  "restu": 9546,
  "amen</w>": 9547,
  "sher": 9548,
  "micheles": 9549,
  "estates.</w>": 9550,
  "\u0dc0": 9551,
  "gha</w>": 9552,
  "leverest</w>": 9553,
  "arado": 9554,
  "ame": 9555,
  "hasting": 9556,
  "peru": 9557,
  "radically</w>": 9558,
  "whi": 9559,
  "lingeri": 9560,
  "lon</w>": 9561,
  "ires": 9562,
  "inescou": 9563,
  "itas,</w>": 9564,
  "sat.</w>": 9565,
  "halo": 9566,
  "morali": 9567,
  "sten": 9568,
  "chatt": 9569,
  "arating</w>": 9570,
  "elar": 9571,
  "lilab": 9572,
  "romit.</w>": 9573,
  "terolo": 9574,
  "lest.</w>": 9575,
  "powering": 9576,
  "aly</w>": 9577,
  "litting": 9578,
  "tates,</w>": 9579,
  "tatan": 9580,
  "pes,</w>": 9581,
  "chestha": 9582,
  "atashi": 9583,
  "elin": 9584,
  "vitis</w>": 9585,
  "scarily</w>": 9586,
  "restan": 9587,
  "delit": 9588,
  "si'": 9589,
  "generes</w>": 9590,
  "laren</w>": 9591,
  "rever": 9592,
  "\u2618": 9593,
  "ropomor": 9594,
  "maron</w>": 9595,
  "moner": 9596,
  "forati": 9597,
  "ero": 9598,
  "omel": 9599,
  "terest</w>": 9600,
  "ore</w>": 9601,
  "tes,</w>": 9602,
  "arita": 9603,
  "hade": 9604,
  "olar": 9605,
  "tel</w>": 9606,
  "\u2013": 9607,
  "soma</w>": 9608,
  "chile</w>": 9609,
  "haco": 9610,
  "dorov": 9611,
  "desire": 9612,
  "carole</w>": 9613,
  "ricar": 9614,
  "wath": 9615,
  "melen</w>": 9616,
  "\u30c1": 9617,
  "lolol</w>": 9618,
  "\u9593": 9619,
  "iro": 9620,
  "omen</w>": 9621,
  "tasts</w>": 9622,
  "|": 9623,
  "gestan": 9624,
  "popro": 9625,
  "iline</w>": 9626,
  "asilica</w>": 9627,
  "ts</w>": 9628,
  "gerat": 9629,
  "\ud83e\uddd7": 9630,
  "washer</w>": 9631,
  "alac": 9632,
  "adaches</w>": 9633,
  "gene</w>": 9634,
  "atil</w>": 9635,
  "resham": 9636,
  "latest": 9637,
  "racon": 9638,
  "ile</w>": 9639,
  "pelat": 9640,
  "moralit": 9641,
  "arachin": 9642,
  "machines</w>": 9643,
  "adore</w>": 9644,
  "acomo</w>": 9645,
  "amoma</w>": 9646,
  "dores,</w>": 9647,
  "steve</w>": 9648,
  "sha</w>": 9649,
  "festu": 9650,
  "generate": 9651,
  "calo": 9652,
  "comin</w>": 9653,
  "tasilov": 9654,
  "ittelat": 9655,
  "resome": 9656,
  "aden": 9657,
  "\u26e9": 9658,
  "elineste": 9659,
  "neri</w>": 9660,
  "saschascar": 9661,
  "matter</w>": 9662,
  "roving</w>": 9663,
  "ased</w>": 9664,
  "lomerati": 9665,
  "perado": 9666,
  "\u270f": 9667,
  "\u2015": 9668,
  "8": 9669,
  "therese</w>": 9670,
  "chatting": 9671,
  "oow</w>": 9672,
  "ittar": 9673,
  "chaser": 9674,
  "oop": 9675,
  "aboom": 9676,
  "chand</w>": 9677,
  "thamittal</w>": 9678,
  "ador": 9679,
  "mestam": 9680,
  "machineri": 9681,
  "milar</w>": 9682,
  "\u00e9": 9683,
  "weste": 9684,
  "satilit": 9685,
  "lingen": 9686,
  "erich": 9687,
  "ach": 9688,
  "aratu": 9689,
  "ashame": 9690,
  "sesi": 9691,
  "macar": 9692,
  "mit's</w>": 9693,
  "scow</w>": 9694,
  "chichi's</w>": 9695,
  "schen</w>": 9696,
  "tes.</w>": 9697,
  "fesi": 9698,
  "eri": 9699,
  "omadic": 9700,
  "sashab": 9701,
  "estated</w>": 9702,
  "dasher": 9703,
  "lowab": 9704,
  "romin": 9705,
  ")</w>": 9706,
  "wase": 9707,
  "itama": 9708,
  "mire": 9709,
  "cat.</w>": 9710,
  "hacat": 9711,
  "perane": 9712,
  "mitates": 9713,
  "hilan": 9714,
  "0": 9715,
  "shat": 9716,
  "ttest": 9717,
  "ittin</w>": 9718,
  "ling": 9719,
  "last.</w>": 9720,
  "vineshadow</w>": 9721,
  "mascar": 9722,
  "icates,</w>": 9723,
  "alat</w>": 9724,
  "adesh": 9725,
  "lester</w>": 9726,
  "mele": 9727,
  "somele": 9728,
  "pomade": 9729,
  "shering</w>": 9730,
  "morex": 9731,
  "hara": 9732,
  "stical</w>": 9733,
  "chicor": 9734,
  "hiram</w>": 9735,
  "\ud83e\udd35": 9736,
  "sting</w>": 9737,
  "\ud83c\udff4": 9738,
  "caco": 9739,
  "ringham</w>": 9740,
  "sated</w>": 9741,
  "aricam</w>": 9742,
  "dominen": 9743,
  "\ud83c\udf0d": 9744,
  "delicately</w>": 9745,
  "racoon": 9746,
  "schin": 9747,
  "sador": 9748,
  "amarole</w>": 9749,
  "wes</w>": 9750,
  "attica": 9751,
  "sitated</w>": 9752,
  "reser": 9753,
  "ritt": 9754,
  "heloo": 9755,
  "mesh": 9756,
  "prop</w>": 9757,
  "attened</w>": 9758,
  "lenex": 9759,
  "lames</w>": 9760,
  "whites": 9761,
  "weri": 9762,
  "orex": 9763,
  "=": 9764,
  "opolitically</w>": 9765,
  "raring</w>": 9766,
  "attev": 9767,
  "tastines": 9768,
  "\u306e": 9769,
  "eshadi": 9770,
  "aralov": 9771,
  "\ud83c\uddf8": 9772,
  "ringes": 9773,
  "\u00b1": 9774,
  "tirit": 9775,
  "rasi": 9776,
  "morol": 9777,
  "ricon</w>": 9778,
  "\ud83d\udc14": 9779,
  "daloo": 9780,
  "eliner</w>": 9781,
  "arica</w>": 9782,
  "ditating": 9783,
  "sat,</w>": 9784,
  "sasha</w>": 9785,
  "itex": 9786,
  "ly</w>": 9787,
  "hirar": 9788,
  "popes": 9789,
  "oresc": 9790,
  "arala": 9791,
  "\ud83d\ude1d": 9792,
  "herald</w>": 9793,
  "thats</w>": 9794,
  "acades,</w>": 9795,
  "devir": 9796,
  "\ud83d\ude23": 9797,
  "ratt.</w>": 9798,
  "resharing</w>": 9799,
  "lata</w>": 9800,
  "del": 9801,
  "wera</w>": 9802,
  "raly</w>": 9803,
  "nestine</w>": 9804,
  "\\nevery</w>": 9805,
  "til</w>": 9806,
  "theran</w>": 9807,
  "vi</w>": 9808,
  "hashing</w>": 9809,
  "mane</w>": 9810,
  "delice</w>": 9811,
  "oran": 9812,
  "itting</w>": 9813,
  "\ud83d\ude16": 9814,
  "attachab": 9815,
  "operas</w>": 9816,
  "atti's</w>": 9817,
  "saler": 9818,
  "\ud83d\udccc": 9819,
  "belabored</w>": 9820,
  "aten</w>": 9821,
  "done": 9822,
  "machines": 9823,
  "poorer</w>": 9824,
  "boom</w>": 9825,
  "pestered</w>": 9826,
  "somaliland</w>": 9827,
  "diterane": 9828,
  "oral": 9829,
  "tilis</w>": 9830,
  "itar": 9831,
  "eroon": 9832,
  "tic": 9833,
  "carab": 9834,
  "elachat</w>": 9835,
  "rex": 9836,
  "mam": 9837,
  "elath": 9838,
  "\ud835\udc94": 9839,
  "lone</w>": 9840,
  "from</w>": 9841,
  "sico": 9842,
  "\u2726": 9843,
  "rirath": 9844,
  "colesteral": 9845,
  "chev": 9846,
  "poom": 9847,
  "pou": 9848,
  "catting</w>": 9849,
  "amore</w>": 9850,
  "hilolo": 9851,
  "\ua426": 9852,
  "labori": 9853,
  "these</w>": 9854,
  "hatta": 9855,
  "samadan": 9856,
  "latu": 9857,
  "omas.</w>": 9858,
  "cad": 9859,
  "raren": 9860,
  "estel": 9861,
  "ilow": 9862,
  "chester": 9863,
  "rari's</w>": 9864,
  "delicu": 9865,
  "olit": 9866,
  "files,</w>": 9867,
  "ritte": 9868,
  "cal</w>": 9869,
  "co</w>": 9870,
  "lasting": 9871,
  "lites</w>": 9872,
  "\u00a1": 9873,
  "aboon": 9874,
  "larat": 9875,
  "herical</w>": 9876,
  "pe": 9877,
  "stiti": 9878,
  "omi": 9879,
  "neler</w>": 9880,
  "lo</w>": 9881,
  "sten</w>": 9882,
  "rasche": 9883,
  "macaroon": 9884,
  "dicate</w>": 9885,
  "iritu": 9886,
  "amine</w>": 9887,
  "rally</w>": 9888,
  "icame": 9889,
  "oper": 9890,
  "\ud83d\udc42": 9891,
  "inghat</w>": 9892,
  "sane": 9893,
  "calil": 9894,
  "tt</w>": 9895,
  "borow": 9896,
  "dopolit": 9897,
  "vere": 9898,
  "\ufe0f": 9899,
  "dower": 9900,
  "as": 9901,
  "generating</w>": 9902,
  "sic": 9903,
  "icol</w>": 9904,
  "masador": 9905,
  "bes,</w>": 9906,
  "same</w>": 9907,
  "shac": 9908,
  "olerated</w>": 9909,
  "ratat": 9910,
  "milali": 9911,
  "for</w>": 9912,
  "athes.</w>": 9913,
  "youn": 9914,
  "lowan": 9915,
  "ratas": 9916,
  "ferer</w>": 9917,
  "loore": 9918,
  "lovero": 9919,
  "sich": 9920,
  "aras</w>": 9921,
  "moles,</w>": 9922,
  "label</w>": 9923,
  "rachel</w>": 9924,
  "\u25bc": 9925,
  "\u00b5": 9926,
  "adine</w>": 9927,
  "colico": 9928,
  "olan": 9929,
  "ghis</w>": 9930,
  "cane</w>": 9931,
  "omate</w>": 9932,
  "tica</w>": 9933,
  "\u009a": 9934,
  "halop": 9935,
  "delicou": 9936,
  "sita</w>": 9937,
  "tened</w>": 9938,
  "mastere": 9939,
  "tiro": 9940,
  "benel": 9941,
  "ounes": 9942,
  "pero": 9943,
  "ghi'": 9944,
  "esade": 9945,
  "del</w>": 9946,
  "hamene": 9947,
  "salicali</w>": 9948,
  "ma": 9949,
  "raches</w>": 9950,
  "thabe": 9951,
  "ramatu": 9952,
  "helen</w>": 9953,
  "boopou": 9954,
  "serevi": 9955,
  "amit</w>": 9956,
  "low": 9957,
  "chitis</w>": 9958,
  "orican": 9959,
  "ilan": 9960,
  "ichi</w>": 9961,
  "maradon": 9962,
  "salame</w>": 9963,
  "stalone": 9964,
  "thestu": 9965,
  "eras</w>": 9966,
  "\u3046": 9967,
  "molester": 9968,
  "iranele": 9969,
  "eler": 9970,
  "staches.</w>": 9971,
  "oraro": 9972,
  "hasti": 9973,
  "atate</w>": 9974,
  "morand</w>": 9975,
  "por": 9976,
  "poran": 9977,
  "roware</w>": 9978,
  "tesich</w>": 9979,
  "reshened</w>": 9980,
  "gelical": 9981,
  "esting</w>": 9982,
  "irasc": 9983,
  "rabu": 9984,
  "cat": 9985,
  "lever": 9986,
  "\u7532": 9987,
  "loove</w>": 9988,
  "radati": 9989,
  "gestar</w>": 9990,
  "aril": 9991,
  "lamester": 9992,
  "ami'": 9993,
  "cadero</w>": 9994,
  "chaco": 9995,
  "daraby</w>": 9996,
  "statham</w>": 9997,
  "testan": 9998,
  "sterou": 9999,
  "es.</w>": 10000,
  "olom": 10001,
  "\u30ed": 10002,
  "ooper": 10003,
  "carest": 10004,
  "dolen": 10005,
  "wadad": 10006,
  "calates</w>": 10007,
  "ashes": 10008,
  "chichen</w>": 10009,
  "ically</w>": 10010,
  "athen": 10011,
  "atan": 10012,
  "colade</w>": 10013,
  "lamore</w>": 10014,
  "mascope</w>": 10015,
  "melora</w>": 10016,
  "#": 10017,
  "nerone": 10018,
  "ichel": 10019,
  "hattab": 10020,
  "lacu": 10021,
  "donel": 10022,
  "molen": 10023,
  "alo": 10024,
  "feri": 10025,
  "han</w>": 10026,
  "rol": 10027,
  "opolo": 10028,
  "lasco</w>": 10029,
  "domu": 10030,
  "labo": 10031,
  "telescope": 10032,
  "hin": 10033,
  "arate</w>": 10034,
  "rele": 10035,
  "feren": 10036,
  "statatex": 10037,
  "somely</w>": 10038,
  "amalic": 10039,
  "roove</w>": 10040,
  "staten</w>": 10041,
  "tato</w>": 10042,
  "ra</w>": 10043,
  "dowel": 10044,
  "schelesinger": 10045,
  "hane": 10046,
  "ghen</w>": 10047,
  "charen": 10048,
  "amate": 10049,
  "\ud83d\udc4b": 10050,
  "domin": 10051,
  "schild</w>": 10052,
  "irite": 10053,
  "geling": 10054,
  "elest</w>": 10055,
  "irites</w>": 10056,
  "herit</w>": 10057,
  "coming": 10058,
  "chiri": 10059,
  "soma": 10060,
  "\u00b7": 10061,
  "walesa</w>": 10062,
  "moner</w>": 10063,
  "meral</w>": 10064,
  "wasca": 10065,
  "materi": 10066,
  "orite": 10067,
  "orice</w>": 10068,
  "adi</w>": 10069,
  "mathes": 10070,
  "t</w>": 10071,
  "rico": 10072,
  "but</w>": 10073,
  "pese": 10074,
  "ramarital</w>": 10075,
  "cooler</w>": 10076,
  "oole": 10077,
  "looper</w>": 10078,
  "amal</w>": 10079,
  "halon": 10080,
  "icu": 10081,
  "reviles,</w>": 10082,
  "raca": 10083,
  "pomen": 10084,
  "chilada": 10085,
  "alomar": 10086,
  "minel": 10087,
  "ached</w>": 10088,
  "attaching</w>": 10089,
  "poles": 10090,
  "thari</w>": 10091,
  "catal": 10092,
  "omating</w>": 10093,
  "omex": 10094,
  "caster</w>": 10095,
  "whale</w>": 10096,
  "ring</w>": 10097,
  "steral": 10098,
  "hanes</w>": 10099,
  "aches</w>": 10100,
  "romaro</w>": 10101,
  "grest</w>": 10102,
  "opolis</w>": 10103,
  "borel</w>": 10104,
  "rati</w>": 10105,
  "withing</w>": 10106,
  "catalin": 10107,
  "abero": 10108,
  "poline": 10109,
  "promi": 10110,
  "athin": 10111,
  "cach": 10112,
  "ricades,</w>": 10113,
  "romaron</w>": 10114,
  "samu": 10115,
  "tires.</w>": 10116,
  "\u0630": 10117,
  "wesomely</w>": 10118,
  "amasad": 10119,
  "\u2709": 10120,
  "\\nelon</w>": 10121,
  "merit": 10122,
  "fore": 10123,
  "samar</w>": 10124,
  "rase": 10125,
  "catherine</w>": 10126,
  "thal</w>": 10127,
  "itterati</w>": 10128,
  "ater</w>": 10129,
  "whitela": 10130,
  "povich</w>": 10131,
  "carole": 10132,
  "colades.</w>": 10133,
  "mescalero": 10134,
  "itinerar": 10135,
  "shas,</w>": 10136,
  "nene": 10137,
  "ramu": 10138,
  "tted</w>": 10139,
  "riches,</w>": 10140,
  "dat.</w>": 10141,
  "stace</w>": 10142,
  "omico</w>": 10143,
  "alar</w>": 10144,
  "adaman": 10145,
  "stir": 10146,
  "alamata</w>": 10147,
  "larene": 10148,
  "gerich": 10149,
  "sit</w>": 10150,
  "rolatu": 10151,
  "coverab": 10152,
  "caricatu": 10153,
  "rout</w>": 10154,
  "pevine</w>": 10155,
  "alite": 10156,
  "alat": 10157,
  "loli": 10158,
  "\ud83d\ude1e": 10159,
  "tilov": 10160,
  "aracu": 10161,
  "colera": 10162,
  "itunes,</w>": 10163,
  "waste": 10164,
  "stache</w>": 10165,
  "bolone": 10166,
  "bera</w>": 10167,
  "ding": 10168,
  "latin</w>": 10169,
  "om": 10170,
  "abu": 10171,
  "lis</w>": 10172,
  "amene": 10173,
  "silico": 10174,
  "boo": 10175,
  "cast.</w>": 10176,
  "lately</w>": 10177,
  "ilored</w>": 10178,
  "renel": 10179,
  "\u062c": 10180,
  "amira": 10181,
  "laborating</w>": 10182,
  "operates.</w>": 10183,
  "miche": 10184,
  "rading": 10185,
  "\u0db1": 10186,
  "tteric": 10187,
  "silica</w>": 10188,
  "sarabe": 10189,
  "tamine</w>": 10190,
  "hachi": 10191,
  "atiti": 10192,
  "dane": 10193,
  "mirasu": 10194,
  "matas,</w>": 10195,
  "whatever</w>": 10196,
  "aromas.</w>": 10197,
  "lamou": 10198,
  "caro": 10199,
  "lateral": 10200,
  "re": 10201,
  "colin</w>": 10202,
  "mex": 10203,
  "colored</w>": 10204,
  "tarac": 10205,
  "tilate</w>": 10206,
  "borin</w>": 10207,
  "mesc": 10208,
  "tico": 10209,
  "tamir": 10210,
  "aral": 10211,
  "aloran": 10212,
  "\ud83d\ude20": 10213,
  "cad.</w>": 10214,
  "merin": 10215,
  "dicon": 10216,
  "ricacu": 10217,
  "general</w>": 10218,
  "ratt": 10219,
  "lin": 10220,
  "thasar</w>": 10221,
  "destine": 10222,
  "nele": 10223,
  "\u5fb7": 10224,
  "iterac": 10225,
  "poned</w>": 10226,
  "dan": 10227,
  "tamest</w>": 10228,
  "aden</w>": 10229,
  "liches</w>": 10230,
  "roome</w>": 10231,
  "salad,</w>": 10232,
  "rer</w>": 10233,
  "lacon": 10234,
  "sachar</w>": 10235,
  "derico</w>": 10236,
  "stering": 10237,
  "besc": 10238,
  "filer": 10239,
  "miri</w>": 10240,
  "stile": 10241,
  "\ud83d\uded6": 10242,
  "ramada</w>": 10243,
  "wanes</w>": 10244,
  "tabou": 10245,
  "mastering": 10246,
  "stach": 10247,
  "bowed</w>": 10248,
  "oriti": 10249,
  "romit</w>": 10250,
  "mites": 10251,
  "calito</w>": 10252,
  "selor": 10253,
  "coner</w>": 10254,
  "militu": 10255,
  "rari": 10256,
  "colas,</w>": 10257,
  "ashan": 10258,
  "amer</w>": 10259,
  "ladeshi</w>": 10260,
  "radine</w>": 10261,
  "han": 10262,
  "berately</w>": 10263,
  "lasted</w>": 10264,
  "viral</w>": 10265,
  "mas": 10266,
  "\u00ac": 10267,
  "attal</w>": 10268,
  "hamabo": 10269,
  "olilo": 10270,
  "ropro": 10271,
  "lenes": 10272,
  "\ud83d\udc96": 10273,
  "masamune</w>": 10274,
  "iring": 10275,
  "ori's</w>": 10276,
  "labed</w>": 10277,
  "tesely</w>": 10278,
  "filar": 10279,
  "wering": 10280,
  "coloran": 10281,
  "vering": 10282,
  "achi</w>": 10283,
  "overing": 10284,
  "dola</w>": 10285,
  "amorata": 10286,
  "sates</w>": 10287,
  "scoverer": 10288,
  "ilove</w>": 10289,
  "cam</w>": 10290,
  "asac": 10291,
  "starical": 10292,
  "domen": 10293,
  "ev": 10294,
  "olas,</w>": 10295,
  "stadas</w>": 10296,
  "dicate": 10297,
  "\ud83d\udc83": 10298,
  "gheriti</w>": 10299,
  "terically</w>": 10300,
  "\u00ef": 10301,
  "coon</w>": 10302,
  "arol": 10303,
  "\ua669": 10304,
  ".</w>": 10305,
  "ashamed</w>": 10306,
  "testamen": 10307,
  "mover": 10308,
  "lile": 10309,
  "estel</w>": 10310,
  "wesi": 10311,
  "provi": 10312,
  "riching</w>": 10313,
  "prover": 10314,
  "verily</w>": 10315,
  "generac": 10316,
  "selinger": 10317,
  "cashe": 10318,
  "elate": 10319,
  "scovered</w>": 10320,
  "atamar": 10321,
  "amadi": 10322,
  "\ud83d\udc85": 10323,
  "chal": 10324,
  "doras,</w>": 10325,
  "rilo</w>": 10326,
  "cowas</w>": 10327,
  "ticab": 10328,
  "pron": 10329,
  "acado": 10330,
  "atas,</w>": 10331,
  "shashi</w>": 10332,
  "lache</w>": 10333,
  "roomer</w>": 10334,
  "anero": 10335,
  "shattere": 10336,
  "whati</w>": 10337,
  "arasi": 10338,
  "ama": 10339,
  "scoun": 10340,
  "alone": 10341,
  "erine": 10342,
  "shev": 10343,
  "olomon</w>": 10344,
  "scola": 10345,
  "masti": 10346,
  "\udb40\udc6e": 10347,
  "doren</w>": 10348,
  "relev": 10349,
  "dasha": 10350,
  "sica": 10351,
  "theshi": 10352,
  "esel": 10353,
  "wesa": 10354,
  "coladas</w>": 10355,
  "gher": 10356,
  "vero</w>": 10357,
  "polon": 10358,
  "chatti": 10359,
  "gelen": 10360,
  "berer</w>": 10361,
  "tarot</w>": 10362,
  "funerar": 10363,
  "relane</w>": 10364,
  "ilati": 10365,
  "schar": 10366,
  "lases</w>": 10367,
  "\u0dad": 10368,
  "\ud83e\udd78": 10369,
  "omeste": 10370,
  "dope</w>": 10371,
  "can't</w>": 10372,
  "oracov": 10373,
  "verit": 10374,
  "fes,</w>": 10375,
  "eren</w>": 10376,
  "calen": 10377,
  "las.</w>": 10378,
  "lamest,</w>": 10379,
  "chariti": 10380,
  "\ud83e\udd20": 10381,
  "mamac": 10382,
  "belon": 10383,
  "overa": 10384,
  "terun": 10385,
  "festing</w>": 10386,
  "mone": 10387,
  "romero</w>": 10388,
  "\ud83d\udc3b": 10389,
  "stir</w>": 10390,
  "ramati": 10391,
  "merac": 10392,
  "tti</w>": 10393,
  "severiti": 10394,
  "lasher": 10395,
  "licorace</w>": 10396,
  "\ud835\udc1e": 10397,
  "stering</w>": 10398,
  "atham": 10399,
  "powerade</w>": 10400,
  "looring</w>": 10401,
  "terated</w>": 10402,
  "devito</w>": 10403,
  "halal</w>": 10404,
  "silati": 10405,
  "malade</w>": 10406,
  "scale": 10407,
  "grel</w>": 10408,
  "roop</w>": 10409,
  "\u00a3": 10410,
  "olene</w>": 10411,
  "testines.</w>": 10412,
  "geri</w>": 10413,
  "moving": 10414,
  "dicati": 10415,
  "geles": 10416,
  "\ud83d\udd0e": 10417,
  "about</w>": 10418,
  "viron": 10419,
  "rero</w>": 10420,
  "shaber</w>": 10421,
  "raman</w>": 10422,
  "cado": 10423,
  "ferel": 10424,
  "doolitt": 10425,
  "ad": 10426,
  "</w>": 10427,
  "loot</w>": 10428,
  "catered</w>": 10429,
  "serole": 10430,
  "porating</w>": 10431,
  "eliti": 10432,
  "tinela</w>": 10433,
  "bo": 10434,
  "cool": 10435,
  "omar</w>": 10436,
  "scolar": 10437,
  "stare</w>": 10438,
  "tham</w>": 10439,
  "can": 10440,
  "elo</w>": 10441,
  "ooling</w>": 10442,
  "adesi": 10443,
  "tin</w>": 10444,
  "asthan": 10445,
  "tath": 10446,
[...]
