{
  "flanner</w>": 0,
  "ranti</w>": 1,
  "itherits</w>": 2,
  "staph</w>": 3,
  "chantiger</w>": 4,
  "twolo": 5,
  "shoreman</w>": 6,
  "labelits</w>": 7,
  "madele": 8,
  "ghouse</w>": 9,
  "clampet": 10,
  "asanos</w>": 11,
  "minas</w>": 12,
  "gamerabr</w>": 13,
  "katele": 14,
  "claw</w>": 15,
  "disapointment</w>": 16,
  "linage</w>": 17,
  "dinade</w>": 18,
  "ageugly</w>": 19,
  "mimis</w>": 20,
  "cig": 21,
  "hased</w>": 22,
  "sass</w>": 23,
  "etw": 24,
  "freelybr</w>": 25,
  "tension</w>": 26,
  "henna</w>": 27,
  "underestimating</w>": 28,
  "communnity</w>": 29,
  "alengineers</w>": 30,
  "fanseither</w>": 31,
  "sudeten": 32,
  "openai": 33,
  "senges</w>": 34,
  "iti</w>": 35,
  "posemotiv": 36,
  "salome</w>": 37,
  "tritons</w>": 38,
  "culatedbr</w>": 39,
  "lused</w>": 40,
  "diction</w>": 41,
  "shaped": 42,
  "dower</w>": 43,
  "experien": 44,
  "allan</w>": 45,
  "acking</w>": 46,
  "meena</w>": 47,
  "endedi</w>": 48,
  "oneseason</w>": 49,
  "drive</w>": 50,
  "denda</w>": 51,
  "firi</w>": 52,
  "alintele": 53,
  "saks</w>": 54,
  "stedout</w>": 55,
  "rashomon</w>": 56,
  "shache</w>": 57,
  "pored</w>": 58,
  "night": 59,
  "noveli</w>": 60,
  "warethese</w>": 61,
  "ritero": 62,
  "ledel</w>": 63,
  "gascoffee": 64,
  "brow</w>": 65,
  "aviera</w>": 66,
  "castoff</w>": 67,
  "vola</w>": 68,
  "ferals</w>": 69,
  "haal</w>": 70,
  "melon": 71,
  "escapade</w>": 72,
  "belu": 73,
  "hardyesque</w>": 74,
  "fetale</w>": 75,
  "en</w>": 76,
  "script</w>": 77,
  "peers</w>": 78,
  "shallow": 79,
  "ilin": 80,
  "laced": 81,
  "classicists</w>": 82,
  "nool": 83,
  "he": 84,
  "casted": 85,
  "vicit": 86,
  "playedbr</w>": 87,
  "tesquire</w>": 88,
  "ambidex": 89,
  "shater</w>": 90,
  "hereshe</w>": 91,
  "smon": 92,
  "romanticerotic</w>": 93,
  "honouring</w>": 94,
  "facenn": 95,
  "atest</w>": 96,
  "careerand</w>": 97,
  "colletes</w>": 98,
  "neeless</w>": 99,
  "dofapic": 100,
  "atwoods</w>": 101,
  "onewe</w>": 102,
  "urosome</w>": 103,
  "kareem</w>": 104,
  "rascis": 105,
  "bred": 106,
  "eesh": 107,
  "streeter</w>": 108,
  "disappointedbr</w>": 109,
  "samba": 110,
  "blackie</w>": 111,
  "buty": 112,
  "aceni": 113,
  "pennelope</w>": 114,
  "witha": 115,
  "tureschool</w>": 116,
  "fainting</w>": 117,
  "crappiness</w>": 118,
  "sammans</w>": 119,
  "heli</w>": 120,
  "lope</w>": 121,
  "refresher</w>": 122,
  "unusu": 123,
  "scooper</w>": 124,
  "nonever</w>": 125,
  "cive</w>": 126,
  "poffi</w>": 127,
  "shonna</w>": 128,
  "witha</w>": 129,
  "anuts</w>": 130,
  "thishaha</w>": 131,
  "bban</w>": 132,
  "chairi</w>": 133,
  "menot": 134,
  "cereness</w>": 135,
  "shade": 136,
  "linesthese</w>": 137,
  "sans": 138,
  "tweeness</w>": 139,
  "ladvised</w>": 140,
  "samu": 141,
  "hans</w>": 142,
  "beef": 143,
  "ffaws</w>": 144,
  "howess</w>": 145,
  "whati</w>": 146,
  "spalls</w>": 147,
  "kangarooloving</w>": 148,
  "cilici": 149,
  "aimed</w>": 150,
  "wholesale</w>": 151,
  "zilard</w>": 152,
  "computerise</w>": 153,
  "screeners</w>": 154,
  "mendo": 155,
  "pesand</w>": 156,
  "scapes</w>": 157,
  "flak</w>": 158,
  "doescooking</w>": 159,
  "rosary</w>": 160,
  "mbent</w>": 161,
  "tastethis</w>": 162,
  "brommel": 163,
  "allyend</w>": 164,
  "campi</w>": 165,
  "racer": 166,
  "baitan": 167,
  "saski": 168,
  "ronome</w>": 169,
  "obannons</w>": 170,
  "sinessit</w>": 171,
  "goretrash</w>": 172,
  "barethis</w>": 173,
  "holis": 174,
  "whow": 175,
  "nilai</w>": 176,
  "cesees</w>": 177,
  "pilots</w>": 178,
  "tashalu": 179,
  "clairedy": 180,
  "nita</w>": 181,
  "samp": 182,
  "eliminates</w>": 183,
  "saints</w>": 184,
  "isplayer</w>": 185,
  "telac": 186,
  "spitality</w>": 187,
  "lacebr</w>": 188,
  "doran": 189,
  "abus</w>": 190,
  "lophone</w>": 191,
  "awesomelife</w>": 192,
  "spinal</w>": 193,
  "acra": 194,
  "atmosp": 195,
  "comment</w>": 196,
  "zimbisunu": 197,
  "akisan</w>": 198,
  "molester": 199,
  "darethey</w>": 200,
  "anetit": 201,
  "sumatranall</w>": 202,
  "facethat</w>": 203,
  "toonot</w>": 204,
  "sive</w>": 205,
  "vestors</w>": 206,
  "itys</w>": 207,
  "homespend</w>": 208,
  "destitute": 209,
  "cisely</w>": 210,
  "deft</w>": 211,
  "eviscerations</w>": 212,
  "sulated</w>": 213,
  "animalloving</w>": 214,
  "bavier</w>": 215,
  "realist</w>": 216,
  "tonut": 217,
  "heston": 218,
  "gapore</w>": 219,
  "karoun": 220,
  "mawhen</w>": 221,
  "scaraffili": 222,
  "treason</w>": 223,
  "ffoni</w>": 224,
  "ckerabrams</w>": 225,
  "reread</w>": 226,
  "isabela</w>": 227,
  "netin": 228,
  "getaways</w>": 229,
  "tremefor</w>": 230,
  "aim": 231,
  "filmboth</w>": 232,
  "wasted": 233,
  "squisito</w>": 234,
  "ligin": 235,
  "hisic": 236,
  "lathans</w>": 237,
  "mixin</w>": 238,
  "gaming</w>": 239,
  "paten": 240,
  "leered</w>": 241,
  "collec": 242,
  "amoli</w>": 243,
  "aigenerated</w>": 244,
  "tashi</w>": 245,
  "heroo</w>": 246,
  "come": 247,
  "sche</w>": 248,
  "freefall</w>": 249,
  "nnalways</w>": 250,
  "satan": 251,
  "aishor": 252,
  "abouti</w>": 253,
  "bloom": 254,
  "molester</w>": 255,
  "lemon</w>": 256,
  "mackinnon": 257,
  "grapenuts</w>": 258,
  "americans</w>": 259,
  "manilow</w>": 260,
  "tinel": 261,
  "leesa</w>": 262,
  "rocaire": 263,
  "colation</w>": 264,
  "tonet": 265,
  "kannathil</w>": 266,
  "jala</w>": 267,
  "pit": 268,
  "redown": 269,
  "spouse</w>": 270,
  "veenu</w>": 271,
  "fennie</w>": 272,
  "dating</w>": 273,
  "gof</w>": 274,
  "saga</w>": 275,
  "raderie</w>": 276,
  "mistre": 277,
  "queda": 278,
  "staran": 279,
  "vocalist</w>": 280,
  "gist</w>": 281,
  "lethese</w>": 282,
  "sagethen</w>": 283,
  "nabr</w>": 284,
  "gretis</w>": 285,
  "mennard</w>": 286,
  "openainnif</w>": 287,
  "imo</w>": 288,
  "minigenre</w>": 289,
  "trouper</w>": 290,
  "radar": 291,
  "achhut</w>": 292,
  "kastor</w>": 293,
  "lesongs</w>": 294,
  "nakey</w>": 295,
  "mirasuper": 296,
  "descas</w>": 297,
  "fidi": 298,
  "fal": 299,
  "cherera</w>": 300,
  "vesity</w>": 301,
  "michiganand</w>": 302,
  "salutary</w>": 303,
  "honou": 304,
  "mut</w>": 305,
  "licken</w>": 306,
  "datafam</w>": 307,
  "bil": 308,
  "despairable</w>": 309,
  "sonnideas</w>": 310,
  "revolution</w>": 311,
  "gacy": 312,
  "dameunited</w>": 313,
  "douse</w>": 314,
  "notice": 315,
  "stices</w>": 316,
  "gotri": 317,
  "ine": 318,
  "ide</w>": 319,
  "party": 320,
  "datann</w>": 321,
  "twisters</w>": 322,
  "mascript</w>": 323,
  "mane</w>": 324,
  "machinelike</w>": 325,
  "sabbato</w>": 326,
  "hallens</w>": 327,
  "outright</w>": 328,
  "tiginously</w>": 329,
  "saken</w>": 330,
  "acolored</w>": 331,
  "foray</w>": 332,
  "opatra</w>": 333,
  "cels</w>": 334,
  "thod": 335,
  "rals</w>": 336,
  "nnoften</w>": 337,
  "gov</w>": 338,
  "iru": 339,
  "wheedon</w>": 340,
  "vestris</w>": 341,
  "bation</w>": 342,
  "ronn": 343,
  "onatraininafor": 344,
  "foureye</w>": 345,
  "arrid</w>": 346,
  "adrenalin</w>": 347,
  "acocks</w>": 348,
  "covetous</w>": 349,
  "tay</w>": 350,
  "deservedly</w>": 351,
  "diffring</w>": 352,
  "tically</w>": 353,
  "bunny</w>": 354,
  "alonly</w>": 355,
  "lelefev": 356,
  "seness</w>": 357,
  "felicities</w>": 358,
  "twhir": 359,
  "dramaromance</w>": 360,
  "sence</w>": 361,
  "professions</w>": 362,
  "kabaree</w>": 363,
  "maintain</w>": 364,
  "gravity</w>": 365,
  "strils</w>": 366,
  "timeespecially</w>": 367,
  "tovide": 368,
  "climbers</w>": 369,
  "ameri</w>": 370,
  "withal</w>": 371,
  "bagand</w>": 372,
  "sint</w>": 373,
  "ansles</w>": 374,
  "mabe": 375,
  "deasy</w>": 376,
  "chocolates": 377,
  "tinned</w>": 378,
  "medbr</w>": 379,
  "vocally</w>": 380,
  "chinatown</w>": 381,
  "gici": 382,
  "rambo": 383,
  "stagram</w>": 384,
  "placelived</w>": 385,
  "friendof": 386,
  "loomisbr</w>": 387,
  "referend</w>": 388,
  "postatomic</w>": 389,
  "syup": 390,
  "spart</w>": 391,
  "gorgeous</w>": 392,
  "farisit</w>": 393,
  "keefe</w>": 394,
  "bom": 395,
  "mavens</w>": 396,
  "sure</w>": 397,
  "awhite</w>": 398,
  "sufice</w>": 399,
  "lade</w>": 400,
  "cinevista</w>": 401,
  "bakerys</w>": 402,
  "saalista": 403,
  "durability</w>": 404,
  "wannabelovers</w>": 405,
  "shute</w>": 406,
  "mexicanamerican</w>": 407,
  "atampt</w>": 408,
  "esangel</w>": 409,
  "fups</w>": 410,
  "asedits</w>": 411,
  "ani": 412,
  "pierence</w>": 413,
  "summoned</w>": 414,
  "streeting</w>": 415,
  "buthis</w>": 416,
  "henomenon</w>": 417,
  "hatically</w>": 418,
  "cocos</w>": 419,
  "outoverall</w>": 420,
  "sigh": 421,
  "impairedbr</w>": 422,
  "pointand</w>": 423,
  "slen</w>": 424,
  "leapp</w>": 425,
  "kevet": 426,
  "berevil</w>": 427,
  "velope": 428,
  "honori": 429,
  "belots</w>": 430,
  "recom</w>": 431,
  "wimmen</w>": 432,
  "tovery</w>": 433,
  "ampampamp</w>": 434,
  "fours</w>": 435,
  "clamoring</w>": 436,
  "againno</w>": 437,
  "isi</w>": 438,
  "galloping</w>": 439,
  "lesint": 440,
  "macafee</w>": 441,
  "richeven</w>": 442,
  "bilo": 443,
  "dinilai</w>": 444,
  "gamedev</w>": 445,
  "lacing</w>": 446,
  "ary</w>": 447,
  "operated</w>": 448,
  "allyequi": 449,
  "sumes</w>": 450,
  "whilethen</w>": 451,
  "king</w>": 452,
  "gaard</w>": 453,
  "instel": 454,
  "gover": 455,
  "greev": 456,
  "kenney</w>": 457,
  "dalailama</w>": 458,
  "correspon": 459,
  "americaa": 460,
  "pithard</w>": 461,
  "zetit": 462,
  "leather": 463,
  "nowit</w>": 464,
  "shoveling</w>": 465,
  "unexciting</w>": 466,
  "weak</w>": 467,
  "manarmy</w>": 468,
  "futuristic": 469,
  "chaul": 470,
  "youthis</w>": 471,
  "hishi": 472,
  "apre</w>": 473,
  "gravies</w>": 474,
  "cale</w>": 475,
  "itista</w>": 476,
  "coneer</w>": 477,
  "gic</w>": 478,
  "anaka</w>": 479,
  "mcaffee</w>": 480,
  "posures</w>": 481,
  "amateurartist</w>": 482,
  "britybr</w>": 483,
  "surers</w>": 484,
  "taged</w>": 485,
  "dalek</w>": 486,
  "remar</w>": 487,
  "nairat": 488,
  "eling</w>": 489,
  "ryes</w>": 490,
  "amazed</w>": 491,
  "populist</w>": 492,
  "wasteem</w>": 493,
  "kaler": 494,
  "yeloca</w>": 495,
  "hider</w>": 496,
  "eshe</w>": 497,
  "taan": 498,
  "ritereditor</w>": 499,
  "ref</w>": 500,
  "olet</w>": 501,
  "hilarious</w>": 502,
  "nnove": 503,
  "dava": 504,
  "sheenits</w>": 505,
  "esph</w>": 506,
  "barin": 507,
  "called": 508,
  "perishi": 509,
  "hofu</w>": 510,
  "flabbily</w>": 511,
  "hennes": 512,
  "homily</w>": 513,
  "nonopened</w>": 514,
  "plopped</w>": 515,
  "posthuman</w>": 516,
  "tralo": 517,
  "whale</w>": 518,
  "nomineesbr</w>": 519,
  "fenns</w>": 520,
  "agendavendet": 521,
  "itali": 522,
  "madabout": 523,
  "bacore</w>": 524,
  "panagho": 525,
  "sitaand</w>": 526,
  "matar": 527,
  "finnish</w>": 528,
  "gum</w>": 529,
  "clasping</w>": 530,
  "phoo</w>": 531,
  "festonn": 532,
  "lainestyle</w>": 533,
  "whimper": 534,
  "depu": 535,
  "lecharming</w>": 536,
  "lach": 537,
  "terane": 538,
  "amasan</w>": 539,
  "thengirlfriend</w>": 540,
  "parte</w>": 541,
  "boxi</w>": 542,
  "esplus</w>": 543,
  "meditation": 544,
  "deniss</w>": 545,
  "gears</w>": 546,
  "simulacra</w>": 547,
  "scaryex": 548,
  "ds</w>": 549,
  "sickened</w>": 550,
  "bowelev": 551,
  "eleanore</w>": 552,
  "ninefigure": 553,
  "laboratively</w>": 554,
  "americanness</w>": 555,
  "fascinating</w>": 556,
  "precoci": 557,
  "jacki": 558,
  "whitelatino</w>": 559,
  "malu": 560,
  "cathering</w>": 561,
  "sery</w>": 562,
  "romcomic</w>": 563,
  "bodil</w>": 564,
  "sedalong</w>": 565,
  "kaisers</w>": 566,
  "ffees</w>": 567,
  "winnow</w>": 568,
  "hackin": 569,
  "titesbr</w>": 570,
  "awhileespecially</w>": 571,
  "facebr</w>": 572,
  "aidevelopment</w>": 573,
  "thes</w>": 574,
  "oorin": 575,
  "shakalaka</w>": 576,
  "contrite</w>": 577,
  "apropos</w>": 578,
  "madrigal</w>": 579,
  "frige</w>": 580,
  "bedour</w>": 581,
  "nonoriginal</w>": 582,
  "wannabees": 583,
  "siste": 584,
  "cabaret": 585,
  "lication</w>": 586,
  "lisaannewest</w>": 587,
  "inen</w>": 588,
  "raway</w>": 589,
  "castelo</w>": 590,
  "topor</w>": 591,
  "orangutans</w>": 592,
  "beelineru</w>": 593,
  "compared": 594,
  "schaffer</w>": 595,
  "theny</w>": 596,
  "sauropod": 597,
  "outram</w>": 598,
  "reat</w>": 599,
  "mesopo": 600,
  "stands</w>": 601,
  "dombr</w>": 602,
  "explanation</w>": 603,
  "catalun": 604,
  "seever</w>": 605,
  "adif</w>": 606,
  "nonarab</w>": 607,
  "acamole</w>": 608,
  "itupas": 609,
  "arages</w>": 610,
  "stickamcom</w>": 611,
  "graws</w>": 612,
  "renard</w>": 613,
  "chimpan": 614,
  "rosity</w>": 615,
  "desiredbr</w>": 616,
  "obelis": 617,
  "avakum</w>": 618,
  "boya</w>": 619,
  "realisticuntil</w>": 620,
  "turestre": 621,
  "melani": 622,
  "stopic</w>": 623,
  "masaservice</w>": 624,
  "lamours</w>": 625,
  "zespee": 626,
  "whe": 627,
  "jo</w>": 628,
  "botai</w>": 629,
  "spirationbr</w>": 630,
  "enna</w>": 631,
  "dagent</w>": 632,
  "sedragon": 633,
  "genit</w>": 634,
  "letastes</w>": 635,
  "opolitan</w>": 636,
  "rach": 637,
  "bagethinking</w>": 638,
  "chin": 639,
  "ilerish": 640,
  "atere": 641,
  "moviesexcellent</w>": 642,
  "iner</w>": 643,
  "lauras</w>": 644,
  "ranos</w>": 645,
  "contraver": 646,
  "raspinall</w>": 647,
  "curatennu": 648,
  "schell</w>": 649,
  "sailin": 650,
  "spatrici": 651,
  "sesc</w>": 652,
  "balot</w>": 653,
  "leefully</w>": 654,
  "geeven</w>": 655,
  "nambulists</w>": 656,
  "cape": 657,
  "aboutwell</w>": 658,
  "splendi": 659,
  "ker": 660,
  "fitbr</w>": 661,
  "shanewat": 662,
  "stocked</w>": 663,
  "satirising</w>": 664,
  "dore": 665,
  "whited</w>": 666,
  "impart</w>": 667,
  "gear</w>": 668,
  "spec": 669,
  "akin</w>": 670,
  "dage</w>": 671,
  "immutable</w>": 672,
  "befo": 673,
  "anatomical</w>": 674,
  "lame</w>": 675,
  "phonequot</w>": 676,
  "spangly</w>": 677,
  "lever": 678,
  "lagh</w>": 679,
  "newon": 680,
  "donewoo</w>": 681,
  "placin": 682,
  "toscar</w>": 683,
  "unimpe": 684,
  "sonare</w>": 685,
  "indirection</w>": 686,
  "scened</w>": 687,
  "copy</w>": 688,
  "sonist</w>": 689,
  "aspoons</w>": 690,
  "culated</w>": 691,
  "medal": 692,
  "gorised</w>": 693,
  "hofeus</w>": 694,
  "botanical</w>": 695,
  "era</w>": 696,
  "seted</w>": 697,
  "mulelike</w>": 698,
  "inau": 699,
  "batistabombbr</w>": 700,
  "moro</w>": 701,
  "stract</w>": 702,
  "alasi</w>": 703,
  "linnocence</w>": 704,
  "mansand</w>": 705,
  "mmen": 706,
  "colada</w>": 707,
  "disappeared": 708,
  "crappier</w>": 709,
  "complacent</w>": 710,
  "ckanywhere</w>": 711,
  "caress</w>": 712,
  "malestar": 713,
  "daccep": 714,
  "cremating</w>": 715,
  "samusing</w>": 716,
  "tailor</w>": 717,
  "broceli": 718,
  "sou": 719,
  "affor": 720,
  "box": 721,
  "impati": 722,
  "brevil": 723,
  "molinanaschy</w>": 724,
  "tionai": 725,
  "discout</w>": 726,
  "ceted</w>": 727,
  "till</w>": 728,
  "medv": 729,
  "lags</w>": 730,
  "oolanders</w>": 731,
  "stress</w>": 732,
  "gabbed</w>": 733,
  "younnev": 734,
  "britain</w>": 735,
  "momyou</w>": 736,
  "dracu": 737,
  "favorif</w>": 738,
  "venole</w>": 739,
  "nasawebb": 740,
  "stonelike</w>": 741,
  "beau": 742,
  "nabout": 743,
  "westies</w>": 744,
  "wantin": 745,
  "ii</w>": 746,
  "borosilicate</w>": 747,
  "yoon</w>": 748,
  "lefed</w>": 749,
  "ghacks</w>": 750,
  "leany</w>": 751,
  "popeye</w>": 752,
  "own</w>": 753,
  "naun": 754,
  "generationn</w>": 755,
  "graa</w>": 756,
  "ur</w>": 757,
  "scolo": 758,
  "unafraid</w>": 759,
  "orator</w>": 760,
  "amour": 761,
  "taviolent</w>": 762,
  "nobbish": 763,
  "claudines</w>": 764,
  "bilant</w>": 765,
  "lanelane</w>": 766,
  "christens</w>": 767,
  "jenny</w>": 768,
  "homescreen</w>": 769,
  "weary</w>": 770,
  "sufficedbr</w>": 771,
  "seque": 772,
  "lairangela</w>": 773,
  "habet": 774,
  "dorado</w>": 775,
  "cutish</w>": 776,
  "smocan</w>": 777,
  "nnoff": 778,
  "nicki</w>": 779,
  "pallets</w>": 780,
  "batouch</w>": 781,
  "oneshe</w>": 782,
  "weethope</w>": 783,
  "takarada</w>": 784,
  "anindian</w>": 785,
  "winel": 786,
  "paura</w>": 787,
  "cher</w>": 788,
  "scrum</w>": 789,
  "minu": 790,
  "shitting</w>": 791,
  "ratatou": 792,
  "tris": 793,
  "pomagranet</w>": 794,
  "lood</w>": 795,
  "lists</w>": 796,
  "levision</w>": 797,
  "advisedly</w>": 798,
  "lyonce</w>": 799,
  "alamos</w>": 800,
  "grenadines</w>": 801,
  "spiralling</w>": 802,
  "kex": 803,
  "gomago</w>": 804,
  "fifantasy</w>": 805,
  "refree": 806,
  "kinno": 807,
  "roponic</w>": 808,
  "steris</w>": 809,
  "clockistickin": 810,
  "latestar": 811,
  "dengerin</w>": 812,
  "torilybr</w>": 813,
  "sashok</w>": 814,
  "fedifin": 815,
  "tanovic": 816,
  "am</w>": 817,
  "jude": 818,
  "lof": 819,
  "kapadi": 820,
  "romadv": 821,
  "befit</w>": 822,
  "itive": 823,
  "lobal</w>": 824,
  "mintworld</w>": 825,
  "dof</w>": 826,
  "finace</w>": 827,
  "flavours</w>": 828,
  "noninvolving</w>": 829,
  "skil": 830,
  "torate</w>": 831,
  "een": 832,
  "tunely</w>": 833,
  "heric": 834,
  "flaunt</w>": 835,
  "wetter</w>": 836,
  "dite</w>": 837,
  "evocatively</w>": 838,
  "hooves</w>": 839,
  "acute</w>": 840,
  "braid</w>": 841,
  "sumated</w>": 842,
  "paulo</w>": 843,
  "gorys</w>": 844,
  "relate</w>": 845,
  "toobad": 846,
  "moviesor</w>": 847,
  "gacting</w>": 848,
  "thete": 849,
  "bbishy</w>": 850,
  "intonations</w>": 851,
  "writer</w>": 852,
  "openais": 853,
  "leremoval</w>": 854,
  "immer": 855,
  "batted</w>": 856,
  "convenant</w>": 857,
  "goreme": 858,
  "nnt</w>": 859,
  "skin</w>": 860,
  "feelig</w>": 861,
  "dabsolutely</w>": 862,
  "ataunt</w>": 863,
  "normally</w>": 864,
  "asceticis": 865,
  "tabus</w>": 866,
  "kareshaan": 867,
  "kelow": 868,
  "isic</w>": 869,
  "maturing</w>": 870,
  "miles": 871,
  "lyonne</w>": 872,
  "detail": 873,
  "bavas</w>": 874,
  "ch</w>": 875,
  "bethofall": 876,
  "traveler": 877,
  "lineso</w>": 878,
  "juns</w>": 879,
  "gences</w>": 880,
  "pareed": 881,
  "cially</w>": 882,
  "lendie</w>": 883,
  "entereth</w>": 884,
  "paganis": 885,
  "walley</w>": 886,
  "sirop</w>": 887,
  "spicu": 888,
  "fethis</w>": 889,
  "lithe</w>": 890,
  "itwhich</w>": 891,
  "lupin</w>": 892,
  "heretheyre</w>": 893,
  "suff": 894,
  "gratulated</w>": 895,
  "imagerybr</w>": 896,
  "oracle</w>": 897,
  "cabbie</w>": 898,
  "recoverable</w>": 899,
  "bu</w>": 900,
  "david</w>": 901,
  "etor": 902,
  "jango</w>": 903,
  "malen</w>": 904,
  "shii</w>": 905,
  "les": 906,
  "ledu": 907,
  "rouping</w>": 908,
  "mmai</w>": 909,
  "prosky</w>": 910,
  "kishorange</w>": 911,
  "lauries</w>": 912,
  "allybr</w>": 913,
  "fobi": 914,
  "lessince</w>": 915,
  "nominations</w>": 916,
  "bise</w>": 917,
  "casamajor</w>": 918,
  "tach</w>": 919,
  "benefices</w>": 920,
  "freerange</w>": 921,
  "goodatheart</w>": 922,
  "apening</w>": 923,
  "keven</w>": 924,
  "lowi</w>": 925,
  "assists</w>": 926,
  "chicagodinner</w>": 927,
  "traditionally</w>": 928,
  "yenge</w>": 929,
  "monamy": 930,
  "parag": 931,
  "sevs</w>": 932,
  "avi</w>": 933,
  "chico</w>": 934,
  "brophy</w>": 935,
  "nigel": 936,
  "stateless</w>": 937,
  "dagon</w>": 938,
  "verold</w>": 939,
  "gelybr</w>": 940,
  "toret": 941,
  "alite</w>": 942,
  "sickand</w>": 943,
  "mah</w>": 944,
  "onour</w>": 945,
  "neus</w>": 946,
  "ginapi": 947,
  "amely": 948,
  "irooloo</w>": 949,
  "thur": 950,
  "cedence</w>": 951,
  "steelers</w>": 952,
  "kede": 953,
  "dasyouthin": 954,
  "restarts</w>": 955,
  "caprice</w>": 956,
  "mbers</w>": 957,
  "om</w>": 958,
  "sticinthemoon</w>": 959,
  "bitably</w>": 960,
  "tend</w>": 961,
  "flame</w>": 962,
  "yomi": 963,
  "bity</w>": 964,
  "overacts</w>": 965,
  "ledge</w>": 966,
  "nagaru</w>": 967,
  "hetically</w>": 968,
  "grassi</w>": 969,
  "alona</w>": 970,
  "appoints</w>": 971,
  "god": 972,
  "icebr</w>": 973,
  "botanic": 974,
  "timescale</w>": 975,
  "esthoodbr</w>": 976,
  "javo</w>": 977,
  "spockunable</w>": 978,
  "renders</w>": 979,
  "kaishakunin</w>": 980,
  "fear": 981,
  "foreshadows</w>": 982,
  "swith</w>": 983,
  "paraded</w>": 984,
  "laurie</w>": 985,
  "wideescreen</w>": 986,
  "karas</w>": 987,
  "gine": 988,
  "rofft</w>": 989,
  "stonewall</w>": 990,
  "linin": 991,
  "nel": 992,
  "aval</w>": 993,
  "draculafran": 994,
  "inescapable</w>": 995,
  "jaffer</w>": 996,
  "woodie</w>": 997,
  "damaris</w>": 998,
  "thinner": 999,
  "herevery</w>": 1000,
  "zevedo</w>": 1001,
  "awesoo": 1002,
  "blackend</w>": 1003,
  "apopera</w>": 1004,
  "disable</w>": 1005,
  "roledi": 1006,
  "whomanitybr</w>": 1007,
  "grespon": 1008,
  "haagen": 1009,
  "rofilmed</w>": 1010,
  "fesharing</w>": 1011,
  "redeyes</w>": 1012,
  "chasey</w>": 1013,
  "grambr</w>": 1014,
  "thyo": 1015,
  "winand</w>": 1016,
  "petads</w>": 1017,
  "minos</w>": 1018,
  "contestbr</w>": 1019,
  "asear": 1020,
  "shaun": 1021,
  "socky</w>": 1022,
  "maroon</w>": 1023,
  "sonals</w>": 1024,
  "bend": 1025,
  "rowhead</w>": 1026,
  "pigbr</w>": 1027,
  "salyn</w>": 1028,
  "gered</w>": 1029,
  "hedengren</w>": 1030,
  "ateness</w>": 1031,
  "assist</w>": 1032,
  "movie": 1033,
  "fats</w>": 1034,
  "abroad": 1035,
  "feeding</w>": 1036,
  "tati": 1037,
  "donot</w>": 1038,
  "loc</w>": 1039,
  "vethat</w>": 1040,
  "onif</w>": 1041,
  "idis</w>": 1042,
  "chinnarasu</w>": 1043,
  "mired": 1044,
  "dvd</w>": 1045,
  "apens</w>": 1046,
  "peli": 1047,
  "german</w>": 1048,
  "vestigated</w>": 1049,
  "moviethis</w>": 1050,
  "selete</w>": 1051,
  "classic</w>": 1052,
  "daviscol": 1053,
  "tac</w>": 1054,
  "whiting</w>": 1055,
  "celoron</w>": 1056,
  "ballits</w>": 1057,
  "lobi": 1058,
  "somedaybr</w>": 1059,
  "actions</w>": 1060,
  "napole": 1061,
  "xi": 1062,
  "pointedly</w>": 1063,
  "rutana</w>": 1064,
  "tamest</w>": 1065,
  "lessid</w>": 1066,
  "openaithe</w>": 1067,
  "malinas</w>": 1068,
  "braineating</w>": 1069,
  "jabs</w>": 1070,
  "rator": 1071,
  "jacobred": 1072,
  "futurenni</w>": 1073,
  "lative": 1074,
  "part": 1075,
  "viel</w>": 1076,
  "onalis": 1077,
  "leat": 1078,
  "tart</w>": 1079,
  "donators</w>": 1080,
  "prelu": 1081,
  "tome</w>": 1082,
  "babaloo</w>": 1083,
  "vedand</w>": 1084,
  "hinthint</w>": 1085,
  "rediscovering</w>": 1086,
  "dupu": 1087,
  "canines</w>": 1088,
  "wetbr</w>": 1089,
  "colin": 1090,
  "henobar": 1091,
  "arethe</w>": 1092,
  "hooror</w>": 1093,
  "saleem</w>": 1094,
  "adolescents</w>": 1095,
  "butone</w>": 1096,
  "aledafter</w>": 1097,
  "astairero": 1098,
  "bintan</w>": 1099,
  "nese": 1100,
  "kesh": 1101,
  "fifor": 1102,
  "itous</w>": 1103,
  "mallest</w>": 1104,
  "dami": 1105,
  "graped</w>": 1106,
  "sappro": 1107,
  "bradybr</w>": 1108,
  "zzical</w>": 1109,
  "superimposing</w>": 1110,
  "ghanamerican</w>": 1111,
  "robatic": 1112,
  "barricades</w>": 1113,
  "cares": 1114,
  "scopic</w>": 1115,
  "samira</w>": 1116,
  "sowhy</w>": 1117,
  "rubbish": 1118,
  "hery": 1119,
  "somany": 1120,
  "bothobviously</w>": 1121,
  "lavins</w>": 1122,
  "mbodiment</w>": 1123,
  "ra</w>": 1124,
  "taf": 1125,
  "ramid": 1126,
  "matos</w>": 1127,
  "shuny</w>": 1128,
  "nash</w>": 1129,
  "audi": 1130,
  "angular</w>": 1131,
  "colonel": 1132,
  "thisis</w>": 1133,
  "primo</w>": 1134,
  "basedonatrue</w>": 1135,
  "fera</w>": 1136,
  "teel</w>": 1137,
  "cavor": 1138,
  "canne</w>": 1139,
  "thesisbr</w>": 1140,
  "sside": 1141,
  "foodone</w>": 1142,
  "careerending</w>": 1143,
  "cissistic</w>": 1144,
  "populate</w>": 1145,
  "dache</w>": 1146,
  "tap</w>": 1147,
  "sevenoun": 1148,
  "hock</w>": 1149,
  "reminisces</w>": 1150,
  "leshy</w>": 1151,
  "completionbr</w>": 1152,
  "zeff</w>": 1153,
  "appalls</w>": 1154,
  "sevier</w>": 1155,
  "nados</w>": 1156,
  "bennopenainn": 1157,
  "letru": 1158,
  "wachs</w>": 1159,
  "safteradir": 1160,
  "jap": 1161,
  "curative</w>": 1162,
  "agethe</w>": 1163,
  "coverage</w>": 1164,
  "theroad</w>": 1165,
  "shara</w>": 1166,
  "tweeners</w>": 1167,
  "connery</w>": 1168,
  "latives</w>": 1169,
  "whel": 1170,
  "wholesome": 1171,
  "novod": 1172,
  "otheryouve</w>": 1173,
  "corre": 1174,
  "bilitybr</w>": 1175,
  "isines</w>": 1176,
  "dadri": 1177,
  "shave": 1178,
  "robing</w>": 1179,
  "silou": 1180,
  "batum</w>": 1181,
  "pocketbr</w>": 1182,
  "eleni</w>": 1183,
  "mombi</w>": 1184,
  "haroun</w>": 1185,
  "stoo</w>": 1186,
  "johansons</w>": 1187,
  "sle</w>": 1188,
  "wanesebr</w>": 1189,
  "spacerent</w>": 1190,
  "gatesbr</w>": 1191,
  "leanasi": 1192,
  "telomeres</w>": 1193,
  "stalled": 1194,
  "chint": 1195,
  "welless</w>": 1196,
  "havil": 1197,
  "eer</w>": 1198,
  "meto</w>": 1199,
  "cabals</w>": 1200,
  "defamation</w>": 1201,
  "sapearen": 1202,
  "moni</w>": 1203,
  "pesque</w>": 1204,
  "waw": 1205,
  "ericamar": 1206,
  "rima</w>": 1207,
  "orists</w>": 1208,
  "nitish": 1209,
  "mulator</w>": 1210,
  "premonitions</w>": 1211,
  "nedi": 1212,
  "goodi": 1213,
  "derelicts</w>": 1214,
  "rennie</w>": 1215,
  "flatterin": 1216,
  "restless</w>": 1217,
  "yur</w>": 1218,
  "timcomic</w>": 1219,
  "mmag": 1220,
  "saurus</w>": 1221,
  "bitand</w>": 1222,
  "mula</w>": 1223,
  "lamming</w>": 1224,
  "oresear": 1225,
  "thathes</w>": 1226,
  "atsbr</w>": 1227,
  "ronise</w>": 1228,
  "oretc</w>": 1229,
  "lagoonawaits</w>": 1230,
  "donenow</w>": 1231,
  "zzist</w>": 1232,
  "pepo": 1233,
  "moraniss</w>": 1234,
  "bbas</w>": 1235,
  "saffe</w>": 1236,
  "gredy</w>": 1237,
  "buds</w>": 1238,
  "supabase</w>": 1239,
  "ghilarious</w>": 1240,
  "leanenergy</w>": 1241,
  "thelessit</w>": 1242,
  "scheffer</w>": 1243,
  "gerationbr</w>": 1244,
  "tendont</w>": 1245,
  "lever</w>": 1246,
  "going</w>": 1247,
  "ven": 1248,
  "paulini": 1249,
  "resistan": 1250,
  "ghey</w>": 1251,
  "eliminate</w>": 1252,
  "kiss</w>": 1253,
  "zir</w>": 1254,
  "marais</w>": 1255,
  "jelu": 1256,
  "lempt</w>": 1257,
  "wheeling</w>": 1258,
  "keters</w>": 1259,
  "sonically</w>": 1260,
  "nachs</w>": 1261,
  "efer</w>": 1262,
  "robbery</w>": 1263,
  "leladen</w>": 1264,
  "wait": 1265,
  "rata</w>": 1266,
  "jonesbr</w>": 1267,
  "as</w>": 1268,
  "jodies</w>": 1269,
  "hah</w>": 1270,
  "nnalas</w>": 1271,
  "janovic</w>": 1272,
  "anger</w>": 1273,
  "imputes</w>": 1274,
  "lourishing</w>": 1275,
  "morant</w>": 1276,
  "lamine</w>": 1277,
  "celo</w>": 1278,
  "notability</w>": 1279,
  "thaste": 1280,
  "alonewhen</w>": 1281,
  "equiten": 1282,
  "scowor": 1283,
  "pigalle</w>": 1284,
  "whithin</w>": 1285,
  "commodate</w>": 1286,
  "escapes</w>": 1287,
  "acher</w>": 1288,
  "mayor</w>": 1289,
  "grater</w>": 1290,
  "figurede": 1291,
  "lavic</w>": 1292,
  "punt</w>": 1293,
  "tawesome</w>": 1294,
  "vetrecommended</w>": 1295,
  "aforeffort</w>": 1296,
  "offis": 1297,
  "mboy": 1298,
  "mcrane": 1299,
  "mor": 1300,
  "galapagos</w>": 1301,
  "anyway</w>": 1302,
  "backer</w>": 1303,
  "gradef</w>": 1304,
  "acade": 1305,
  "theallin": 1306,
  "there</w>": 1307,
  "nobbery</w>": 1308,
  "weetening</w>": 1309,
  "manish</w>": 1310,
  "napper</w>": 1311,
  "dyu": 1312,
  "setc</w>": 1313,
  "gallin": 1314,
  "toffice</w>": 1315,
  "ha": 1316,
  "shannona": 1317,
  "nakada</w>": 1318,
  "lation": 1319,
  "jessie</w>": 1320,
  "babbages</w>": 1321,
  "didint</w>": 1322,
  "jobe</w>": 1323,
  "daffodils</w>": 1324,
  "bakesales</w>": 1325,
  "nothin": 1326,
  "nautomated</w>": 1327,
  "alens</w>": 1328,
  "snim": 1329,
  "nodon": 1330,
  "fist": 1331,
  "haginawed": 1332,
  "mulation</w>": 1333,
  "speedrun</w>": 1334,
  "vocation</w>": 1335,
  "due</w>": 1336,
  "mirail</w>": 1337,
  "caminos</w>": 1338,
  "baps</w>": 1339,
  "hisho</w>": 1340,
  "video</w>": 1341,
  "aparade": 1342,
  "generated</w>": 1343,
  "effers</w>": 1344,
  "chetbr</w>": 1345,
  "brasile": 1346,
  "walt</w>": 1347,
  "cope</w>": 1348,
  "ocks</w>": 1349,
  "kal": 1350,
  "lood": 1351,
  "agrens</w>": 1352,
  "hateful</w>": 1353,
  "vomitum</w>": 1354,
  "gallows</w>": 1355,
  "goths</w>": 1356,
  "datesomething</w>": 1357,
  "spengone": 1358,
  "ristel</w>": 1359,
  "lutobr</w>": 1360,
  "pac": 1361,
  "ansi</w>": 1362,
  "aif</w>": 1363,
  "balloon</w>": 1364,
  "tonnit</w>": 1365,
  "wella</w>": 1366,
  "seemovie</w>": 1367,
  "chaco</w>": 1368,
  "thatit</w>": 1369,
  "stonbr</w>": 1370,
  "tamean": 1371,
  "nationespecially</w>": 1372,
  "composed</w>": 1373,
  "tracor": 1374,
  "jos</w>": 1375,
  "shovelin": 1376,
  "goodoverall</w>": 1377,
  "rive</w>": 1378,
  "alter": 1379,
  "candy</w>": 1380,
  "immunity</w>": 1381,
  "avalon</w>": 1382,
  "doesto": 1383,
  "getrelated</w>": 1384,
  "nees": 1385,
  "eep</w>": 1386,
  "cobur": 1387,
  "timin": 1388,
  "laver</w>": 1389,
  "calloc</w>": 1390,
  "filed</w>": 1391,
  "apathybr</w>": 1392,
  "obote</w>": 1393,
  "composer": 1394,
  "defusing</w>": 1395,
  "comicali</w>": 1396,
  "abolitionis": 1397,
  "onewil": 1398,
  "shamblin": 1399,
  "perishab": 1400,
  "dyear</w>": 1401,
  "naturerevenge</w>": 1402,
  "hispanic</w>": 1403,
  "antigru": 1404,
  "rochefor": 1405,
  "cavallos</w>": 1406,
  "mitri": 1407,
  "awan</w>": 1408,
  "roder</w>": 1409,
  "jalapenotasting</w>": 1410,
  "rasesprobably</w>": 1411,
  "omennot</w>": 1412,
  "endangers</w>": 1413,
  "agore</w>": 1414,
  "turelike</w>": 1415,
  "samenamed</w>": 1416,
  "bitionists</w>": 1417,
  "oring</w>": 1418,
  "ashamedare</w>": 1419,
  "mitit</w>": 1420,
  "anall</w>": 1421,
  "fetu": 1422,
  "levon</w>": 1423,
  "mangat</w>": 1424,
  "pricenot</w>": 1425,
  "tomie</w>": 1426,
  "yesquot</w>": 1427,
  "esther</w>": 1428,
  "sinatrain</w>": 1429,
  "strong</w>": 1430,
  "stalabs</w>": 1431,
  "maga": 1432,
  "eex</w>": 1433,
  "tinternet</w>": 1434,
  "pannick</w>": 1435,
  "meron</w>": 1436,
  "webers</w>": 1437,
  "bestof</w>": 1438,
  "changel</w>": 1439,
  "scout": 1440,
  "elimin</w>": 1441,
  "cupine</w>": 1442,
  "alled": 1443,
  "wanin": 1444,
  "eti": 1445,
  "linter</w>": 1446,
  "ketwe": 1447,
  "jans": 1448,
  "poch</w>": 1449,
  "bitter</w>": 1450,
  "againever</w>": 1451,
  "outed</w>": 1452,
  "differen": 1453,
  "broken</w>": 1454,
  "peque</w>": 1455,
  "lobes</w>": 1456,
  "chhes</w>": 1457,
  "gowhat</w>": 1458,
  "rethinking</w>": 1459,
  "dobur": 1460,
  "icarus</w>": 1461,
  "cenas</w>": 1462,
  "carried</w>": 1463,
  "saun</w>": 1464,
  "finetuning</w>": 1465,
  "brether": 1466,
  "chhali": 1467,
  "severan": 1468,
  "nnopening</w>": 1469,
  "stop</w>": 1470,
  "berin": 1471,
  "commodates</w>": 1472,
  "adrunner</w>": 1473,
  "tivestory</w>": 1474,
  "sabel": 1475,
  "supo</w>": 1476,
  "dic": 1477,
  "movielate</w>": 1478,
  "marinana</w>": 1479,
  "timedilated</w>": 1480,
  "noplanstomer": 1481,
  "anutty</w>": 1482,
  "phon": 1483,
  "tamilese</w>": 1484,
  "breach</w>": 1485,
  "everyoneno</w>": 1486,
  "firesign</w>": 1487,
  "professional</w>": 1488,
  "propositions</w>": 1489,
  "lisles</w>": 1490,
  "drain</w>": 1491,
  "ming</w>": 1492,
  "camerican</w>": 1493,
  "proser": 1494,
  "sopeople</w>": 1495,
  "partes</w>": 1496,
  "bodden</w>": 1497,
  "timena</w>": 1498,
  "davit": 1499,
  "city</w>": 1500,
  "novels</w>": 1501,
  "seeding</w>": 1502,
  "redden</w>": 1503,
  "resounding</w>": 1504,
  "mutir</w>": 1505,
  "goofy</w>": 1506,
  "cathartic</w>": 1507,
  "nonau": 1508,
  "handel": 1509,
  "zarabeth</w>": 1510,
  "pyon</w>": 1511,
  "diligen": 1512,
  "mati</w>": 1513,
  "levi</w>": 1514,
  "rockan": 1515,
  "litel</w>": 1516,
  "cheesebr</w>": 1517,
  "tangen": 1518,
  "lexer</w>": 1519,
  "medge</w>": 1520,
  "noonbr</w>": 1521,
  "oop": 1522,
  "galame</w>": 1523,
  "bonita</w>": 1524,
  "manicurist</w>": 1525,
  "ululating</w>": 1526,
  "voo</w>": 1527,
  "iger</w>": 1528,
  "allese": 1529,
  "tesis</w>": 1530,
  "whately</w>": 1531,
  "theyoun": 1532,
  "letears</w>": 1533,
  "cloned</w>": 1534,
  "sperhaps</w>": 1535,
  "kenew</w>": 1536,
  "tyoure</w>": 1537,
  "lised</w>": 1538,
  "taton": 1539,
  "oil</w>": 1540,
  "lesuno</w>": 1541,
  "lisa": 1542,
  "chadelic": 1543,
  "tessie</w>": 1544,
  "thenall</w>": 1545,
  "astreng": 1546,
  "volen": 1547,
  "edina</w>": 1548,
  "sabretoo": 1549,
  "sporanos</w>": 1550,
  "summarises</w>": 1551,
  "colathe</w>": 1552,
  "quil</w>": 1553,
  "zendabr</w>": 1554,
  "quised</w>": 1555,
  "leresquire</w>": 1556,
  "rospective</w>": 1557,
  "rodd</w>": 1558,
  "psy</w>": 1559,
  "abetes": 1560,
  "freedomcon": 1561,
  "nerak</w>": 1562,
  "notra": 1563,
  "py": 1564,
  "tarama</w>": 1565,
  "sefaces</w>": 1566,
  "runinto</w>": 1567,
  "ropesure</w>": 1568,
  "misquo": 1569,
  "godi</w>": 1570,
  "meti": 1571,
  "itami</w>": 1572,
  "nickeland": 1573,
  "nefretiri</w>": 1574,
  "spoiler</w>": 1575,
  "grabbag</w>": 1576,
  "tenets</w>": 1577,
  "curity": 1578,
  "dailies</w>": 1579,
  "recoil</w>": 1580,
  "ckyeyes</w>": 1581,
  "leacutee</w>": 1582,
  "anoop</w>": 1583,
  "bearly</w>": 1584,
  "community": 1585,
  "movieshe</w>": 1586,
  "lonn": 1587,
  "tarantinos</w>": 1588,
  "endale</w>": 1589,
  "shus": 1590,
  "test</w>": 1591,
  "whiteness</w>": 1592,
  "sho</w>": 1593,
  "pointen</w>": 1594,
  "progay</w>": 1595,
  "initself</w>": 1596,
  "nil": 1597,
  "elessly</w>": 1598,
  "ginot": 1599,
  "shashi</w>": 1600,
  "robat</w>": 1601,
  "rigor</w>": 1602,
  "combes</w>": 1603,
  "dably</w>": 1604,
  "appren": 1605,
  "sequel</w>": 1606,
  "idesign</w>": 1607,
  "draanan": 1608,
  "mato": 1609,
  "gorethe</w>": 1610,
  "hennen": 1611,
  "soured</w>": 1612,
  "cici</w>": 1613,
  "ailu": 1614,
  "mallows</w>": 1615,
  "icespecial</w>": 1616,
  "meanors</w>": 1617,
  "jaimefo": 1618,
  "etha</w>": 1619,
  "bonacor": 1620,
  "taineer</w>": 1621,
  "propels</w>": 1622,
  "tuse</w>": 1623,
  "nocarri": 1624,
  "fist</w>": 1625,
  "lini</w>": 1626,
  "aw</w>": 1627,
  "vitamin</w>": 1628,
  "abana": 1629,
  "strying</w>": 1630,
  "fetisov</w>": 1631,
  "tempeste</w>": 1632,
  "jetee</w>": 1633,
  "hhes</w>": 1634,
  "sakall</w>": 1635,
  "alist": 1636,
  "ask</w>": 1637,
  "promilitary</w>": 1638,
  "rational": 1639,
  "shirice": 1640,
  "chococher": 1641,
  "licisedbr</w>": 1642,
  "severide</w>": 1643,
  "mamabr</w>": 1644,
  "picks</w>": 1645,
  "explorer": 1646,
  "cobb</w>": 1647,
  "tenant</w>": 1648,
  "jaderobbox": 1649,
  "military</w>": 1650,
  "stoppo": 1651,
  "herenone</w>": 1652,
  "credulous</w>": 1653,
  "rossini</w>": 1654,
  "rest": 1655,
  "ctions</w>": 1656,
  "baul": 1657,
  "heaver</w>": 1658,
  "dominan": 1659,
  "lisalo": 1660,
  "lommed</w>": 1661,
  "blocker</w>": 1662,
  "depic": 1663,
  "barous</w>": 1664,
  "pan</w>": 1665,
  "castanet</w>": 1666,
  "positioned</w>": 1667,
  "or</w>": 1668,
  "athir": 1669,
  "maphore</w>": 1670,
  "katre</w>": 1671,
  "blutwell</w>": 1672,
  "vs</w>": 1673,
  "fatale</w>": 1674,
  "dallend</w>": 1675,
  "domat": 1676,
  "goli": 1677,
  "bloomberg</w>": 1678,
  "amplennim</w>": 1679,
  "boomerang": 1680,
  "chocalety": 1681,
  "modell</w>": 1682,
  "trily</w>": 1683,
  "prethir": 1684,
  "sumers</w>": 1685,
  "mouri": 1686,
  "bloor</w>": 1687,
  "momami": 1688,
  "colove</w>": 1689,
  "shamefull</w>": 1690,
  "senothings</w>": 1691,
  "prinal</w>": 1692,
  "crow</w>": 1693,
  "offically</w>": 1694,
  "edoracist</w>": 1695,
  "ilomalagi</w>": 1696,
  "opolitic": 1697,
  "avery</w>": 1698,
  "espouse</w>": 1699,
  "ofa</w>": 1700,
  "meditations</w>": 1701,
  "batter": 1702,
  "antimain": 1703,
  "shame</w>": 1704,
  "suppose</w>": 1705,
  "andrenaline</w>": 1706,
  "lequite</w>": 1707,
  "annacade": 1708,
  "chye": 1709,
  "tedirected</w>": 1710,
  "aversion</w>": 1711,
  "fantile</w>": 1712,
  "localesexcellent</w>": 1713,
  "curaci": 1714,
  "shigeru</w>": 1715,
  "deran</w>": 1716,
  "impoun": 1717,
  "bbidi": 1718,
  "stones</w>": 1719,
  "nada</w>": 1720,
  "homo": 1721,
  "parachutists</w>": 1722,
  "relation": 1723,
  "distruction</w>": 1724,
  "solanis</w>": 1725,
  "cently</w>": 1726,
  "mms</w>": 1727,
  "fishes</w>": 1728,
  "anound</w>": 1729,
  "defilers</w>": 1730,
  "sengers</w>": 1731,
  "caling</w>": 1732,
  "takanashi</w>": 1733,
  "kelybr</w>": 1734,
  "endif</w>": 1735,
  "ether": 1736,
  "masculinity</w>": 1737,
  "inalong</w>": 1738,
  "damatri": 1739,
  "youraini": 1740,
  "aralavel": 1741,
  "quil": 1742,
  "borer</w>": 1743,
  "intobr</w>": 1744,
  "pomposity</w>": 1745,
  "pithet</w>": 1746,
  "moreno": 1747,
  "samuraicon": 1748,
  "whatson": 1749,
  "atedly</w>": 1750,
  "despor": 1751,
  "thurin": 1752,
  "traineesbr</w>": 1753,
  "aspartime</w>": 1754,
  "gistically</w>": 1755,
  "onnimagen</w>": 1756,
  "backagain</w>": 1757,
  "velynn": 1758,
  "trick</w>": 1759,
  "arisen</w>": 1760,
  "complaint</w>": 1761,
  "hoovers</w>": 1762,
  "bomar</w>": 1763,
  "gooder</w>": 1764,
  "chapatis</w>": 1765,
  "arti": 1766,
  "morell</w>": 1767,
  "limmed</w>": 1768,
  "block": 1769,
  "romalt</w>": 1770,
  "lots</w>": 1771,
  "fooda</w>": 1772,
  "karenalaine": 1773,
  "haul": 1774,
  "janices</w>": 1775,
  "bours</w>": 1776,
  "sterili": 1777,
  "trampolines</w>": 1778,
  "resolutionn": 1779,
  "stees</w>": 1780,
  "chinesestyle</w>": 1781,
  "goodall</w>": 1782,
  "volitional</w>": 1783,
  "ament</w>": 1784,
  "pos</w>": 1785,
  "raine</w>": 1786,
  "katilo": 1787,
  "dobb</w>": 1788,
  "shakably</w>": 1789,
  "serenetan</w>": 1790,
  "stickers</w>": 1791,
  "squite</w>": 1792,
  "labirinto</w>": 1793,
  "thistoric</w>": 1794,
  "dren": 1795,
  "delishus</w>": 1796,
  "shakespearen</w>": 1797,
  "maketar": 1798,
  "stagy</w>": 1799,
  "voodoo": 1800,
  "basically": 1801,
  "bunal": 1802,
  "hannesan": 1803,
  "methodyu": 1804,
  "ilu": 1805,
  "isesimagery</w>": 1806,
  "datann": 1807,
  "brant</w>": 1808,
  "suffocatin": 1809,
  "isness</w>": 1810,
  "lutocratic</w>": 1811,
  "weeds</w>": 1812,
  "jacky": 1813,
  "sonnet": 1814,
  "nearearth</w>": 1815,
  "gi": 1816,
  "sounless</w>": 1817,
  "tep</w>": 1818,
  "wackyest</w>": 1819,
  "twet": 1820,
  "ladin</w>": 1821,
  "par</w>": 1822,
  "africanamer": 1823,
  "sinthe</w>": 1824,
  "leanand</w>": 1825,
  "locomotives</w>": 1826,
  "isai": 1827,
  "hide</w>": 1828,
  "footages</w>": 1829,
  "peoplenn</w>": 1830,
  "mmet": 1831,
  "stimulate</w>": 1832,
  "wallop</w>": 1833,
  "haime</w>": 1834,
  "ocons</w>": 1835,
  "pastrami</w>": 1836,
  "sesquire</w>": 1837,
  "mball": 1838,
  "tobad</w>": 1839,
  "itwould</w>": 1840,
  "palatir</w>": 1841,
  "onally</w>": 1842,
  "alebr</w>": 1843,
  "dinis</w>": 1844,
  "gren": 1845,
  "whop": 1846,
  "trashorama</w>": 1847,
  "loffis</w>": 1848,
  "storefake</w>": 1849,
  "bedam": 1850,
  "allinall</w>": 1851,
  "thy": 1852,
  "shigerus</w>": 1853,
  "patty</w>": 1854,
  "cholybr</w>": 1855,
  "resize</w>": 1856,
  "advance</w>": 1857,
  "kimde": 1858,
  "pathand</w>": 1859,
  "mmeled</w>": 1860,
  "toonish": 1861,
  "minestrone</w>": 1862,
  "spinoff": 1863,
  "cheery</w>": 1864,
  "warya</w>": 1865,
  "inescape": 1866,
  "omang": 1867,
  "daintul": 1868,
  "fenner</w>": 1869,
  "particulare</w>": 1870,
  "adore</w>": 1871,
  "grath</w>": 1872,
  "pican": 1873,
  "pare</w>": 1874,
  "saboteurs</w>": 1875,
  "cilesbr</w>": 1876,
  "sil</w>": 1877,
  "grapes": 1878,
  "scavengers</w>": 1879,
  "sawa</w>": 1880,
  "antic": 1881,
  "resevo": 1882,
  "ronnie</w>": 1883,
  "licity": 1884,
  "musa</w>": 1885,
  "nishimura</w>": 1886,
  "tatous</w>": 1887,
  "kamm</w>": 1888,
  "teleedu": 1889,
  "filengpt</w>": 1890,
  "muscling</w>": 1891,
  "withyou</w>": 1892,
  "thoon": 1893,
  "powers</w>": 1894,
  "deligh": 1895,
  "shefali</w>": 1896,
  "asonothe": 1897,
  "renode": 1898,
  "mesand</w>": 1899,
  "unne": 1900,
  "popularis": 1901,
  "edutwitter</w>": 1902,
  "cros</w>": 1903,
  "igni": 1904,
  "aparty": 1905,
  "sadee</w>": 1906,
  "scoffees</w>": 1907,
  "solanan": 1908,
  "junagad": 1909,
  "dication</w>": 1910,
  "stru": 1911,
  "cein": 1912,
  "chapp": 1913,
  "midul": 1914,
  "movietry</w>": 1915,
  "haler</w>": 1916,
  "madolyn</w>": 1917,
  "demorali": 1918,
  "doesin</w>": 1919,
  "sering</w>": 1920,
  "dairy": 1921,
  "winterich</w>": 1922,
  "themyou</w>": 1923,
  "automaton</w>": 1924,
  "refused</w>": 1925,
  "thenn</w>": 1926,
  "higherups</w>": 1927,
  "alets</w>": 1928,
  "doesand</w>": 1929,
  "confeder": 1930,
  "chespul": 1931,
  "heartedbr</w>": 1932,
  "returning</w>": 1933,
  "goverinthe": 1934,
  "ceramic": 1935,
  "tarum</w>": 1936,
  "papara": 1937,
  "davenavar": 1938,
  "sthanse": 1939,
  "bigotry</w>": 1940,
  "astatin": 1941,
  "tocapacitor</w>": 1942,
  "sadek</w>": 1943,
  "breaku": 1944,
  "everyoneshowing</w>": 1945,
  "finishesbr</w>": 1946,
  "coffeed</w>": 1947,
  "sexception</w>": 1948,
  "onorati</w>": 1949,
  "laughout</w>": 1950,
  "lexi</w>": 1951,
  "grenadenot</w>": 1952,
  "mustered</w>": 1953,
  "cist": 1954,
  "calorically</w>": 1955,
  "dalice</w>": 1956,
  "ffa</w>": 1957,
  "kyons</w>": 1958,
  "camerawoman</w>": 1959,
  "technolo": 1960,
  "alat</w>": 1961,
  "nonni</w>": 1962,
  "ronically</w>": 1963,
  "bestever": 1964,
  "tesqueries</w>": 1965,
  "daisya</w>": 1966,
  "cederic</w>": 1967,
  "mileex": 1968,
  "catherine</w>": 1969,
  "resell</w>": 1970,
  "stout": 1971,
  "amira": 1972,
  "posbr</w>": 1973,
  "milk</w>": 1974,
  "woodbr</w>": 1975,
  "aloneness</w>": 1976,
  "falter</w>": 1977,
  "herobr</w>": 1978,
  "gyearold</w>": 1979,
  "hardisachrist": 1980,
  "naments</w>": 1981,
  "stition</w>": 1982,
  "arat": 1983,
  "cinnammon</w>": 1984,
  "liter</w>": 1985,
  "aichat": 1986,
  "quel": 1987,
  "mascouri</w>": 1988,
  "tedge</w>": 1989,
  "probational</w>": 1990,
  "amoutsbr</w>": 1991,
  "pyuns</w>": 1992,
  "imbret": 1993,
  "cappicino</w>": 1994,
  "cona": 1995,
  "aredbr</w>": 1996,
  "fest": 1997,
  "shalls</w>": 1998,
  "complexities</w>": 1999,
  "eshairene</w>": 2000,
  "menus</w>": 2001,
  "appraisal": 2002,
  "banana</w>": 2003,
  "barometer</w>": 2004,
  "tobre": 2005,
  "hawes</w>": 2006,
  "conversion</w>": 2007,
  "matterof</w>": 2008,
  "refined</w>": 2009,
  "authority</w>": 2010,
  "mena</w>": 2011,
  "comcastic</w>": 2012,
  "beauty</w>": 2013,
  "overestimated</w>": 2014,
  "restraints</w>": 2015,
  "shet": 2016,
  "isoba": 2017,
  "scur": 2018,
  "holic": 2019,
  "ethan</w>": 2020,
  "gory": 2021,
  "boffo</w>": 2022,
  "auteur": 2023,
  "lov</w>": 2024,
  "pinti</w>": 2025,
  "jaku</w>": 2026,
  "chha": 2027,
  "dialog</w>": 2028,
  "cishet</w>": 2029,
  "tapeselec": 2030,
  "ceti": 2031,
  "jolies</w>": 2032,
  "anyonethough</w>": 2033,
  "weethearts</w>": 2034,
  "rute</w>": 2035,
  "lavoura</w>": 2036,
  "rashin</w>": 2037,
  "tups</w>": 2038,
  "pepredicable</w>": 2039,
  "wapas</w>": 2040,
  "mean": 2041,
  "traitas</w>": 2042,
  "retweet": 2043,
  "grin</w>": 2044,
  "laving</w>": 2045,
  "aros</w>": 2046,
  "nooraf</w>": 2047,
  "crested</w>": 2048,
  "licky</w>": 2049,
  "procommunist</w>": 2050,
  "choly</w>": 2051,
  "flaming</w>": 2052,
  "pieu": 2053,
  "mmamc": 2054,
  "genitali": 2055,
  "thesbr</w>": 2056,
  "greeting</w>": 2057,
  "ileraback</w>": 2058,
  "mintedu</w>": 2059,
  "panamericano</w>": 2060,
  "ran</w>": 2061,
  "arasher": 2062,
  "desiring</w>": 2063,
  "rishi</w>": 2064,
  "mbel": 2065,
  "joh": 2066,
  "kap</w>": 2067,
  "confiscate</w>": 2068,
  "militarily</w>": 2069,
  "olu</w>": 2070,
  "medina</w>": 2071,
  "olaf</w>": 2072,
  "dasyou": 2073,
  "daili": 2074,
  "laac</w>": 2075,
  "sock": 2076,
  "propane</w>": 2077,
  "sobe</w>": 2078,
  "taboo</w>": 2079,
  "dono": 2080,
  "sutty</w>": 2081,
  "oom": 2082,
  "berannoying</w>": 2083,
  "mistakeespecially</w>": 2084,
  "fa": 2085,
  "banalitybr</w>": 2086,
  "kills</w>": 2087,
  "chastens</w>": 2088,
  "satirically</w>": 2089,
  "anspeaking</w>": 2090,
  "plau": 2091,
  "lavan</w>": 2092,
  "bavica</w>": 2093,
  "graini": 2094,
  "applauding</w>": 2095,
  "lonestar</w>": 2096,
  "kevino": 2097,
  "subor</w>": 2098,
  "cadavers</w>": 2099,
  "bitru": 2100,
  "wabash</w>": 2101,
  "suling</w>": 2102,
  "ascular</w>": 2103,
  "thardy": 2104,
  "chitalian</w>": 2105,
  "goodim</w>": 2106,
  "inedi": 2107,
  "tenders</w>": 2108,
  "jeffries</w>": 2109,
  "stinnocent</w>": 2110,
  "flavers</w>": 2111,
  "rawa</w>": 2112,
  "gastar</w>": 2113,
  "mischab": 2114,
  "kabou": 2115,
  "misti": 2116,
  "onerole</w>": 2117,
  "detested</w>": 2118,
  "marenghis</w>": 2119,
  "brendons</w>": 2120,
  "motivs</w>": 2121,
  "anablo": 2122,
  "bberish</w>": 2123,
  "theminute</w>": 2124,
  "aboutarent</w>": 2125,
  "yesyes</w>": 2126,
  "dinobot</w>": 2127,
  "senditin</w>": 2128,
  "newac": 2129,
  "nowat</w>": 2130,
  "katanabr</w>": 2131,
  "exper": 2132,
  "ticing</w>": 2133,
  "grann": 2134,
  "kurang</w>": 2135,
  "kidul": 2136,
  "dig</w>": 2137,
  "saps</w>": 2138,
  "originalyoull</w>": 2139,
  "appallin": 2140,
  "planshe</w>": 2141,
  "oochey</w>": 2142,
  "jabba": 2143,
  "hanoveri": 2144,
  "maner</w>": 2145,
  "grambut</w>": 2146,
  "aage</w>": 2147,
  "aaki": 2148,
  "monol": 2149,
  "geshave</w>": 2150,
  "cinefest</w>": 2151,
  "tyoh</w>": 2152,
  "aremake</w>": 2153,
  "barrie</w>": 2154,
  "ravish</w>": 2155,
  "telesales</w>": 2156,
  "ristans</w>": 2157,
  "taineering</w>": 2158,
  "petesake</w>": 2159,
  "champag": 2160,
  "ap</w>": 2161,
  "wimmingly</w>": 2162,
  "sintheshower</w>": 2163,
  "sinner": 2164,
  "comfor": 2165,
  "travelers</w>": 2166,
  "kach": 2167,
  "sequ": 2168,
  "stayes</w>": 2169,
  "pagets</w>": 2170,
  "medar": 2171,
  "disproving</w>": 2172,
  "tupini": 2173,
  "whupa</w>": 2174,
  "tooprev": 2175,
  "tailor": 2176,
  "placedoutof": 2177,
  "tionif</w>": 2178,
  "ganny</w>": 2179,
  "bam": 2180,
  "manganese</w>": 2181,
  "durum</w>": 2182,
  "omatically</w>": 2183,
  "wyers</w>": 2184,
  "marinised</w>": 2185,
  "tatorits</w>": 2186,
  "sany</w>": 2187,
  "neigh</w>": 2188,
  "alab": 2189,
  "desires": 2190,
  "stilet": 2191,
  "sticki": 2192,
  "delaru": 2193,
  "ritter</w>": 2194,
  "everyonenn": 2195,
  "alterated</w>": 2196,
  "isaach</w>": 2197,
  "sassinationbr</w>": 2198,
  "steel</w>": 2199,
  "datting</w>": 2200,
  "weekend</w>": 2201,
  "deter": 2202,
  "morals</w>": 2203,
  "xim</w>": 2204,
  "hichatbot</w>": 2205,
  "peeved</w>": 2206,
  "trinates</w>": 2207,
  "respect</w>": 2208,
  "rader": 2209,
  "filmcow": 2210,
  "daisys</w>": 2211,
  "crowe</w>": 2212,
  "daker</w>": 2213,
  "strangulation</w>": 2214,
  "caterina</w>": 2215,
  "foresti": 2216,
  "tempura</w>": 2217,
  "moni": 2218,
  "fase</w>": 2219,
  "tonene": 2220,
  "ilerand</w>": 2221,
  "figurine</w>": 2222,
  "twi": 2223,
  "moodle</w>": 2224,
  "heli": 2225,
  "satisying</w>": 2226,
  "badits</w>": 2227,
  "soone</w>": 2228,
  "prisonac": 2229,
  "uthats</w>": 2230,
  "comode</w>": 2231,
  "rapi": 2232,
  "trater": 2233,
  "pitea</w>": 2234,
  "kicky</w>": 2235,
  "feform</w>": 2236,
  "tonand</w>": 2237,
  "romulent</w>": 2238,
  "bristles</w>": 2239,
  "fave</w>": 2240,
  "shan": 2241,
  "scour": 2242,
  "dvorak</w>": 2243,
  "molestedbr</w>": 2244,
  "imperative</w>": 2245,
  "terises</w>": 2246,
  "metaphor": 2247,
  "prado</w>": 2248,
  "licoret": 2249,
  "boolet</w>": 2250,
  "appiness</w>": 2251,
  "lantis": 2252,
  "dinten": 2253,
  "jabber</w>": 2254,
  "zelan": 2255,
  "stasi</w>": 2256,
  "spang": 2257,
  "operalevel</w>": 2258,
  "adend</w>": 2259,
  "baroni": 2260,
  "pablum</w>": 2261,
  "similar": 2262,
  "nnel": 2263,
  "stops</w>": 2264,
  "gunners</w>": 2265,
  "bracket</w>": 2266,
  "dago</w>": 2267,
  "statedbr</w>": 2268,
  "orines</w>": 2269,
  "rars</w>": 2270,
  "storesuper": 2271,
  "quet": 2272,
  "techintrends</w>": 2273,
  "isin": 2274,
  "retracing</w>": 2275,
  "mochi": 2276,
  "nicoli</w>": 2277,
  "lack": 2278,
  "lans": 2279,
  "trauner</w>": 2280,
  "procedural</w>": 2281,
  "menu</w>": 2282,
  "reuse</w>": 2283,
  "masau": 2284,
  "timesetting</w>": 2285,
  "mol": 2286,
  "soonn</w>": 2287,
  "manauthor": 2288,
  "hallorans</w>": 2289,
  "loraines</w>": 2290,
  "naturalisticrealis": 2291,
  "pricethe</w>": 2292,
  "drapery</w>": 2293,
  "assi": 2294,
  "lawyerin": 2295,
  "eels</w>": 2296,
  "rommost</w>": 2297,
  "ld</w>": 2298,
  "lig": 2299,
  "ryus</w>": 2300,
  "westafrica</w>": 2301,
  "a": 2302,
  "chaff</w>": 2303,
  "grinding</w>": 2304,
  "iceshoo": 2305,
  "mbly</w>": 2306,
  "gobin</w>": 2307,
  "ghis</w>": 2308,
  "jennin": 2309,
  "drespect</w>": 2310,
  "alou": 2311,
  "chatgptu": 2312,
  "tivities</w>": 2313,
  "seenext</w>": 2314,
  "matre</w>": 2315,
  "cescoci": 2316,
  "mendel</w>": 2317,
  "spanned": 2318,
  "roryear": 2319,
  "clawing</w>": 2320,
  "mayer": 2321,
  "eritated</w>": 2322,
  "datorybr</w>": 2323,
  "nnopen": 2324,
  "blobby</w>": 2325,
  "laughanother</w>": 2326,
  "maudit</w>": 2327,
  "rodi": 2328,
  "leason</w>": 2329,
  "maghu": 2330,
  "wisons</w>": 2331,
  "rostov</w>": 2332,
  "wasaround</w>": 2333,
  "muthun": 2334,
  "akita</w>": 2335,
  "ps</w>": 2336,
  "matu": 2337,
  "hangin</w>": 2338,
  "moviesomething</w>": 2339,
  "pita": 2340,
  "gonly</w>": 2341,
  "thai</w>": 2342,
  "racistbr</w>": 2343,
  "existed</w>": 2344,
  "numbers</w>": 2345,
  "whatis</w>": 2346,
  "problemo</w>": 2347,
  "aperonly</w>": 2348,
  "reyes</w>": 2349,
  "mim</w>": 2350,
  "antiscience</w>": 2351,
  "bre</w>": 2352,
  "traveling</w>": 2353,
  "confiscates</w>": 2354,
  "leaves</w>": 2355,
  "christen": 2356,
  "uretic</w>": 2357,
  "terare</w>": 2358,
  "fren</w>": 2359,
  "knowin": 2360,
  "ked</w>": 2361,
  "detractors</w>": 2362,
  "thematic": 2363,
  "oves</w>": 2364,
  "asel</w>": 2365,
  "casin</w>": 2366,
  "sedofacrime</w>": 2367,
  "taleaurale": 2368,
  "sometimesoutright</w>": 2369,
  "imposible</w>": 2370,
  "nalist</w>": 2371,
  "wedon": 2372,
  "leno</w>": 2373,
  "nola</w>": 2374,
  "rical</w>": 2375,
  "chis": 2376,
  "terabethi": 2377,
  "fesucking</w>": 2378,
  "uric</w>": 2379,
  "desinte": 2380,
  "disposakups</w>": 2381,
  "whitea</w>": 2382,
  "disti</w>": 2383,
  "pocketed</w>": 2384,
  "licen": 2385,
  "adamant</w>": 2386,
  "wighe</w>": 2387,
  "generously</w>": 2388,
  "gray</w>": 2389,
  "barat": 2390,
  "achesthe</w>": 2391,
  "toronto</w>": 2392,
  "handee": 2393,
  "grisly</w>": 2394,
  "gorone</w>": 2395,
  "englun": 2396,
  "cathy": 2397,
  "temperedbr</w>": 2398,
  "tangos</w>": 2399,
  "sath": 2400,
  "garica</w>": 2401,
  "chiseled</w>": 2402,
  "honore</w>": 2403,
  "blocking</w>": 2404,
  "cinnimon</w>": 2405,
  "sudes</w>": 2406,
  "filmedand</w>": 2407,
  "ximenes</w>": 2408,
  "dri</w>": 2409,
  "gitari": 2410,
  "started</w>": 2411,
  "stitute": 2412,
  "speck": 2413,
  "shinto</w>": 2414,
  "sinuses</w>": 2415,
  "techand</w>": 2416,
  "farah</w>": 2417,
  "thaan": 2418,
  "inaneness</w>": 2419,
  "mbolises</w>": 2420,
  "py</w>": 2421,
  "welu": 2422,
  "onedirection</w>": 2423,
  "leaked": 2424,
  "pare": 2425,
  "shinesbr</w>": 2426,
  "isine</w>": 2427,
  "cater": 2428,
  "shons</w>": 2429,
  "chappreci": 2430,
  "chappies</w>": 2431,
  "kethank</w>": 2432,
  "spiedies</w>": 2433,
  "papapetrou</w>": 2434,
  "minton</w>": 2435,
  "imababe": 2436,
  "imagining</w>": 2437,
  "meros</w>": 2438,
  "tooling</w>": 2439,
  "danicant</w>": 2440,
  "goroun": 2441,
  "fool": 2442,
  "lagic</w>": 2443,
  "lowimdb</w>": 2444,
  "kisi</w>": 2445,
  "baski": 2446,
  "gigi": 2447,
  "allendes</w>": 2448,
  "elons</w>": 2449,
  "stactually</w>": 2450,
  "rosedesign</w>": 2451,
  "obout</w>": 2452,
  "ot</w>": 2453,
  "sourest</w>": 2454,
  "adorable</w>": 2455,
  "contaminating</w>": 2456,
  "graininess</w>": 2457,
  "quimet</w>": 2458,
  "dappy</w>": 2459,
  "scaleca</w>": 2460,
  "tunneler</w>": 2461,
  "babbr</w>": 2462,
  "conartist</w>": 2463,
  "speedometer</w>": 2464,
  "cefinds</w>": 2465,
  "ciss</w>": 2466,
  "grana</w>": 2467,
  "parametric</w>": 2468,
  "isolationis": 2469,
  "trappin": 2470,
  "nopenaicommunity</w>": 2471,
  "lover</w>": 2472,
  "detonador</w>": 2473,
  "restraint": 2474,
  "galow</w>": 2475,
  "enginennoh</w>": 2476,
  "artitic</w>": 2477,
  "nament</w>": 2478,
  "mackedbr</w>": 2479,
  "seenup</w>": 2480,
  "verine": 2481,
  "sers</w>": 2482,
  "laced</w>": 2483,
  "karet</w>": 2484,
  "nitbr</w>": 2485,
  "ct</w>": 2486,
  "nonetoo": 2487,
  "wyou</w>": 2488,
  "ving</w>": 2489,
  "dred</w>": 2490,
  "climent</w>": 2491,
  "tricep</w>": 2492,
  "cakenot</w>": 2493,
  "roomar": 2494,
  "utenant</w>": 2495,
  "molecular</w>": 2496,
  "tary": 2497,
  "poffy</w>": 2498,
  "somone</w>": 2499,
  "geen": 2500,
  "linner</w>": 2501,
  "mild</w>": 2502,
  "cisive</w>": 2503,
  "fifafinal</w>": 2504,
  "ficar</w>": 2505,
  "petering</w>": 2506,
  "rer": 2507,
  "brutal</w>": 2508,
  "mistru": 2509,
  "abut</w>": 2510,
  "ffone</w>": 2511,
  "angelo</w>": 2512,
  "laken": 2513,
  "bbonbr</w>": 2514,
  "coffy</w>": 2515,
  "pulee": 2516,
  "space</w>": 2517,
  "posh</w>": 2518,
  "thesum</w>": 2519,
  "taga</w>": 2520,
  "colt</w>": 2521,
  "auld</w>": 2522,
  "renderun": 2523,
  "relation</w>": 2524,
  "competition</w>": 2525,
  "eraw": 2526,
  "staroh</w>": 2527,
  "folie</w>": 2528,
  "tethis</w>": 2529,
  "ficek</w>": 2530,
  "contaminated</w>": 2531,
  "bendigital</w>": 2532,
  "stow": 2533,
  "treena</w>": 2534,
  "antimor": 2535,
  "amores</w>": 2536,
  "zzel</w>": 2537,
  "orel": 2538,
  "bitoff</w>": 2539,
  "asturi": 2540,
  "tening</w>": 2541,
  "reserved</w>": 2542,
  "neese</w>": 2543,
  "manabout": 2544,
  "batenn": 2545,
  "spine</w>": 2546,
  "liskis</w>": 2547,
  "heera": 2548,
  "champ</w>": 2549,
  "campe": 2550,
  "servicesor</w>": 2551,
  "gedon</w>": 2552,
  "strated": 2553,
  "zither</w>": 2554,
  "mysterious</w>": 2555,
  "tome": 2556,
  "parallelis": 2557,
  "hardish</w>": 2558,
  "months</w>": 2559,
  "elan": 2560,
  "herald</w>": 2561,
  "cooland": 2562,
  "sanat": 2563,
  "amolecule</w>": 2564,
  "elaboration</w>": 2565,
  "acul": 2566,
  "hen</w>": 2567,
  "harem</w>": 2568,
  "computechat</w>": 2569,
  "shag</w>": 2570,
  "thall</w>": 2571,
  "restart</w>": 2572,
  "deel</w>": 2573,
  "comor": 2574,
  "triness</w>": 2575,
  "bband</w>": 2576,
  "gigs</w>": 2577,
  "espositobr</w>": 2578,
  "shyer": 2579,
  "seeders</w>": 2580,
  "pelican</w>": 2581,
  "nakeloving</w>": 2582,
  "belin</w>": 2583,
  "vigalon": 2584,
  "remo": 2585,
  "cooling</w>": 2586,
  "pocritic</w>": 2587,
  "tannic</w>": 2588,
  "herap": 2589,
  "remainthe</w>": 2590,
  "coris": 2591,
  "caclar": 2592,
  "ombinis</w>": 2593,
  "edvery</w>": 2594,
  "offer": 2595,
  "landalthough</w>": 2596,
  "gothi": 2597,
  "rationalistic</w>": 2598,
  "removes</w>": 2599,
  "explanationbr</w>": 2600,
  "naff": 2601,
  "tweetles</w>": 2602,
  "exists</w>": 2603,
  "kat": 2604,
  "geratedbr</w>": 2605,
  "clappers</w>": 2606,
  "aannet": 2607,
  "freethink</w>": 2608,
  "dede</w>": 2609,
  "weven</w>": 2610,
  "hobb</w>": 2611,
  "leaseno</w>": 2612,
  "mest</w>": 2613,
  "babbs</w>": 2614,
  "batory</w>": 2615,
  "postum</w>": 2616,
  "leverer</w>": 2617,
  "fasti</w>": 2618,
  "machinist</w>": 2619,
  "servience</w>": 2620,
  "queret": 2621,
  "mopt</w>": 2622,
  "raritya</w>": 2623,
  "kinda</w>": 2624,
  "digesti": 2625,
  "anotherin</w>": 2626,
  "hhi": 2627,
  "coped</w>": 2628,
  "ste</w>": 2629,
  "lobisomem</w>": 2630,
  "napperon": 2631,
  "themoney</w>": 2632,
  "heras</w>": 2633,
  "derive</w>": 2634,
  "monicel": 2635,
  "allis</w>": 2636,
  "jafa</w>": 2637,
  "edu": 2638,
  "aprile</w>": 2639,
  "wala</w>": 2640,
  "defendant</w>": 2641,
  "literall": 2642,
  "gamenn</w>": 2643,
  "ratrici": 2644,
  "jonath": 2645,
  "saf</w>": 2646,
  "villa</w>": 2647,
  "movies</w>": 2648,
  "jacketed</w>": 2649,
  "animallovers</w>": 2650,
  "nashs</w>": 2651,
  "chaparones</w>": 2652,
  "chalet</w>": 2653,
  "lauracrane</w>": 2654,
  "clichi</w>": 2655,
  "antigun</w>": 2656,
  "fistula</w>": 2657,
  "sexed</w>": 2658,
  "kammen</w>": 2659,
  "themanin": 2660,
  "sannelise</w>": 2661,
  "preform</w>": 2662,
  "lock": 2663,
  "dinavia</w>": 2664,
  "chalan": 2665,
  "thafter</w>": 2666,
  "ronicity</w>": 2667,
  "impersonal</w>": 2668,
  "vickeret": 2669,
  "grunt</w>": 2670,
  "yone</w>": 2671,
  "agerelationship</w>": 2672,
  "hamada</w>": 2673,
  "halfforgotten</w>": 2674,
  "holder</w>": 2675,
  "mobalice</w>": 2676,
  "hilate</w>": 2677,
  "stainin": 2678,
  "atarains</w>": 2679,
  "jevo": 2680,
  "selee": 2681,
  "laurafaiss</w>": 2682,
  "donnabr</w>": 2683,
  "scira</w>": 2684,
  "shood</w>": 2685,
  "nacki": 2686,
  "spatters</w>": 2687,
  "risible</w>": 2688,
  "ferengi</w>": 2689,
  "leef</w>": 2690,
  "janaki": 2691,
  "stion</w>": 2692,
  "cinerated</w>": 2693,
  "experience</w>": 2694,
  "cit</w>": 2695,
  "jaffes</w>": 2696,
  "meurent</w>": 2697,
  "rappor": 2698,
  "verinemovie</w>": 2699,
  "stock": 2700,
  "choleric</w>": 2701,
  "agon</w>": 2702,
  "servicesomethin": 2703,
  "freshens</w>": 2704,
  "anovs</w>": 2705,
  "episode</w>": 2706,
  "medicin": 2707,
  "musica</w>": 2708,
  "eslow": 2709,
  "nasts</w>": 2710,
  "bigger</w>": 2711,
  "mous</w>": 2712,
  "aaila</w>": 2713,
  "asphy": 2714,
  "producers</w>": 2715,
  "reverend</w>": 2716,
  "taching</w>": 2717,
  "lorele": 2718,
  "chaffili": 2719,
  "atintell</w>": 2720,
  "bradly</w>": 2721,
  "sulu</w>": 2722,
  "asana</w>": 2723,
  "offing</w>": 2724,
  "musicalin": 2725,
  "fatality</w>": 2726,
  "loli": 2727,
  "dalla</w>": 2728,
  "mpathy</w>": 2729,
  "eari": 2730,
  "sange</w>": 2731,
  "critic</w>": 2732,
  "hamo": 2733,
  "nonaffair</w>": 2734,
  "acer</w>": 2735,
  "honolulu</w>": 2736,
  "hero</w>": 2737,
  "hilarys</w>": 2738,
  "thesp</w>": 2739,
  "dimmer</w>": 2740,
  "dist": 2741,
  "romaristret": 2742,
  "eurodol": 2743,
  "commi": 2744,
  "males</w>": 2745,
  "soop</w>": 2746,
  "hinter": 2747,
  "adyone</w>": 2748,
  "speculaas</w>": 2749,
  "licit": 2750,
  "ativiti": 2751,
  "knowi</w>": 2752,
  "cicero</w>": 2753,
  "gradethe</w>": 2754,
  "were</w>": 2755,
  "imparts</w>": 2756,
  "etam</w>": 2757,
  "surpres": 2758,
  "spiesetc</w>": 2759,
  "doest</w>": 2760,
  "nighthoods</w>": 2761,
  "transom</w>": 2762,
  "tauted</w>": 2763,
  "chevet": 2764,
  "roded</w>": 2765,
  "flute": 2766,
  "ganocafe</w>": 2767,
  "thesmoney</w>": 2768,
  "doesent</w>": 2769,
  "tionexplo": 2770,
  "thestory": 2771,
  "pinesa</w>": 2772,
  "dolomites</w>": 2773,
  "byone": 2774,
  "strider": 2775,
  "colleras</w>": 2776,
  "hilic</w>": 2777,
  "tassistance</w>": 2778,
  "itybr</w>": 2779,
  "monov": 2780,
  "solike</w>": 2781,
  "onefor</w>": 2782,
  "facee</w>": 2783,
  "tiredits</w>": 2784,
  "turespeak</w>": 2785,
  "halari": 2786,
  "abis": 2787,
  "shyeah</w>": 2788,
  "sucki": 2789,
  "kak</w>": 2790,
  "dramaaction</w>": 2791,
  "despict</w>": 2792,
  "seling</w>": 2793,
  "devoutly</w>": 2794,
  "durye": 2795,
  "lapper</w>": 2796,
  "ramonbr</w>": 2797,
  "problem</w>": 2798,
  "bital</w>": 2799,
  "satirethe</w>": 2800,
  "stold</w>": 2801,
  "tener": 2802,
  "kevins</w>": 2803,
  "capitates</w>": 2804,
  "i": 2805,
  "riches</w>": 2806,
  "bloodbr</w>": 2807,
  "levan</w>": 2808,
  "emon</w>": 2809,
  "atrefilm</w>": 2810,
  "colon</w>": 2811,
  "appendage": 2812,
  "pelagi": 2813,
  "solution": 2814,
  "wamp</w>": 2815,
  "anenov": 2816,
  "gelife</w>": 2817,
  "threefour": 2818,
  "galow": 2819,
  "matesa</w>": 2820,
  "stheyre</w>": 2821,
  "lavi": 2822,
  "itinainene</w>": 2823,
  "sedits</w>": 2824,
  "freeds</w>": 2825,
  "straci": 2826,
  "self</w>": 2827,
  "adames</w>": 2828,
  "thisall</w>": 2829,
  "gantici": 2830,
  "rolesi</w>": 2831,
  "gonna": 2832,
  "commoditisation</w>": 2833,
  "shore</w>": 2834,
  "zinations</w>": 2835,
  "marinate</w>": 2836,
  "merising</w>": 2837,
  "gamerathe</w>": 2838,
  "endeven</w>": 2839,
  "garafalo</w>": 2840,
  "finding</w>": 2841,
  "takenand</w>": 2842,
  "kennels</w>": 2843,
  "gravates</w>": 2844,
  "herorock": 2845,
  "pickup": 2846,
  "outoften</w>": 2847,
  "dvs</w>": 2848,
  "satri": 2849,
  "simi": 2850,
  "oopsy": 2851,
  "mineshaft</w>": 2852,
  "galac": 2853,
  "popularisations</w>": 2854,
  "postaffi": 2855,
  "mitages</w>": 2856,
  "dratefi": 2857,
  "minormal</w>": 2858,
  "ferously</w>": 2859,
  "dobie</w>": 2860,
  "weston": 2861,
  "jas": 2862,
  "uranu": 2863,
  "gris</w>": 2864,
  "jele": 2865,
  "taskit</w>": 2866,
  "span</w>": 2867,
  "isty</w>": 2868,
  "peoplenand</w>": 2869,
  "devs</w>": 2870,
  "shard</w>": 2871,
  "selfironical</w>": 2872,
  "channels</w>": 2873,
  "boners</w>": 2874,
  "denom</w>": 2875,
  "clearly</w>": 2876,
  "whitelist": 2877,
  "heartedyet</w>": 2878,
  "pire</w>": 2879,
  "methemoney</w>": 2880,
  "tonall</w>": 2881,
  "manalac</w>": 2882,
  "adyestab": 2883,
  "romi": 2884,
  "bour": 2885,
  "myers</w>": 2886,
  "comic</w>": 2887,
  "amoured</w>": 2888,
  "tirely": 2889,
  "soulone</w>": 2890,
  "abilitys</w>": 2891,
  "jaspers</w>": 2892,
  "igu</w>": 2893,
  "ghheverything</w>": 2894,
  "brel": 2895,
  "exilebr</w>": 2896,
  "sidefilm</w>": 2897,
  "karum</w>": 2898,
  "macher</w>": 2899,
  "hover": 2900,
  "craplo": 2901,
  "sailed</w>": 2902,
  "gesad": 2903,
  "youll</w>": 2904,
  "parable</w>": 2905,
  "happends</w>": 2906,
  "ampiremeanie</w>": 2907,
  "como": 2908,
  "tackiness</w>": 2909,
  "saidits</w>": 2910,
  "jestic</w>": 2911,
  "alighting</w>": 2912,
  "moroc": 2913,
  "splendorous</w>": 2914,
  "draws</w>": 2915,
  "lana": 2916,
  "tisenn": 2917,
  "unalterable</w>": 2918,
  "queur</w>": 2919,
  "jonesesquire</w>": 2920,
  "cissists</w>": 2921,
  "brams</w>": 2922,
  "daway</w>": 2923,
  "enjoyedbr</w>": 2924,
  "cury</w>": 2925,
  "kassirs</w>": 2926,
  "fopin": 2927,
  "thav": 2928,
  "coles</w>": 2929,
  "imam</w>": 2930,
  "fagini</w>": 2931,
  "villages</w>": 2932,
  "name</w>": 2933,
  "prerelease</w>": 2934,
  "tawint</w>": 2935,
  "selfadver": 2936,
  "canell</w>": 2937,
  "chetybr</w>": 2938,
  "offan</w>": 2939,
  "scapena</w>": 2940,
  "rendering</w>": 2941,
  "ronnell</w>": 2942,
  "sintense</w>": 2943,
  "kampala</w>": 2944,
  "devoured</w>": 2945,
  "garrigle</w>": 2946,
  "stes</w>": 2947,
  "hearteven</w>": 2948,
  "habit</w>": 2949,
  "leshe": 2950,
  "woo</w>": 2951,
  "summises</w>": 2952,
  "nicka": 2953,
  "mmefatales</w>": 2954,
  "lavo": 2955,
  "jelou": 2956,
  "icelands</w>": 2957,
  "greeter</w>": 2958,
  "elangelo</w>": 2959,
  "familyori": 2960,
  "gallup</w>": 2961,
  "grimes": 2962,
  "nacking</w>": 2963,
  "sarrived</w>": 2964,
  "auto</w>": 2965,
  "mede": 2966,
  "giguys</w>": 2967,
  "yearly</w>": 2968,
  "olo</w>": 2969,
  "todeath</w>": 2970,
  "leary": 2971,
  "proposals</w>": 2972,
  "fransisco</w>": 2973,
  "nici": 2974,
  "edith</w>": 2975,
  "trelated</w>": 2976,
  "aro": 2977,
  "dimbored</w>": 2978,
  "garic</w>": 2979,
  "duper</w>": 2980,
  "lefree</w>": 2981,
  "aisex</w>": 2982,
  "ganise</w>": 2983,
  "cedramaand</w>": 2984,
  "lared</w>": 2985,
  "curing</w>": 2986,
  "felinelike</w>": 2987,
  "pabrai</w>": 2988,
  "erick": 2989,
  "mup": 2990,
  "sonnage</w>": 2991,
  "bananna</w>": 2992,
  "alex": 2993,
  "dener</w>": 2994,
  "mball</w>": 2995,
  "facenneli": 2996,
  "seton</w>": 2997,
  "generalities</w>": 2998,
  "nag": 2999,
  "chimeras</w>": 3000,
  "neared</w>": 3001,
  "matel</w>": 3002,
  "wartime</w>": 3003,
  "stony</w>": 3004,
  "cession</w>": 3005,
  "ritistwisted</w>": 3006,
  "sassination</w>": 3007,
  "bility": 3008,
  "hanirabin</w>": 3009,
  "tans</w>": 3010,
  "fetishand</w>": 3011,
  "icer": 3012,
  "zefferel": 3013,
  "graded</w>": 3014,
  "mpe": 3015,
  "stricks</w>": 3016,
  "litup</w>": 3017,
  "sawant</w>": 3018,
  "camila</w>": 3019,
  "some": 3020,
  "keeps</w>": 3021,
  "hexachor": 3022,
  "amer</w>": 3023,
  "minimal</w>": 3024,
  "grimms</w>": 3025,
  "habitan": 3026,
  "prosceni": 3027,
  "goodas</w>": 3028,
  "tamely</w>": 3029,
  "gely": 3030,
  "roro": 3031,
  "yerabend</w>": 3032,
  "migenes</w>": 3033,
  "gomu": 3034,
  "goodor</w>": 3035,
  "daviscould</w>": 3036,
  "shopall</w>": 3037,
  "geli": 3038,
  "iceto": 3039,
  "ras": 3040,
  "vocals</w>": 3041,
  "storybr</w>": 3042,
  "wadequinn</w>": 3043,
  "dravis</w>": 3044,
  "cross</w>": 3045,
  "fintech</w>": 3046,
  "salomaas</w>": 3047,
  "tivelybr</w>": 3048,
  "underex": 3049,
  "aganis": 3050,
  "mooradi": 3051,
  "benefactors</w>": 3052,
  "savit": 3053,
  "quinn": 3054,
  "marti</w>": 3055,
  "abis</w>": 3056,
  "cads</w>": 3057,
  "mirages</w>": 3058,
  "rochicku": 3059,
  "nup</w>": 3060,
  "cretsbr</w>": 3061,
  "kalamaz": 3062,
  "alats</w>": 3063,
  "stagee": 3064,
  "onably</w>": 3065,
  "grubs</w>": 3066,
  "mm": 3067,
  "stouts</w>": 3068,
  "dakin</w>": 3069,
  "beths</w>": 3070,
  "tobys</w>": 3071,
  "westie</w>": 3072,
  "naroma</w>": 3073,
  "nacho</w>": 3074,
  "lampoons</w>": 3075,
  "stolen": 3076,
  "screennot</w>": 3077,
  "kestaff</w>": 3078,
  "jestys</w>": 3079,
  "bonedry</w>": 3080,
  "compositionbr</w>": 3081,
  "astie</w>": 3082,
  "wallys</w>": 3083,
  "isame</w>": 3084,
  "posesand</w>": 3085,
  "elects</w>": 3086,
  "punished</w>": 3087,
  "jeri</w>": 3088,
  "worl": 3089,
  "veronabr</w>": 3090,
  "spital": 3091,
  "ledeleasa</w>": 3092,
  "reformer</w>": 3093,
  "kinescope": 3094,
  "asexy</w>": 3095,
  "ronously</w>": 3096,
  "asi</w>": 3097,
  "bye": 3098,
  "fidelities</w>": 3099,
  "garrick</w>": 3100,
  "booboos</w>": 3101,
  "dobes</w>": 3102,
  "statin</w>": 3103,
  "badun": 3104,
  "inerand</w>": 3105,
  "sthandiligent</w>": 3106,
  "blackedup</w>": 3107,
  "breaky</w>": 3108,
  "schoolish</w>": 3109,
  "brasili": 3110,
  "katies</w>": 3111,
  "himbo</w>": 3112,
  "premature</w>": 3113,
  "genesis": 3114,
  "moby</w>": 3115,
  "serolebr</w>": 3116,
  "storelike</w>": 3117,
  "bagemouth</w>": 3118,
  "plasticit</w>": 3119,
  "lends</w>": 3120,
  "eders</w>": 3121,
  "linek</w>": 3122,
  "milikable</w>": 3123,
  "devile</w>": 3124,
  "miley</w>": 3125,
  "nutrition</w>": 3126,
  "bbi</w>": 3127,
  "caart</w>": 3128,
  "acavallo</w>": 3129,
  "resonation</w>": 3130,
  "adu": 3131,
  "plops</w>": 3132,
  "amit": 3133,
  "sabotaged</w>": 3134,
  "cku": 3135,
  "moored</w>": 3136,
  "lavers</w>": 3137,
  "rashing</w>": 3138,
  "bain": 3139,
  "avored</w>": 3140,
  "defy</w>": 3141,
  "thusast</w>": 3142,
  "fanning</w>": 3143,
  "muneration</w>": 3144,
  "lagomor": 3145,
  "yelashes</w>": 3146,
  "shipand</w>": 3147,
  "thistle</w>": 3148,
  "samaurai</w>": 3149,
  "napping</w>": 3150,
  "goodbr</w>": 3151,
  "onews</w>": 3152,
  "tremor</w>": 3153,
  "queshadid</w>": 3154,
  "finetunetrain</w>": 3155,
  "yepisode</w>": 3156,
  "camu": 3157,
  "primary</w>": 3158,
  "tramarital</w>": 3159,
  "iret": 3160,
  "shomo": 3161,
  "kitamura</w>": 3162,
  "caresany": 3163,
  "nametake</w>": 3164,
  "chily": 3165,
  "sck": 3166,
  "keleton</w>": 3167,
  "tocar</w>": 3168,
  "ascotwearing</w>": 3169,
  "banger</w>": 3170,
  "pulationa</w>": 3171,
  "therapys</w>": 3172,
  "heravoid</w>": 3173,
  "preyes</w>": 3174,
  "cheesie</w>": 3175,
  "dimyers</w>": 3176,
  "sureness</w>": 3177,
  "genjoy</w>": 3178,
  "geearen": 3179,
  "sacary</w>": 3180,
  "do": 3181,
  "fires</w>": 3182,
  "keelers</w>": 3183,
  "outho": 3184,
  "puritans</w>": 3185,
  "trane": 3186,
  "licex</w>": 3187,
  "orolev</w>": 3188,
  "apand</w>": 3189,
  "actors</w>": 3190,
  "kethowever": 3191,
  "mesh": 3192,
  "serenely</w>": 3193,
  "revolutionarybr</w>": 3194,
  "wasto</w>": 3195,
  "helaas</w>": 3196,
  "itwriting</w>": 3197,
  "ku</w>": 3198,
  "gabor</w>": 3199,
  "stathams</w>": 3200,
  "trinit": 3201,
  "uto</w>": 3202,
  "brashear</w>": 3203,
  "microwaves</w>": 3204,
  "existin": 3205,
  "datee": 3206,
  "desplats</w>": 3207,
  "achoo</w>": 3208,
  "widemouthed</w>": 3209,
  "copulation</w>": 3210,
  "mames</w>": 3211,
  "jacket</w>": 3212,
  "cracks</w>": 3213,
  "thocy": 3214,
  "spinel": 3215,
  "rainin</w>": 3216,
  "gobetween</w>": 3217,
  "chirag": 3218,
  "asilyoffended</w>": 3219,
  "gesel": 3220,
  "bance</w>": 3221,
  "sana": 3222,
  "neev</w>": 3223,
  "spiers</w>": 3224,
  "herit</w>": 3225,
  "example</w>": 3226,
  "maiming</w>": 3227,
  "tainn": 3228,
  "shabbily</w>": 3229,
  "pada</w>": 3230,
  "bulous</w>": 3231,
  "trapur</w>": 3232,
  "chanically": 3233,
  "meu": 3234,
  "meteries</w>": 3235,
  "suth</w>": 3236,
  "datan</w>": 3237,
  "rag</w>": 3238,
  "toryes</w>": 3239,
  "michener</w>": 3240,
  "gretable</w>": 3241,
  "approved</w>": 3242,
  "bolam</w>": 3243,
  "twains</w>": 3244,
  "during</w>": 3245,
  "onestore": 3246,
  "nightwin": 3247,
  "nistwi": 3248,
  "imbr</w>": 3249,
  "fitin</w>": 3250,
  "muscle</w>": 3251,
  "caroline</w>": 3252,
  "rooned</w>": 3253,
  "scab": 3254,
  "nitric</w>": 3255,
  "camominty</w>": 3256,
  "avon</w>": 3257,
  "distically</w>": 3258,
  "peels</w>": 3259,
  "recogniton</w>": 3260,
  "solopreneur</w>": 3261,
  "four": 3262,
  "lori</w>": 3263,
  "sible</w>": 3264,
  "pauper</w>": 3265,
  "penal": 3266,
  "racu": 3267,
  "screenall</w>": 3268,
  "six</w>": 3269,
  "they</w>": 3270,
  "stever</w>": 3271,
  "callously</w>": 3272,
  "glutamine": 3273,
  "kelee": 3274,
  "cestor</w>": 3275,
  "midevil</w>": 3276,
  "micki</w>": 3277,
  "sulebr</w>": 3278,
  "abos</w>": 3279,
  "lackawanna</w>": 3280,
  "nacked</w>": 3281,
  "neweyes</w>": 3282,
  "nees</w>": 3283,
  "lockamani": 3284,
  "nard</w>": 3285,
  "compositely</w>": 3286,
  "modifying</w>": 3287,
  "strati": 3288,
  "moviethe</w>": 3289,
  "palil": 3290,
  "rostin": 3291,
  "cafolait</w>": 3292,
  "gap</w>": 3293,
  "sassino</w>": 3294,
  "probation</w>": 3295,
  "parolini</w>": 3296,
  "preliterate</w>": 3297,
  "tam</w>": 3298,
  "shake": 3299,
  "seler</w>": 3300,
  "ghun": 3301,
  "golas</w>": 3302,
  "changelo": 3303,
  "endurance</w>": 3304,
  "lovedof</w>": 3305,
  "manicures</w>": 3306,
  "risisthere</w>": 3307,
  "jarin</w>": 3308,
  "flaki": 3309,
  "yesight</w>": 3310,
  "beloveds</w>": 3311,
  "placeit</w>": 3312,
  "ristoffer</w>": 3313,
  "kered": 3314,
  "cerunamok</w>": 3315,
  "mationa</w>": 3316,
  "asestu": 3317,
  "chunder</w>": 3318,
  "appoloni": 3319,
  "jenney</w>": 3320,
  "peroo</w>": 3321,
  "ties</w>": 3322,
  "roclub</w>": 3323,
  "thick</w>": 3324,
  "bang</w>": 3325,
  "authoress</w>": 3326,
  "iseshe</w>": 3327,
  "anyonenot</w>": 3328,
  "leflavored</w>": 3329,
  "indi</w>": 3330,
  "chocolatefu": 3331,
  "manure": 3332,
  "pochath</w>": 3333,
  "rane</w>": 3334,
  "jarabic</w>": 3335,
  "vodaphone</w>": 3336,
  "crapall</w>": 3337,
  "immor": 3338,
  "ligrams</w>": 3339,
  "chability</w>": 3340,
  "grabo": 3341,
  "wallen</w>": 3342,
  "james</w>": 3343,
  "retinas</w>": 3344,
  "devising</w>": 3345,
  "daapproved</w>": 3346,
  "aranaware</w>": 3347,
  "restrainedly</w>": 3348,
  "suro</w>": 3349,
  "solicitu": 3350,
  "againalso</w>": 3351,
  "kenough</w>": 3352,
  "segue</w>": 3353,
  "amberoshi": 3354,
  "eloups</w>": 3355,
  "brick": 3356,
  "delici": 3357,
  "indifference</w>": 3358,
  "mastering</w>": 3359,
  "nite": 3360,
  "cesthe</w>": 3361,
  "suranne</w>": 3362,
  "coffees</w>": 3363,
  "coco</w>": 3364,
  "aint": 3365,
  "donor": 3366,
  "fennig</w>": 3367,
  "feds</w>": 3368,
  "von": 3369,
  "faking</w>": 3370,
  "paceend</w>": 3371,
  "shimbe": 3372,
  "heavenn</w>": 3373,
  "kangely": 3374,
  "realized</w>": 3375,
  "hilo</w>": 3376,
  "wery</w>": 3377,
  "selfoh</w>": 3378,
  "ganas</w>": 3379,
  "car</w>": 3380,
  "moun": 3381,
  "nana</w>": 3382,
  "copen": 3383,
  "fifis</w>": 3384,
  "pretty</w>": 3385,
  "ramya</w>": 3386,
  "danesbr</w>": 3387,
  "defininitive</w>": 3388,
  "apoperalevel</w>": 3389,
  "foli": 3390,
  "leted</w>": 3391,
  "recourse</w>": 3392,
  "disasterun": 3393,
  "cataw": 3394,
  "hobby": 3395,
  "meself": 3396,
  "wacket</w>": 3397,
  "motiv</w>": 3398,
  "radishes</w>": 3399,
  "mceefly</w>": 3400,
  "standar": 3401,
  "adyet</w>": 3402,
  "aroused</w>": 3403,
  "annat": 3404,
  "aside": 3405,
  "youthere</w>": 3406,
  "prilo": 3407,
  "thankyou</w>": 3408,
  "barakat</w>": 3409,
  "facadething</w>": 3410,
  "backend</w>": 3411,
  "kak": 3412,
  "midau": 3413,
  "choca": 3414,
  "tolini</w>": 3415,
  "lods</w>": 3416,
  "dopatri": 3417,
  "lini": 3418,
  "karound</w>": 3419,
  "meu</w>": 3420,
  "judah</w>": 3421,
  "polonis</w>": 3422,
  "mur</w>": 3423,
  "spacebr</w>": 3424,
  "hengon": 3425,
  "tira</w>": 3426,
  "nass</w>": 3427,
  "where</w>": 3428,
  "tamp</w>": 3429,
  "norel": 3430,
  "suros</w>": 3431,
  "malari": 3432,
  "retraces</w>": 3433,
  "sumire</w>": 3434,
  "itedbr</w>": 3435,
  "cocredit</w>": 3436,
  "manir": 3437,
  "kes</w>": 3438,
  "meaning</w>": 3439,
  "tolists</w>": 3440,
  "holl</w>": 3441,
  "mbasic</w>": 3442,
  "dishing</w>": 3443,
  "batin": 3444,
  "adintru": 3445,
  "turans</w>": 3446,
  "theyear</w>": 3447,
  "theradi": 3448,
  "takenaka</w>": 3449,
  "prow": 3450,
  "onaires</w>": 3451,
  "binding</w>": 3452,
  "matic</w>": 3453,
  "set</w>": 3454,
  "hel": 3455,
  "selander</w>": 3456,
  "leased</w>": 3457,
  "docu</w>": 3458,
  "raima</w>": 3459,
  "mapp": 3460,
  "toulouse</w>": 3461,
  "filmmy</w>": 3462,
  "garishou": 3463,
  "phoor": 3464,
  "kaboom</w>": 3465,
  "stastes</w>": 3466,
  "nimbly</w>": 3467,
  "abolish": 3468,
  "supremo</w>": 3469,
  "colead</w>": 3470,
  "chotherapists</w>": 3471,
  "anonis</w>": 3472,
  "dini</w>": 3473,
  "younai</w>": 3474,
  "anai</w>": 3475,
  "fonabout</w>": 3476,
  "nnabsolutely</w>": 3477,
  "beautone</w>": 3478,
  "anni": 3479,
  "caber": 3480,
  "flakesa</w>": 3481,
  "shakex</w>": 3482,
  "teleflick</w>": 3483,
  "bang": 3484,
  "paganistic</w>": 3485,
  "hope": 3486,
  "bloodru": 3487,
  "frit": 3488,
  "lami</w>": 3489,
  "outi</w>": 3490,
  "saryunless</w>": 3491,
  "unnu": 3492,
  "soff</w>": 3493,
  "ched</w>": 3494,
  "cun": 3495,
  "awa</w>": 3496,
  "jonni": 3497,
  "tomasel": 3498,
  "improves</w>": 3499,
  "milestone</w>": 3500,
  "twitty</w>": 3501,
  "combinedbr</w>": 3502,
  "mmagni": 3503,
  "proposing</w>": 3504,
  "thesan": 3505,
  "sees</w>": 3506,
  "opat</w>": 3507,
  "powerautomate</w>": 3508,
  "hetoromance</w>": 3509,
  "nonabra": 3510,
  "agut": 3511,
  "abow": 3512,
  "redvines</w>": 3513,
  "rasputin</w>": 3514,
  "chesthe</w>": 3515,
  "bob": 3516,
  "compadre</w>": 3517,
  "segals</w>": 3518,
  "sonce</w>": 3519,
  "alerii</w>": 3520,
  "lapag": 3521,
  "sele": 3522,
  "intended</w>": 3523,
  "realisticlike</w>": 3524,
  "officers</w>": 3525,
  "wonderi</w>": 3526,
  "disgutin": 3527,
  "renews</w>": 3528,
  "mar": 3529,
  "nisten</w>": 3530,
  "reshu": 3531,
  "kedi</w>": 3532,
  "doommovie</w>": 3533,
  "medit": 3534,
  "edou": 3535,
  "itou": 3536,
  "meditationbr</w>": 3537,
  "thera": 3538,
  "ponents</w>": 3539,
  "subusual</w>": 3540,
  "zels</w>": 3541,
  "aaton</w>": 3542,
  "subreferences</w>": 3543,
  "sedation</w>": 3544,
  "esin</w>": 3545,
  "grices</w>": 3546,
  "twisource</w>": 3547,
  "touret": 3548,
  "positionbr</w>": 3549,
  "timesits</w>": 3550,
  "playbr</w>": 3551,
  "gran</w>": 3552,
  "napi</w>": 3553,
  "scenesare</w>": 3554,
  "mbering</w>": 3555,
  "thesampar": 3556,
  "zeroshot</w>": 3557,
  "gitay</w>": 3558,
  "stam": 3559,
  "selfaccep": 3560,
  "tracompelling</w>": 3561,
  "morons</w>": 3562,
  "bangers</w>": 3563,
  "hinter</w>": 3564,
  "intesely</w>": 3565,
  "meani</w>": 3566,
  "gratefull</w>": 3567,
  "habitable</w>": 3568,
  "teeline</w>": 3569,
  "bestalthough</w>": 3570,
  "ool</w>": 3571,
  "lathing</w>": 3572,
  "jeffere": 3573,
  "fedaughter</w>": 3574,
  "lauradu": 3575,
  "pedofile</w>": 3576,
  "stashe</w>": 3577,
  "appa": 3578,
  "limo": 3579,
  "homeschoolers</w>": 3580,
  "depressions</w>": 3581,
  "twat</w>": 3582,
  "networ": 3583,
  "trespon": 3584,
  "cesome</w>": 3585,
  "creteary</w>": 3586,
  "whishaw</w>": 3587,
  "failedrescu": 3588,
  "heston</w>": 3589,
  "adept</w>": 3590,
  "toner</w>": 3591,
  "restrictions</w>": 3592,
  "getresour": 3593,
  "nnexpect</w>": 3594,
  "flute</w>": 3595,
  "annex</w>": 3596,
  "tombed</w>": 3597,
  "vitality": 3598,
  "redos</w>": 3599,
  "lethora</w>": 3600,
  "thused</w>": 3601,
  "letine</w>": 3602,
  "jero": 3603,
  "ata</w>": 3604,
  "surealis": 3605,
  "goreunfortunately</w>": 3606,
  "apostoles</w>": 3607,
  "stil": 3608,
  "adratic": 3609,
  "amaspiring</w>": 3610,
  "cam": 3611,
  "sally</w>": 3612,
  "saleen</w>": 3613,
  "hangeron</w>": 3614,
  "cheat</w>": 3615,
  "obeli": 3616,
  "stride</w>": 3617,
  "mii</w>": 3618,
  "execution</w>": 3619,
  "erocks</w>": 3620,
  "autodeli": 3621,
  "gimped</w>": 3622,
  "aachen</w>": 3623,
  "leaus</w>": 3624,
  "omissi": 3625,
  "godis</w>": 3626,
  "lorode": 3627,
  "coc": 3628,
  "machine": 3629,
  "ninapolitan</w>": 3630,
  "annabr</w>": 3631,
  "sals</w>": 3632,
  "wages</w>": 3633,
  "point": 3634,
  "route": 3635,
  "foremo": 3636,
  "machineleaning</w>": 3637,
  "acour": 3638,
  "chetypical</w>": 3639,
  "mity</w>": 3640,
  "minther": 3641,
  "anu": 3642,
  "travail</w>": 3643,
  "spacetalk</w>": 3644,
  "whatabeauti": 3645,
  "afening</w>": 3646,
  "frut</w>": 3647,
  "attendant</w>": 3648,
  "dopers</w>": 3649,
  "mouthery</w>": 3650,
  "bravest</w>": 3651,
  "erig</w>": 3652,
  "aureli": 3653,
  "sescenes</w>": 3654,
  "feration</w>": 3655,
  "pithis</w>": 3656,
  "kinis</w>": 3657,
  "scy": 3658,
  "mun": 3659,
  "mistakably</w>": 3660,
  "tonnand</w>": 3661,
  "whatevs</w>": 3662,
  "mbecause</w>": 3663,
  "nown</w>": 3664,
  "micros</w>": 3665,
  "achhealth</w>": 3666,
  "vesecond</w>": 3667,
  "dishesclean</w>": 3668,
  "mate</w>": 3669,
  "lerical</w>": 3670,
  "toprice</w>": 3671,
  "henols</w>": 3672,
  "jaa</w>": 3673,
  "tina": 3674,
  "fatefirst</w>": 3675,
  "kemono</w>": 3676,
  "effie</w>": 3677,
  "happenedbr</w>": 3678,
  "patestyle</w>": 3679,
  "galeri": 3680,
  "nabooboo</w>": 3681,
  "sasunaru</w>": 3682,
  "agent</w>": 3683,
  "tenjo": 3684,
  "tionalised</w>": 3685,
  "supremerobespier": 3686,
  "scasts</w>": 3687,
  "isolationbr</w>": 3688,
  "scare": 3689,
  "bili": 3690,
  "mangi": 3691,
  "awen": 3692,
  "wayonly</w>": 3693,
  "mops</w>": 3694,
  "keno</w>": 3695,
  "canood": 3696,
  "darin": 3697,
  "cetal": 3698,
  "aamir</w>": 3699,
  "handedbr</w>": 3700,
  "superimportant</w>": 3701,
  "ver": 3702,
  "opa": 3703,
  "seeither</w>": 3704,
  "spirational</w>": 3705,
  "pricin": 3706,
  "setivities</w>": 3707,
  "tabsur": 3708,
  "ace": 3709,
  "retw": 3710,
  "lity</w>": 3711,
  "smolo": 3712,
  "cinemato": 3713,
  "erite</w>": 3714,
  "noonemore": 3715,
  "habilitate</w>": 3716,
  "originate</w>": 3717,
  "esters</w>": 3718,
  "endue</w>": 3719,
  "freed</w>": 3720,
  "schoolat</w>": 3721,
  "shineee</w>": 3722,
  "neesthe</w>": 3723,
  "keurig</w>": 3724,
  "rammel</w>": 3725,
  "slexi": 3726,
  "codify</w>": 3727,
  "sexual</w>": 3728,
  "braten</w>": 3729,
  "fatals</w>": 3730,
  "zedits</w>": 3731,
  "veel</w>": 3732,
  "plomats</w>": 3733,
  "limmer": 3734,
  "timenot</w>": 3735,
  "hennesy</w>": 3736,
  "masculate</w>": 3737,
  "carolin": 3738,
  "ritab": 3739,
  "aaghh</w>": 3740,
  "queens</w>": 3741,
  "episodeespecially</w>": 3742,
  "donable</w>": 3743,
  "opathic</w>": 3744,
  "turesquely</w>": 3745,
  "media</w>": 3746,
  "dunneare</w>": 3747,
  "patrice</w>": 3748,
  "marilyns</w>": 3749,
  "branagh</w>": 3750,
  "bickering</w>": 3751,
  "daang": 3752,
  "byone</w>": 3753,
  "shitech</w>": 3754,
  "foretol": 3755,
  "goned</w>": 3756,
  "gh": 3757,
  "eradicates</w>": 3758,
  "toons</w>": 3759,
  "tennau": 3760,
  "schooners</w>": 3761,
  "timised</w>": 3762,
  "mimajor</w>": 3763,
  "mases</w>": 3764,
  "thanded</w>": 3765,
  "iterated": 3766,
  "thighs</w>": 3767,
  "gary": 3768,
  "homicide": 3769,
  "packaged</w>": 3770,
  "xicand</w>": 3771,
  "waking</w>": 3772,
  "beefy</w>": 3773,
  "gai": 3774,
  "spri": 3775,
  "ashores</w>": 3776,
  "appalin": 3777,
  "descent</w>": 3778,
  "vintage</w>": 3779,
  "docool</w>": 3780,
  "fouryearold</w>": 3781,
  "slet</w>": 3782,
  "pesticidesbr</w>": 3783,
  "berationist</w>": 3784,
  "hilarai": 3785,
  "heels</w>": 3786,
  "mametype</w>": 3787,
  "stie</w>": 3788,
  "rapopor": 3789,
  "chel": 3790,
  "erathis</w>": 3791,
  "cholesterol</w>": 3792,
  "dachi</w>": 3793,
  "shakequot</w>": 3794,
  "sequi": 3795,
  "diculous</w>": 3796,
  "robo": 3797,
  "panting</w>": 3798,
  "tionori": 3799,
  "manitari": 3800,
  "borefest</w>": 3801,
  "supee": 3802,
  "platters</w>": 3803,
  "summating</w>": 3804,
  "proof</w>": 3805,
  "moorefilms</w>": 3806,
  "sprig</w>": 3807,
  "rolic": 3808,
  "ssiters</w>": 3809,
  "lenews</w>": 3810,
  "tow</w>": 3811,
  "quis</w>": 3812,
  "schs</w>": 3813,
  "figis</w>": 3814,
  "deponent</w>": 3815,
  "learys</w>": 3816,
  "precolu": 3817,
  "tedited</w>": 3818,
  "stacy</w>": 3819,
  "gamely</w>": 3820,
  "savagely</w>": 3821,
  "bened": 3822,
  "movietheir</w>": 3823,
  "battery</w>": 3824,
  "goli</w>": 3825,
  "romaro</w>": 3826,
  "felates</w>": 3827,
  "shhee": 3828,
  "veself</w>": 3829,
  "grine</w>": 3830,
  "meno</w>": 3831,
  "posit</w>": 3832,
  "tesque</w>": 3833,
  "nav</w>": 3834,
  "crying</w>": 3835,
  "onetime</w>": 3836,
  "granatetangerine</w>": 3837,
  "maci": 3838,
  "snickering</w>": 3839,
  "nishis</w>": 3840,
  "filmat</w>": 3841,
  "magimel</w>": 3842,
  "brot</w>": 3843,
  "miniscent</w>": 3844,
  "carethe</w>": 3845,
  "nelut": 3846,
  "shish": 3847,
  "grete</w>": 3848,
  "steele</w>": 3849,
  "ocado</w>": 3850,
  "hallo</w>": 3851,
  "portra": 3852,
  "onen</w>": 3853,
  "unironically</w>": 3854,
  "intodu": 3855,
  "jani": 3856,
  "mangobr</w>": 3857,
  "listit</w>": 3858,
  "sleves</w>": 3859,
  "toowell</w>": 3860,
  "drake": 3861,
  "unimaginary</w>": 3862,
  "movienn": 3863,
  "cenothin": 3864,
  "sidedown": 3865,
  "supere": 3866,
  "theallen</w>": 3867,
  "spats</w>": 3868,
  "cera</w>": 3869,
  "primal</w>": 3870,
  "scana</w>": 3871,
  "ravelin": 3872,
  "kapado": 3873,
  "acomo</w>": 3874,
  "jaadu</w>": 3875,
  "competents</w>": 3876,
  "stama</w>": 3877,
  "gaslighting</w>": 3878,
  "dadoobr</w>": 3879,
  "gana</w>": 3880,
  "authored": 3881,
  "segun": 3882,
  "rutabagas</w>": 3883,
  "lamamore</w>": 3884,
  "inteligent</w>": 3885,
  "twarear": 3886,
  "betweeners</w>": 3887,
  "chicanery</w>": 3888,
  "sely": 3889,
  "flac": 3890,
  "macis": 3891,
  "dreu": 3892,
  "thenew": 3893,
  "pansive</w>": 3894,
  "pennin": 3895,
  "lolim</w>": 3896,
  "ginfor</w>": 3897,
  "rocketbr</w>": 3898,
  "raisers</w>": 3899,
  "studio</w>": 3900,
  "ferather</w>": 3901,
  "predominance</w>": 3902,
  "soulely</w>": 3903,
  "batting</w>": 3904,
  "cutetoo</w>": 3905,
  "selfeng": 3906,
  "heartedly</w>": 3907,
  "ditionany": 3908,
  "irak</w>": 3909,
  "trainerand</w>": 3910,
  "minimalister</w>": 3911,
  "atrist": 3912,
  "skicker</w>": 3913,
  "ammurder</w>": 3914,
  "box</w>": 3915,
  "zinta</w>": 3916,
  "parole</w>": 3917,
  "jackass</w>": 3918,
  "evolution</w>": 3919,
  "bef": 3920,
  "ev</w>": 3921,
  "medalist</w>": 3922,
  "digicor": 3923,
  "wereat</w>": 3924,
  "vinod</w>": 3925,
  "yoffif</w>": 3926,
  "endemonadventure</w>": 3927,
  "grams</w>": 3928,
  "orend</w>": 3929,
  "forepe": 3930,
  "del": 3931,
  "velybr</w>": 3932,
  "blackabr</w>": 3933,
  "sticking</w>": 3934,
  "imagineer</w>": 3935,
  "spaper</w>": 3936,
  "juts</w>": 3937,
  "riteri": 3938,
  "compiling</w>": 3939,
  "migrations</w>": 3940,
  "rimeri": 3941,
  "goofed</w>": 3942,
  "refine</w>": 3943,
  "futureready</w>": 3944,
  "polos</w>": 3945,
  "nnonce</w>": 3946,
  "prelaw</w>": 3947,
  "canning</w>": 3948,
  "tapes": 3949,
  "lar</w>": 3950,
  "shiners</w>": 3951,
  "adelas</w>": 3952,
  "yetilike</w>": 3953,
  "rapapor": 3954,
  "raisery</w>": 3955,
  "sicaa</w>": 3956,
  "aspons</w>": 3957,
  "allalong</w>": 3958,
  "novelet": 3959,
  "effici": 3960,
  "clare</w>": 3961,
  "houretc</w>": 3962,
  "medown</w>": 3963,
  "rosalie</w>": 3964,
  "sag</w>": 3965,
  "mustwatch</w>": 3966,
  "thut": 3967,
  "plaster": 3968,
  "hammand</w>": 3969,
  "nomad": 3970,
  "cilauro</w>": 3971,
  "generatedbr</w>": 3972,
  "panicy</w>": 3973,
  "inarticulately</w>": 3974,
  "thateverything</w>": 3975,
  "fansi</w>": 3976,
  "empires</w>": 3977,
  "chocolatechi": 3978,
  "sugi</w>": 3979,
  "restrain</w>": 3980,
  "she</w>": 3981,
  "brimmers</w>": 3982,
  "goodin": 3983,
  "stanger</w>": 3984,
  "threestory</w>": 3985,
  "christies</w>": 3986,
  "drais</w>": 3987,
  "atedor</w>": 3988,
  "restruc": 3989,
  "pat</w>": 3990,
  "botham</w>": 3991,
  "ramequot</w>": 3992,
  "frig": 3993,
  "graves</w>": 3994,
  "ativesi</w>": 3995,
  "flagiti": 3996,
  "al": 3997,
  "emotional</w>": 3998,
  "bisi</w>": 3999,
  "cobys</w>": 4000,
  "misub": 4001,
  "trafast</w>": 4002,
  "reversion</w>": 4003,
  "parasarolop": 4004,
  "allask</w>": 4005,
  "vigilance</w>": 4006,
  "sanitory</w>": 4007,
  "park</w>": 4008,
  "keeranor</w>": 4009,
  "mimesbr</w>": 4010,
  "mirural</w>": 4011,
  "bid</w>": 4012,
  "penality": 4013,
  "leafalso</w>": 4014,
  "tuting</w>": 4015,
  "tamir": 4016,
  "missie</w>": 4017,
  "goodyou</w>": 4018,
  "prosthetic": 4019,
  "clonin": 4020,
  "acrew</w>": 4021,
  "omennan": 4022,
  "fef": 4023,
  "vooren</w>": 4024,
  "whether</w>": 4025,
  "place": 4026,
  "chans": 4027,
  "synanomess</w>": 4028,
  "gnis</w>": 4029,
  "stave</w>": 4030,
  "metag": 4031,
  "house</w>": 4032,
  "changa</w>": 4033,
  "lilies</w>": 4034,
  "tamak": 4035,
  "tador": 4036,
  "kaathaala</w>": 4037,
  "crane": 4038,
  "margulies</w>": 4039,
  "pay</w>": 4040,
  "bengay</w>": 4041,
  "spino": 4042,
  "ferestens</w>": 4043,
  "whiteti": 4044,
  "atry</w>": 4045,
  "saamy": 4046,
  "foonery</w>": 4047,
  "breathe</w>": 4048,
  "cakester</w>": 4049,
  "stles</w>": 4050,
  "thelen</w>": 4051,
  "senor</w>": 4052,
  "vitacocobr</w>": 4053,
  "plod</w>": 4054,
  "aginnopenai</w>": 4055,
  "apidity</w>": 4056,
  "dir</w>": 4057,
  "intovic": 4058,
  "jalouse</w>": 4059,
  "unanimou": 4060,
  "taw": 4061,
  "kammer</w>": 4062,
  "wedge</w>": 4063,
  "onethis</w>": 4064,
  "sthriller</w>": 4065,
  "delong</w>": 4066,
  "wellat</w>": 4067,
  "astit</w>": 4068,
  "meansthis</w>": 4069,
  "sannoying</w>": 4070,
  "combo": 4071,
  "rabbinical</w>": 4072,
  "gimbels</w>": 4073,
  "no": 4074,
  "another": 4075,
  "relives</w>": 4076,
  "beenand</w>": 4077,
  "sallo</w>": 4078,
  "samabr</w>": 4079,
  "compete</w>": 4080,
  "edown</w>": 4081,
  "breakin": 4082,
  "transpiring</w>": 4083,
  "narinaanne</w>": 4084,
  "progenitor</w>": 4085,
  "brity</w>": 4086,
  "noms</w>": 4087,
  "thistake</w>": 4088,
  "plannin": 4089,
  "dagobah</w>": 4090,
  "sarawear": 4091,
  "maan</w>": 4092,
  "eton</w>": 4093,
  "nnout": 4094,
  "pined</w>": 4095,
  "tinovs</w>": 4096,
  "canonbr</w>": 4097,
  "desix</w>": 4098,
  "leall</w>": 4099,
  "machismobr</w>": 4100,
  "kanagan</w>": 4101,
  "chee</w>": 4102,
  "tomatobr</w>": 4103,
  "rasu": 4104,
  "arabica</w>": 4105,
  "tame</w>": 4106,
  "yout</w>": 4107,
  "triceratops</w>": 4108,
  "zimbos</w>": 4109,
  "stirs</w>": 4110,
  "hawai</w>": 4111,
  "braced</w>": 4112,
  "chow</w>": 4113,
  "maims</w>": 4114,
  "breather": 4115,
  "directing</w>": 4116,
  "roshomon</w>": 4117,
  "sawedoff</w>": 4118,
  "returns</w>": 4119,
  "howeverid</w>": 4120,
  "famed</w>": 4121,
  "tocher": 4122,
  "nanotechnology</w>": 4123,
  "henas</w>": 4124,
  "litsbr</w>": 4125,
  "neryeah</w>": 4126,
  "natashas</w>": 4127,
  "somani": 4128,
  "datetime</w>": 4129,
  "zinenn</w>": 4130,
  "pered</w>": 4131,
  "fatedbr</w>": 4132,
  "mpeters</w>": 4133,
  "apartbr</w>": 4134,
  "adr</w>": 4135,
  "toocool": 4136,
  "prosarah</w>": 4137,
  "noraat</w>": 4138,
  "waun": 4139,
  "prefab": 4140,
  "stanely</w>": 4141,
  "vigor</w>": 4142,
  "sodas": 4143,
  "akup": 4144,
  "latetheyre</w>": 4145,
  "reuth</w>": 4146,
  "rothers</w>": 4147,
  "bonates</w>": 4148,
  "champlain</w>": 4149,
  "kuto": 4150,
  "tatagroup</w>": 4151,
  "sleek</w>": 4152,
  "omit</w>": 4153,
  "golini</w>": 4154,
  "yonicas</w>": 4155,
  "lovefo": 4156,
  "atricaland</w>": 4157,
  "threeuntil</w>": 4158,
  "hasten</w>": 4159,
  "joure": 4160,
  "xide</w>": 4161,
  "coral": 4162,
  "vile</w>": 4163,
  "aread</w>": 4164,
  "latelynn": 4165,
  "jeu": 4166,
  "bodices</w>": 4167,
  "itwasalladream</w>": 4168,
  "nasty</w>": 4169,
  "nowor": 4170,
  "sodomised</w>": 4171,
  "zering</w>": 4172,
  "gadap": 4173,
  "ransombr</w>": 4174,
  "mammal</w>": 4175,
  "cationnews</w>": 4176,
  "fefor": 4177,
  "bemo": 4178,
  "grimas</w>": 4179,
  "grimily</w>": 4180,
  "bannister</w>": 4181,
  "renewed</w>": 4182,
  "soundtrack</w>": 4183,
  "boomerang</w>": 4184,
  "ritability</w>": 4185,
  "raveup</w>": 4186,
  "honorab": 4187,
  "mequot</w>": 4188,
  "flaveno": 4189,
  "wath": 4190,
  "dunt</w>": 4191,
  "retirement</w>": 4192,
  "elo</w>": 4193,
  "rooper": 4194,
  "steets</w>": 4195,
  "makanaki</w>": 4196,
  "dveronica</w>": 4197,
  "rathair": 4198,
  "pine</w>": 4199,
  "neeleng": 4200,
  "animales</w>": 4201,
  "tiretracks</w>": 4202,
  "quities</w>": 4203,
  "trad": 4204,
  "gredbr</w>": 4205,
  "modules</w>": 4206,
  "lait</w>": 4207,
  "creative</w>": 4208,
  "manshow</w>": 4209,
  "whitered</w>": 4210,
  "paste</w>": 4211,
  "cupies</w>": 4212,
  "tremendous</w>": 4213,
  "patrici": 4214,
  "solider</w>": 4215,
  "thefunofit</w>": 4216,
  "facef": 4217,
  "di</w>": 4218,
  "ravenous</w>": 4219,
  "partisanship</w>": 4220,
  "hening</w>": 4221,
  "marathon</w>": 4222,
  "praisequot</w>": 4223,
  "ops</w>": 4224,
  "ghalf</w>": 4225,
  "lety</w>": 4226,
  "coutur</w>": 4227,
  "lering</w>": 4228,
  "maineseemingly</w>": 4229,
  "ranical</w>": 4230,
  "viene</w>": 4231,
  "cocets</w>": 4232,
  "angelesorange</w>": 4233,
  "fannie</w>": 4234,
  "timbu": 4235,
  "jamboree</w>": 4236,
  "share": 4237,
  "strir": 4238,
  "masques</w>": 4239,
  "cockas</w>": 4240,
  "anticommunis": 4241,
  "nobrand</w>": 4242,
  "brotherits</w>": 4243,
  "mulaic</w>": 4244,
  "tationbr</w>": 4245,
  "baketamon</w>": 4246,
  "venger</w>": 4247,
  "cammareri</w>": 4248,
  "realize</w>": 4249,
  "alarmy</w>": 4250,
  "weetand</w>": 4251,
  "desent</w>": 4252,
  "segun</w>": 4253,
  "olinist</w>": 4254,
  "celery</w>": 4255,
  "somethimes</w>": 4256,
  "hammet": 4257,
  "yeviden": 4258,
  "monotony</w>": 4259,
  "limed</w>": 4260,
  "jamal</w>": 4261,
  "cracker</w>": 4262,
  "mac": 4263,
  "profran": 4264,
  "lefood</w>": 4265,
  "mce": 4266,
  "trainer": 4267,
  "mans": 4268,
  "buton</w>": 4269,
  "posi": 4270,
  "pespecially</w>": 4271,
  "bedifferent</w>": 4272,
  "ckin</w>": 4273,
  "risen": 4274,
  "harris": 4275,
  "pour": 4276,
  "studi</w>": 4277,
  "dofini</w>": 4278,
  "angel": 4279,
  "espinner</w>": 4280,
  "acurately</w>": 4281,
  "wins</w>": 4282,
  "surendrannisha</w>": 4283,
  "elenawickers</w>": 4284,
  "paradise": 4285,
  "maurice": 4286,
  "afraid</w>": 4287,
  "sinthasomphones</w>": 4288,
  "lesperance</w>": 4289,
  "haci": 4290,
  "kasakus</w>": 4291,
  "danavac": 4292,
  "himself</w>": 4293,
  "diffuses</w>": 4294,
  "ended": 4295,
  "isthere": 4296,
  "kestheres</w>": 4297,
  "mause</w>": 4298,
  "kethat</w>": 4299,
  "posestraining</w>": 4300,
  "yoopah</w>": 4301,
  "doran</w>": 4302,
  "neseri</w>": 4303,
  "sonnets</w>": 4304,
  "ime": 4305,
  "lynni</w>": 4306,
  "style</w>": 4307,
  "phonedin</w>": 4308,
  "volou": 4309,
  "indicts</w>": 4310,
  "reties</w>": 4311,
  "brats</w>": 4312,
  "torin</w>": 4313,
  "threering</w>": 4314,
  "sceneri": 4315,
  "hamagetting</w>": 4316,
  "astri": 4317,
  "thisthough</w>": 4318,
  "provocations</w>": 4319,
  "missused</w>": 4320,
  "probe</w>": 4321,
  "sques": 4322,
  "withon</w>": 4323,
  "gothas</w>": 4324,
  "finacky</w>": 4325,
  "brut": 4326,
  "trendbr</w>": 4327,
  "stwrite</w>": 4328,
  "bastasi": 4329,
  "cabar": 4330,
  "dinner": 4331,
  "pene</w>": 4332,
  "jannin": 4333,
  "gries</w>": 4334,
  "speedin": 4335,
  "chocos</w>": 4336,
  "requisite</w>": 4337,
  "gastritis</w>": 4338,
  "woodens</w>": 4339,
  "shadowhel": 4340,
  "pirationbr</w>": 4341,
  "castaway": 4342,
  "ck</w>": 4343,
  "fatima</w>": 4344,
  "oneliners</w>": 4345,
  "esita</w>": 4346,
  "gould</w>": 4347,
  "leeach</w>": 4348,
  "leroom</w>": 4349,
  "turised</w>": 4350,
  "ishas</w>": 4351,
  "theth": 4352,
  "lethen</w>": 4353,
  "cupying</w>": 4354,
  "tivitis</w>": 4355,
  "sicist": 4356,
  "clap": 4357,
  "clots</w>": 4358,
  "beur": 4359,
  "gerated</w>": 4360,
  "pretrained</w>": 4361,
  "servicesi</w>": 4362,
  "cocina</w>": 4363,
  "yolanda</w>": 4364,
  "caution</w>": 4365,
  "icky": 4366,
  "railo</w>": 4367,
  "angeles</w>": 4368,
  "anethe</w>": 4369,
  "dominicas</w>": 4370,
  "compression</w>": 4371,
  "pares</w>": 4372,
  "rorori": 4373,
  "flation</w>": 4374,
  "promisebr</w>": 4375,
  "roompup": 4376,
  "writing</w>": 4377,
  "abigails</w>": 4378,
  "matheques</w>": 4379,
  "spineles": 4380,
  "lapping</w>": 4381,
  "ofali": 4382,
  "tivethough</w>": 4383,
  "steeland": 4384,
  "avail": 4385,
  "kelol": 4386,
  "tacular": 4387,
  "saudience</w>": 4388,
  "sees": 4389,
  "edamp": 4390,
  "baru": 4391,
  "moon</w>": 4392,
  "wold</w>": 4393,
  "flar": 4394,
  "tistencoun": 4395,
  "brunt</w>": 4396,
  "meanand</w>": 4397,
  "rutbr</w>": 4398,
  "caligola</w>": 4399,
  "dered": 4400,
  "dim": 4401,
  "imagerys</w>": 4402,
  "woodrules</w>": 4403,
  "viridi": 4404,
  "safran": 4405,
  "todayunder": 4406,
  "reur</w>": 4407,
  "ghaman": 4408,
  "tedis</w>": 4409,
  "clintincredible</w>": 4410,
  "tirity</w>": 4411,
  "edge</w>": 4412,
  "strango": 4413,
  "sprinted</w>": 4414,
  "unnoticedbr</w>": 4415,
  "medowns</w>": 4416,
  "stee": 4417,
  "cadets</w>": 4418,
  "culinarys</w>": 4419,
  "metaphoric</w>": 4420,
  "weeteners</w>": 4421,
  "alable</w>": 4422,
  "memp": 4423,
  "spici": 4424,
  "alistically</w>": 4425,
  "lupe</w>": 4426,
  "sonorous</w>": 4427,
  "pricking</w>": 4428,
  "cescoli</w>": 4429,
  "contact</w>": 4430,
  "mastan": 4431,
  "discoveredif</w>": 4432,
  "sin": 4433,
  "asurer</w>": 4434,
  "siderationit</w>": 4435,
  "lenevic": 4436,
  "sauri": 4437,
  "quorice</w>": 4438,
  "ning</w>": 4439,
  "racis": 4440,
  "communis": 4441,
  "gomerybr</w>": 4442,
  "itively</w>": 4443,
  "gite</w>": 4444,
  "taisto": 4445,
  "weenick</w>": 4446,
  "dill</w>": 4447,
  "coma</w>": 4448,
  "cinerates</w>": 4449,
  "zeev</w>": 4450,
  "goober</w>": 4451,
  "monocolor</w>": 4452,
  "keteam</w>": 4453,
  "setrap</w>": 4454,
  "offices</w>": 4455,
  "whack</w>": 4456,
  "desperatly</w>": 4457,
  "meanie</w>": 4458,
  "sh": 4459,
  "relights</w>": 4460,
  "sune": 4461,
  "ape": 4462,
  "sirex": 4463,
  "wackines": 4464,
  "ridicoulus</w>": 4465,
  "tionistic</w>": 4466,
  "ethin</w>": 4467,
  "paul</w>": 4468,
  "sumab": 4469,
  "traplot</w>": 4470,
  "creden": 4471,
  "charis": 4472,
  "streetwise": 4473,
  "halito": 4474,
  "milanos</w>": 4475,
  "imamurabr</w>": 4476,
  "drake</w>": 4477,
  "shandara</w>": 4478,
  "picy</w>": 4479,
  "odedre": 4480,
  "misappre": 4481,
  "alistair</w>": 4482,
  "capacitybr</w>": 4483,
  "kura</w>": 4484,
  "opposesbr</w>": 4485,
  "codified</w>": 4486,
  "zequeen</w>": 4487,
  "rediscoveries</w>": 4488,
  "setup": 4489,
  "caligula</w>": 4490,
  "therere</w>": 4491,
  "haning</w>": 4492,
  "adicams</w>": 4493,
  "hasas</w>": 4494,
  "servin": 4495,
  "jobbr</w>": 4496,
  "tooney</w>": 4497,
  "esig": 4498,
  "developping</w>": 4499,
  "improving</w>": 4500,
  "blunder": 4501,
  "ghesy</w>": 4502,
  "ckiss</w>": 4503,
  "worlow": 4504,
  "amigos</w>": 4505,
  "nastyetc</w>": 4506,
  "takaragai": 4507,
  "bestbr</w>": 4508,
  "castex": 4509,
  "specked</w>": 4510,
  "saman</w>": 4511,
  "sprouting</w>": 4512,
  "campy": 4513,
  "mclou": 4514,
  "milesper": 4515,
  "macaroni</w>": 4516,
  "deary</w>": 4517,
  "esthesi": 4518,
  "canada</w>": 4519,
  "menopau": 4520,
  "spree": 4521,
  "fit": 4522,
  "odicallybr</w>": 4523,
  "dilation</w>": 4524,
  "tyul": 4525,
  "merised</w>": 4526,
  "lesounding</w>": 4527,
  "wainainas</w>": 4528,
  "gestive</w>": 4529,
  "elenore</w>": 4530,
  "onanyway</w>": 4531,
  "stable</w>": 4532,
  "apiece</w>": 4533,
  "goran</w>": 4534,
  "nutrition": 4535,
  "shall": 4536,
  "docky": 4537,
  "etically</w>": 4538,
  "efinstead</w>": 4539,
  "ouras</w>": 4540,
  "platethe</w>": 4541,
  "ghedbr</w>": 4542,
  "monocal": 4543,
  "anticop</w>": 4544,
  "vetalking</w>": 4545,
  "taco": 4546,
  "doneness</w>": 4547,
  "letybr</w>": 4548,
  "thy</w>": 4549,
  "od": 4550,
  "imbalance</w>": 4551,
  "matures</w>": 4552,
  "tragically</w>": 4553,
  "by": 4554,
  "agespeaking</w>": 4555,
  "kaite</w>": 4556,
  "cinimon</w>": 4557,
  "aphod</w>": 4558,
  "aspoon</w>": 4559,
  "tricorder</w>": 4560,
  "companiment</w>": 4561,
  "arabicabr</w>": 4562,
  "foodi": 4563,
  "saif</w>": 4564,
  "ronous</w>": 4565,
  "samc</w>": 4566,
  "hens</w>": 4567,
  "prag</w>": 4568,
  "puredanger</w>": 4569,
  "allasi": 4570,
  "goul": 4571,
  "pother": 4572,
  "sighing</w>": 4573,
  "eurocrime</w>": 4574,
  "moris": 4575,
  "loupimen": 4576,
  "sachs</w>": 4577,
  "banish</w>": 4578,
  "intheshower</w>": 4579,
  "spores</w>": 4580,
  "cen</w>": 4581,
  "screenas</w>": 4582,
  "chardona": 4583,
  "gir": 4584,
  "papaw</w>": 4585,
  "fici</w>": 4586,
  "hardy</w>": 4587,
  "cuses</w>": 4588,
  "sches</w>": 4589,
  "lawanother</w>": 4590,
  "inexpensive</w>": 4591,
  "timetrig": 4592,
  "desolationbr</w>": 4593,
  "notyet</w>": 4594,
  "zico</w>": 4595,
  "aboutsbr</w>": 4596,
  "icide": 4597,
  "raig": 4598,
  "ticular</w>": 4599,
  "resound": 4600,
  "leasbr</w>": 4601,
  "scured</w>": 4602,
  "spacesuit</w>": 4603,
  "avacado": 4604,
  "cress</w>": 4605,
  "sabout</w>": 4606,
  "cools</w>": 4607,
  "abag</w>": 4608,
  "wayof": 4609,
  "sticky": 4610,
  "shery": 4611,
  "jackinthe": 4612,
  "landid</w>": 4613,
  "aton": 4614,
  "cineliterate</w>": 4615,
  "sichor": 4616,
  "ssils</w>": 4617,
  "genically</w>": 4618,
  "mesters</w>": 4619,
  "pup</w>": 4620,
  "nicer</w>": 4621,
  "amok</w>": 4622,
  "leavesbr</w>": 4623,
  "vela</w>": 4624,
  "forevereven</w>": 4625,
  "rocodile</w>": 4626,
  "paintedup</w>": 4627,
  "empire</w>": 4628,
  "weetish</w>": 4629,
  "blackened</w>": 4630,
  "filmbut</w>": 4631,
  "beelike</w>": 4632,
  "queevalue</w>": 4633,
  "macking</w>": 4634,
  "ochak</w>": 4635,
  "recognitionbr</w>": 4636,
  "perishable</w>": 4637,
  "absolutel": 4638,
  "tured": 4639,
  "ciros</w>": 4640,
  "lassily</w>": 4641,
  "arets</w>": 4642,
  "rorexplo": 4643,
  "alteredbr</w>": 4644,
  "prefederation</w>": 4645,
  "voli": 4646,
  "contemporaries</w>": 4647,
  "geral": 4648,
  "leed": 4649,
  "neresquire</w>": 4650,
  "rawan": 4651,
  "bunch</w>": 4652,
  "crapok</w>": 4653,
  "timedirected</w>": 4654,
  "itid</w>": 4655,
  "aginas": 4656,
  "masochistic</w>": 4657,
  "wooferit</w>": 4658,
  "procure</w>": 4659,
  "romper": 4660,
  "speculates</w>": 4661,
  "itivelyn</w>": 4662,
  "pau</w>": 4663,
  "posadas</w>": 4664,
  "tweetin": 4665,
  "themat</w>": 4666,
  "pestbr</w>": 4667,
  "socan</w>": 4668,
  "spoland": 4669,
  "mouthagape</w>": 4670,
  "openais</w>": 4671,
  "charade</w>": 4672,
  "toranimator</w>": 4673,
  "stabulary</w>": 4674,
  "onethird</w>": 4675,
  "timprac": 4676,
  "rocketed": 4677,
  "grafiches": 4678,
  "nakelin": 4679,
  "berel</w>": 4680,
  "trav": 4681,
  "volup": 4682,
  "brunos</w>": 4683,
  "onestory</w>": 4684,
  "tatty</w>": 4685,
  "putty</w>": 4686,
  "theshirodi": 4687,
  "evering</w>": 4688,
  "cameraderie</w>": 4689,
  "omodo</w>": 4690,
  "laru": 4691,
  "anists</w>": 4692,
  "gyet</w>": 4693,
  "jens</w>": 4694,
  "mashing</w>": 4695,
  "hopefully</w>": 4696,
  "thhe</w>": 4697,
  "sthanspecial</w>": 4698,
  "feshot</w>": 4699,
  "taku": 4700,
  "highhat</w>": 4701,
  "ferable</w>": 4702,
  "refilm</w>": 4703,
  "unitbr</w>": 4704,
  "refe</w>": 4705,
  "cinammon</w>": 4706,
  "assi</w>": 4707,
  "lachs</w>": 4708,
  "beris</w>": 4709,
  "manghat": 4710,
  "calange</w>": 4711,
  "fora": 4712,
  "manity": 4713,
  "discommunication</w>": 4714,
  "sinessin": 4715,
  "stantively</w>": 4716,
  "panyone</w>": 4717,
  "retailer": 4718,
  "pefury": 4719,
  "codenand</w>": 4720,
  "finessing</w>": 4721,
  "subbr</w>": 4722,
  "racan": 4723,
  "latinamerican</w>": 4724,
  "tanno": 4725,
  "discover</w>": 4726,
  "hamms</w>": 4727,
  "maticallyunique</w>": 4728,
  "ocratic</w>": 4729,
  "lemother</w>": 4730,
  "maaco</w>": 4731,
  "coper": 4732,
  "sumatra</w>": 4733,
  "naruto</w>": 4734,
  "nedout": 4735,
  "kimbr</w>": 4736,
  "cherish": 4737,
  "witit</w>": 4738,
  "sampras</w>": 4739,
  "laterera</w>": 4740,
  "bapapa</w>": 4741,
  "lap</w>": 4742,
  "herences</w>": 4743,
  "prospects</w>": 4744,
  "ganos</w>": 4745,
  "suri</w>": 4746,
  "itv</w>": 4747,
  "getically</w>": 4748,
  "sque</w>": 4749,
  "iletbr</w>": 4750,
  "stworthybr</w>": 4751,
  "caren": 4752,
  "labouring</w>": 4753,
  "goneso</w>": 4754,
  "havana</w>": 4755,
  "limps</w>": 4756,
  "averys</w>": 4757,
  "pighe": 4758,
  "alis": 4759,
  "jolina</w>": 4760,
  "spaders</w>": 4761,
  "anon</w>": 4762,
  "tomake": 4763,
  "rasheed</w>": 4764,
  "wily": 4765,
  "chickenin</w>": 4766,
  "astonished</w>": 4767,
  "fulalso</w>": 4768,
  "riten</w>": 4769,
  "plaster</w>": 4770,
  "advan": 4771,
  "providedbr</w>": 4772,
  "restive</w>": 4773,
  "nightwing</w>": 4774,
  "comish": 4775,
  "mpers</w>": 4776,
  "gannas</w>": 4777,
  "sicki</w>": 4778,
  "harilall</w>": 4779,
  "intestinespsy": 4780,
  "lelow</w>": 4781,
  "multidigit</w>": 4782,
  "nature</w>": 4783,
  "rafal</w>": 4784,
  "serat</w>": 4785,
  "raini": 4786,
  "ckering</w>": 4787,
  "favorito</w>": 4788,
  "squee</w>": 4789,
  "seurs</w>": 4790,
  "pablo</w>": 4791,
  "commenters</w>": 4792,
  "jobon": 4793,
  "veres": 4794,
  "ures</w>": 4795,
  "mpul": 4796,
  "arid</w>": 4797,
  "whitest</w>": 4798,
  "basically</w>": 4799,
  "cannister</w>": 4800,
  "coffin</w>": 4801,
  "waashero</w>": 4802,
  "dry</w>": 4803,
  "polarisation</w>": 4804,
  "splay</w>": 4805,
  "y</w>": 4806,
  "retina</w>": 4807,
  "apoperatic</w>": 4808,
  "cavate</w>": 4809,
  "anaisabel": 4810,
  "codo": 4811,
  "effireman</w>": 4812,
  "deposited</w>": 4813,
  "rofa": 4814,
  "sammys</w>": 4815,
  "unemotive</w>": 4816,
  "dedunder": 4817,
  "servil": 4818,
  "bagedu": 4819,
  "moviequality</w>": 4820,
  "lestuck</w>": 4821,
  "resolute</w>": 4822,
  "cupit</w>": 4823,
  "statenaudit": 4824,
  "apours</w>": 4825,
  "doren</w>": 4826,
  "tistexper": 4827,
  "anesa</w>": 4828,
  "linters</w>": 4829,
  "schidigera</w>": 4830,
  "dependent</w>": 4831,
  "malil</w>": 4832,
  "wisely</w>": 4833,
  "afaring</w>": 4834,
  "pockets</w>": 4835,
  "attendance</w>": 4836,
  "urer</w>": 4837,
  "kicka</w>": 4838,
  "manating</w>": 4839,
  "bestespecially</w>": 4840,
  "leunless</w>": 4841,
  "asurements</w>": 4842,
  "kinison</w>": 4843,
  "aisi</w>": 4844,
  "kataly": 4845,
  "adany": 4846,
  "bbard</w>": 4847,
  "trame": 4848,
  "filmive</w>": 4849,
  "step</w>": 4850,
  "reference</w>": 4851,
  "jenn": 4852,
  "woodised</w>": 4853,
  "malecentered</w>": 4854,
  "ramil": 4855,
  "leda</w>": 4856,
  "cuped</w>": 4857,
  "prosper</w>": 4858,
  "garoll</w>": 4859,
  "ocomp</w>": 4860,
  "lica": 4861,
  "stano": 4862,
  "trini": 4863,
  "donutsbr</w>": 4864,
  "leana</w>": 4865,
  "enator": 4866,
  "driness</w>": 4867,
  "laplan": 4868,
  "paving</w>": 4869,
  "tired</w>": 4870,
  "arising</w>": 4871,
  "imets</w>": 4872,
  "meric": 4873,
  "mispit": 4874,
  "kasmall</w>": 4875,
  "unopposed</w>": 4876,
  "filmit</w>": 4877,
  "lelands</w>": 4878,
  "sappy": 4879,
  "sawas": 4880,
  "gophobic</w>": 4881,
  "amaking</w>": 4882,
  "founders</w>": 4883,
  "waling</w>": 4884,
  "litelight</w>": 4885,
  "raris</w>": 4886,
  "roreveryone</w>": 4887,
  "capra</w>": 4888,
  "vis</w>": 4889,
  "grisham</w>": 4890,
  "ilish": 4891,
  "migaruler</w>": 4892,
  "kailu": 4893,
  "senglish</w>": 4894,
  "trasoul</w>": 4895,
  "baur</w>": 4896,
  "oolidea</w>": 4897,
  "shades</w>": 4898,
  "ocabr</w>": 4899,
  "tackin": 4900,
  "amate": 4901,
  "planned": 4902,
  "map": 4903,
  "rambolike</w>": 4904,
  "mmedout</w>": 4905,
  "christen</w>": 4906,
  "posuction</w>": 4907,
  "gigantic</w>": 4908,
  "gonne</w>": 4909,
  "atree</w>": 4910,
  "earing</w>": 4911,
  "twistafter": 4912,
  "whitesand</w>": 4913,
  "relaun": 4914,
  "banist</w>": 4915,
  "sarti": 4916,
  "ampireleader</w>": 4917,
  "mamare</w>": 4918,
  "salof</w>": 4919,
  "devel</w>": 4920,
  "landi": 4921,
  "paa</w>": 4922,
  "contados</w>": 4923,
  "sired</w>": 4924,
  "winnie</w>": 4925,
  "comato": 4926,
  "linewise</w>": 4927,
  "capites</w>": 4928,
  "theda</w>": 4929,
  "partition": 4930,
  "exicted</w>": 4931,
  "blockbr</w>": 4932,
  "om": 4933,
  "betit": 4934,
  "portrayal</w>": 4935,
  "rovers</w>": 4936,
  "rutina</w>": 4937,
  "literation</w>": 4938,
  "loureno</w>": 4939,
  "tabilitybr</w>": 4940,
  "foresaw</w>": 4941,
  "athu": 4942,
  "smo</w>": 4943,
  "itational</w>": 4944,
  "whamo</w>": 4945,
  "scuritybr</w>": 4946,
  "wenglish</w>": 4947,
  "lares</w>": 4948,
  "nitty</w>": 4949,
  "needeep</w>": 4950,
  "immateri": 4951,
  "body": 4952,
  "agility": 4953,
  "feet": 4954,
  "craci": 4955,
  "shopa": 4956,
  "blowhard</w>": 4957,
  "nomes</w>": 4958,
  "imagenn</w>": 4959,
  "dearable</w>": 4960,
  "olatedbr</w>": 4961,
  "sisco</w>": 4962,
  "licitbr</w>": 4963,
  "tamed</w>": 4964,
  "lasters</w>": 4965,
  "micontent</w>": 4966,
  "dopamine</w>": 4967,
  "wavering</w>": 4968,
  "querers</w>": 4969,
  "scared": 4970,
  "channeleveryone</w>": 4971,
  "celet</w>": 4972,
  "toly</w>": 4973,
  "tunate": 4974,
  "graver</w>": 4975,
  "jamie</w>": 4976,
  "pity": 4977,
  "ovari": 4978,
  "agowan": 4979,
  "qute</w>": 4980,
  "pragbr</w>": 4981,
  "tissues</w>": 4982,
  "sowed</w>": 4983,
  "dupre</w>": 4984,
  "cow": 4985,
  "baranski</w>": 4986,
  "sufferes</w>": 4987,
  "supes</w>": 4988,
  "nooni</w>": 4989,
  "efool</w>": 4990,
  "campily</w>": 4991,
  "gendering</w>": 4992,
  "endrent</w>": 4993,
  "ryon": 4994,
  "designintech</w>": 4995,
  "esi</w>": 4996,
  "lorena</w>": 4997,
  "chenjoy</w>": 4998,
  "fect</w>": 4999,
  "romanticis": 5000,
  "lethy": 5001,
  "themim</w>": 5002,
  "toobilly</w>": 5003,
  "eslowly</w>": 5004,
  "inis</w>": 5005,
  "domini</w>": 5006,
  "pide</w>": 5007,
  "gracedisaster": 5008,
  "cor</w>": 5009,
  "nitely</w>": 5010,
  "zerobudget</w>": 5011,
  "bengals</w>": 5012,
  "jeffery": 5013,
  "hatethey</w>": 5014,
  "ganabbot": 5015,
  "veven": 5016,
  "naks</w>": 5017,
  "jeskid</w>": 5018,
  "honours</w>": 5019,
  "stomi": 5020,
  "trexi": 5021,
  "schel": 5022,
  "ghanda</w>": 5023,
  "stoprest</w>": 5024,
  "despo": 5025,
  "moman": 5026,
  "itionbr</w>": 5027,
  "leses</w>": 5028,
  "cenif</w>": 5029,
  "ailiteracy</w>": 5030,
  "kelee</w>": 5031,
  "tiled</w>": 5032,
  "veteraninthe": 5033,
  "smele": 5034,
  "chocolates</w>": 5035,
  "kavanagh</w>": 5036,
  "figuring</w>": 5037,
  "sofriendly</w>": 5038,
  "ratoff</w>": 5039,
  "artidi": 5040,
  "unner": 5041,
  "sagni": 5042,
  "levitated</w>": 5043,
  "talonly</w>": 5044,
  "enovel": 5045,
  "techheavy</w>": 5046,
  "loni</w>": 5047,
  "hextra</w>": 5048,
  "toblock": 5049,
  "aleri": 5050,
  "recon": 5051,
  "father</w>": 5052,
  "exemplary</w>": 5053,
  "racisim</w>": 5054,
  "icos</w>": 5055,
  "wakey</w>": 5056,
  "flabber": 5057,
  "helin</w>": 5058,
  "grape</w>": 5059,
  "retested</w>": 5060,
  "escrew</w>": 5061,
  "alists</w>": 5062,
  "vital": 5063,
  "ghurt</w>": 5064,
  "tionill</w>": 5065,
  "colonists</w>": 5066,
  "cannes": 5067,
  "sumenn": 5068,
  "sophy</w>": 5069,
  "lyour</w>": 5070,
  "spammed</w>": 5071,
  "enjoybr</w>": 5072,
  "timesin</w>": 5073,
  "awesomenn": 5074,
  "soli": 5075,
  "formula</w>": 5076,
  "laramie</w>": 5077,
  "trimming</w>": 5078,
  "gatori": 5079,
  "zennatures</w>": 5080,
  "aboven": 5081,
  "ginnig</w>": 5082,
  "sedrama</w>": 5083,
  "fighter</w>": 5084,
  "amicus</w>": 5085,
  "cration</w>": 5086,
  "jester": 5087,
  "artigot</w>": 5088,
  "goobr</w>": 5089,
  "tisch</w>": 5090,
  "jawed</w>": 5091,
  "zelinas</w>": 5092,
  "makeupa</w>": 5093,
  "leaders</w>": 5094,
  "bobr</w>": 5095,
  "while</w>": 5096,
  "outhoweveri</w>": 5097,
  "wher</w>": 5098,
  "gasop": 5099,
  "manically</w>": 5100,
  "atedincluding</w>": 5101,
  "developed</w>": 5102,
  "omanun": 5103,
  "lutionand</w>": 5104,
  "arith": 5105,
  "sinin": 5106,
  "nnus</w>": 5107,
  "madefor</w>": 5108,
  "sposed</w>": 5109,
  "jonasan": 5110,
  "naroony</w>": 5111,
  "oon</w>": 5112,
  "stwoman</w>": 5113,
  "openair</w>": 5114,
  "shirataki": 5115,
  "laffer": 5116,
  "vevent</w>": 5117,
  "aver</w>": 5118,
  "lavie</w>": 5119,
  "mcised</w>": 5120,
  "henolic</w>": 5121,
  "dra</w>": 5122,
  "poland</w>": 5123,
  "detoured</w>": 5124,
  "spiracy": 5125,
  "santic": 5126,
  "setups</w>": 5127,
  "autorenew</w>": 5128,
  "jesticallybr</w>": 5129,
  "kell</w>": 5130,
  "chedelic</w>": 5131,
  "mpauly</w>": 5132,
  "lintools</w>": 5133,
  "wah</w>": 5134,
  "prat": 5135,
  "welers</w>": 5136,
  "malabimba</w>": 5137,
  "thu": 5138,
  "houselevel</w>": 5139,
  "onnar": 5140,
  "mascheer</w>": 5141,
  "isens</w>": 5142,
  "hafreed</w>": 5143,
  "excited</w>": 5144,
  "sures</w>": 5145,
  "trapper</w>": 5146,
  "atitu": 5147,
  "movieeven</w>": 5148,
  "tofur": 5149,
  "coronado</w>": 5150,
  "breakim</w>": 5151,
  "cesors</w>": 5152,
  "woodybr</w>": 5153,
  "wearenotwaiting</w>": 5154,
  "syour": 5155,
  "oneuniver": 5156,
  "cinerator</w>": 5157,
  "mathematical</w>": 5158,
  "cassions</w>": 5159,
  "cooperatives</w>": 5160,
  "officeyes</w>": 5161,
  "jour": 5162,
  "sonabr</w>": 5163,
  "mobility</w>": 5164,
  "timeshi": 5165,
  "nonnu": 5166,
  "event</w>": 5167,
  "scavanger</w>": 5168,
  "greenery</w>": 5169,
  "licitys</w>": 5170,
  "genome</w>": 5171,
  "seenem</w>": 5172,
  "pengy</w>": 5173,
  "shockedit</w>": 5174,
  "listerin": 5175,
  "elane</w>": 5176,
  "laa</w>": 5177,
  "scenesthough</w>": 5178,
  "picoult</w>": 5179,
  "ticand</w>": 5180,
  "powerin": 5181,
  "pridenas</w>": 5182,
  "moderating</w>": 5183,
  "trappedbr</w>": 5184,
  "goffi": 5185,
  "slera</w>": 5186,
  "brets</w>": 5187,
  "efrem</w>": 5188,
  "gesor</w>": 5189,
  "ka": 5190,
  "finaci": 5191,
  "cretbr</w>": 5192,
  "akily</w>": 5193,
  "stabbed</w>": 5194,
  "lesbr</w>": 5195,
  "merit</w>": 5196,
  "vide": 5197,
  "whileunless</w>": 5198,
  "esaround</w>": 5199,
  "turesposters</w>": 5200,
  "immitating</w>": 5201,
  "balistically</w>": 5202,
  "trashed": 5203,
  "weary": 5204,
  "endi</w>": 5205,
  "hobbiteeri": 5206,
  "mchickabow": 5207,
  "specimens</w>": 5208,
  "goofups</w>": 5209,
  "stworthiness</w>": 5210,
  "improv</w>": 5211,
  "competitionin</w>": 5212,
  "episodedavid</w>": 5213,
  "lavatory</w>": 5214,
  "cheroo</w>": 5215,
  "baracus</w>": 5216,
  "funnels</w>": 5217,
  "bert</w>": 5218,
  "solini": 5219,
  "acapel": 5220,
  "brig</w>": 5221,
  "purer</w>": 5222,
  "nocratic</w>": 5223,
  "priminister</w>": 5224,
  "direfully</w>": 5225,
  "visconti": 5226,
  "sonations</w>": 5227,
  "ligan</w>": 5228,
  "lynnakay</w>": 5229,
  "hackable</w>": 5230,
  "doomed": 5231,
  "telling</w>": 5232,
  "venice</w>": 5233,
  "menill</w>": 5234,
  "letedurani": 5235,
  "safenothing</w>": 5236,
  "theradar</w>": 5237,
  "hearthealthy</w>": 5238,
  "amits</w>": 5239,
  "shamone": 5240,
  "papri</w>": 5241,
  "evers</w>": 5242,
  "uri": 5243,
  "meriting</w>": 5244,
  "netting</w>": 5245,
  "hims</w>": 5246,
  "agh</w>": 5247,
  "believ": 5248,
  "beet": 5249,
  "chichi</w>": 5250,
  "borowit": 5251,
  "ero": 5252,
  "laterim</w>": 5253,
  "maasth": 5254,
  "raisenet": 5255,
  "issimp</w>": 5256,
  "cawood</w>": 5257,
  "fiffer</w>": 5258,
  "missi</w>": 5259,
  "marisol</w>": 5260,
  "ironically</w>": 5261,
  "homour</w>": 5262,
  "clitoris</w>": 5263,
  "seters</w>": 5264,
  "bighowever</w>": 5265,
  "renderedas</w>": 5266,
  "venand</w>": 5267,
  "plodocu": 5268,
  "serving</w>": 5269,
  "une</w>": 5270,
  "elenor</w>": 5271,
  "menit</w>": 5272,
  "episode": 5273,
  "isonline</w>": 5274,
  "polarised</w>": 5275,
  "prescot": 5276,
  "lone": 5277,
  "hedoub": 5278,
  "ridesbr</w>": 5279,
  "staletasting</w>": 5280,
  "hood</w>": 5281,
  "unimaginable</w>": 5282,
  "tyour": 5283,
  "thedrain</w>": 5284,
  "show</w>": 5285,
  "append</w>": 5286,
  "rod": 5287,
  "vitatops</w>": 5288,
  "sleading</w>": 5289,
  "tinto": 5290,
  "telethons</w>": 5291,
  "sexetc</w>": 5292,
  "histo": 5293,
  "ofuse</w>": 5294,
  "casel</w>": 5295,
  "scoured</w>": 5296,
  "angelou</w>": 5297,
  "noted": 5298,
  "gisel": 5299,
  "rigo": 5300,
  "cambodi": 5301,
  "naig": 5302,
  "rim": 5303,
  "selfand</w>": 5304,
  "squo</w>": 5305,
  "shamefacedly</w>": 5306,
  "seshit</w>": 5307,
  "phonetab": 5308,
  "k</w>": 5309,
  "asinni</w>": 5310,
  "iress</w>": 5311,
  "lantica</w>": 5312,
  "applen</w>": 5313,
  "machined</w>": 5314,
  "jessicavi": 5315,
  "bail": 5316,
  "hhah</w>": 5317,
  "hato": 5318,
  "banes</w>": 5319,
  "nomatter": 5320,
  "gracefully</w>": 5321,
  "rubbisheven</w>": 5322,
  "trun</w>": 5323,
  "moovie</w>": 5324,
  "bedri": 5325,
  "timbrook</w>": 5326,
  "stissues</w>": 5327,
  "realisebr</w>": 5328,
  "ffes</w>": 5329,
  "partay</w>": 5330,
  "heep</w>": 5331,
  "ffautbr</w>": 5332,
  "nationalist</w>": 5333,
  "match</w>": 5334,
  "mmaking</w>": 5335,
  "culationn": 5336,
  "ronin</w>": 5337,
  "leric": 5338,
  "devore": 5339,
  "toolittle</w>": 5340,
  "derails</w>": 5341,
  "rita</w>": 5342,
  "romanticised</w>": 5343,
  "jackbr</w>": 5344,
  "ginine</w>": 5345,
  "deflate</w>": 5346,
  "caresi</w>": 5347,
  "porely</w>": 5348,
  "ticul": 5349,
  "sprint</w>": 5350,
  "sattention</w>": 5351,
  "lecked</w>": 5352,
  "outof": 5353,
  "nico</w>": 5354,
  "twangs</w>": 5355,
  "gotin": 5356,
  "hess</w>": 5357,
  "themesit</w>": 5358,
  "pack</w>": 5359,
  "retail</w>": 5360,
  "codered</w>": 5361,
  "pocketing</w>": 5362,
  "prerace</w>": 5363,
  "daneshe": 5364,
  "ethey</w>": 5365,
  "butwhen</w>": 5366,
  "imaging</w>": 5367,
  "webinar</w>": 5368,
  "improverefine</w>": 5369,
  "traitbr</w>": 5370,
  "toobright</w>": 5371,
  "letake</w>": 5372,
  "filmafter</w>": 5373,
  "rimareviewer</w>": 5374,
  "amo": 5375,
  "futurenn": 5376,
  "atem</w>": 5377,
  "angeli</w>": 5378,
  "nem</w>": 5379,
  "kanef": 5380,
  "morenni</w>": 5381,
  "itaint": 5382,
  "ela</w>": 5383,
  "sok</w>": 5384,
  "thanair</w>": 5385,
  "careeven</w>": 5386,
  "cockiness</w>": 5387,
  "minada</w>": 5388,
  "bats</w>": 5389,
  "atening</w>": 5390,
  "benign</w>": 5391,
  "thestar": 5392,
  "ling</w>": 5393,
  "brilates</w>": 5394,
  "omer</w>": 5395,
  "takur</w>": 5396,
  "thapar": 5397,
  "romy</w>": 5398,
  "ovic": 5399,
  "jurisp": 5400,
  "nalls</w>": 5401,
  "whatwe": 5402,
  "until</w>": 5403,
  "nag</w>": 5404,
  "dinarily</w>": 5405,
  "avil</w>": 5406,
  "cremator</w>": 5407,
  "esthanks</w>": 5408,
  "mmangen</w>": 5409,
  "madethough</w>": 5410,
  "oconner</w>": 5411,
  "ousunaccep": 5412,
  "ashi": 5413,
  "acetate</w>": 5414,
  "vender</w>": 5415,
  "manet": 5416,
  "romo": 5417,
  "ists</w>": 5418,
  "anatate</w>": 5419,
  "nonexisting</w>": 5420,
  "kedonline</w>": 5421,
  "laughand</w>": 5422,
  "hathise</w>": 5423,
  "bait": 5424,
  "timeline": 5425,
  "sinometric</w>": 5426,
  "localesie</w>": 5427,
  "felicitous</w>": 5428,
  "heren": 5429,
  "fomance</w>": 5430,
  "sathemed</w>": 5431,
  "rambo</w>": 5432,
  "schooler": 5433,
  "faru": 5434,
  "outriders</w>": 5435,
  "lapel</w>": 5436,
  "citrate": 5437,
  "ammalammadin": 5438,
  "galoo</w>": 5439,
  "flages</w>": 5440,
  "caricaturetype</w>": 5441,
  "natonbr</w>": 5442,
  "machinesni</w>": 5443,
  "levin": 5444,
  "moodill</w>": 5445,
  "gapeach</w>": 5446,
  "everyonelt</w>": 5447,
  "colu": 5448,
  "originali</w>": 5449,
  "lerists</w>": 5450,
  "cemori": 5451,
  "mistakenn": 5452,
  "matri": 5453,
  "chariti": 5454,
  "esir</w>": 5455,
  "sitag": 5456,
  "idering</w>": 5457,
  "nacki</w>": 5458,
  "rut</w>": 5459,
  "operators</w>": 5460,
  "fences</w>": 5461,
  "subop": 5462,
  "tator": 5463,
  "lavefriend</w>": 5464,
  "thirard</w>": 5465,
  "lican</w>": 5466,
  "eradicating</w>": 5467,
  "onethats</w>": 5468,
  "rakesh</w>": 5469,
  "louts</w>": 5470,
  "scenese</w>": 5471,
  "lovetri": 5472,
  "motive</w>": 5473,
  "redolent</w>": 5474,
  "bothand</w>": 5475,
  "control</w>": 5476,
  "kesher": 5477,
  "empirefull</w>": 5478,
  "spybr</w>": 5479,
  "macade": 5480,
  "endincluding</w>": 5481,
  "dampens</w>": 5482,
  "cis": 5483,
  "pitiless</w>": 5484,
  "spinoff</w>": 5485,
  "capone</w>": 5486,
  "gob": 5487,
  "seither</w>": 5488,
  "magera</w>": 5489,
  "cein</w>": 5490,
  "esyou</w>": 5491,
  "memorab": 5492,
  "trell</w>": 5493,
  "crapola</w>": 5494,
  "drange": 5495,
  "commicha": 5496,
  "ceitful</w>": 5497,
  "bagbr</w>": 5498,
  "festakureng": 5499,
  "antispasmodic</w>": 5500,
  "manar": 5501,
  "giss</w>": 5502,
  "ficebr</w>": 5503,
  "soro</w>": 5504,
  "thef": 5505,
  "godd</w>": 5506,
  "flane</w>": 5507,
  "shaw</w>": 5508,
  "mithun</w>": 5509,
  "pawy</w>": 5510,
  "sulin": 5511,
  "ilani</w>": 5512,
  "aturelenght</w>": 5513,
  "overused</w>": 5514,
  "mawas</w>": 5515,
  "grades</w>": 5516,
  "allas</w>": 5517,
  "dalls</w>": 5518,
  "lil": 5519,
  "outbr</w>": 5520,
  "complain": 5521,
  "trapolate</w>": 5522,
  "yoult</w>": 5523,
  "iths</w>": 5524,
  "wach</w>": 5525,
  "tirelybr</w>": 5526,
  "nutiv": 5527,
  "quedu": 5528,
  "jobs</w>": 5529,
  "clove": 5530,
  "stwy": 5531,
  "vere": 5532,
  "comicinspired</w>": 5533,
  "polically</w>": 5534,
  "pakistani</w>": 5535,
  "makeshi": 5536,
  "american": 5537,
  "boyer": 5538,
  "discretionary</w>": 5539,
  "timimistic</w>": 5540,
  "dris": 5541,
  "genitaila</w>": 5542,
  "mansize</w>": 5543,
  "chopra</w>": 5544,
  "dunder": 5545,
  "brea</w>": 5546,
  "helene</w>": 5547,
  "estimationbr</w>": 5548,
  "olev</w>": 5549,
  "gical": 5550,
  "thou</w>": 5551,
  "exploredbr</w>": 5552,
  "winev": 5553,
  "kinesis</w>": 5554,
  "tenne": 5555,
  "baliser": 5556,
  "kenes": 5557,
  "fedefining</w>": 5558,
  "trelease</w>": 5559,
  "spiracybr</w>": 5560,
  "ganic</w>": 5561,
  "cames</w>": 5562,
  "leerin": 5563,
  "daf": 5564,
  "cure": 5565,
  "that": 5566,
  "compostable</w>": 5567,
  "heder</w>": 5568,
  "sprobably</w>": 5569,
  "mmb</w>": 5570,
  "lavedri": 5571,
  "elected</w>": 5572,
  "wadin": 5573,
  "chowesquire</w>": 5574,
  "janets</w>": 5575,
  "glu</w>": 5576,
  "oric</w>": 5577,
  "fite": 5578,
  "conartists</w>": 5579,
  "siden": 5580,
  "nonendin": 5581,
  "bulaga</w>": 5582,
  "athel": 5583,
  "simo": 5584,
  "jer": 5585,
  "traver": 5586,
  "medication</w>": 5587,
  "annemo": 5588,
  "furo</w>": 5589,
  "fechanging</w>": 5590,
  "ac": 5591,
  "timed</w>": 5592,
  "curaca": 5593,
  "highs</w>": 5594,
  "damm": 5595,
  "moopy</w>": 5596,
  "lynew": 5597,
  "puritanis": 5598,
  "fansone</w>": 5599,
  "shaga": 5600,
  "period</w>": 5601,
  "spender": 5602,
  "linedifferent</w>": 5603,
  "wampit</w>": 5604,
  "yet": 5605,
  "wapped</w>": 5606,
  "bbil</w>": 5607,
  "butalas</w>": 5608,
  "ederek</w>": 5609,
  "loobeelou</w>": 5610,
  "ghe": 5611,
  "iscorn</w>": 5612,
  "gailed</w>": 5613,
  "gunnery</w>": 5614,
  "fates": 5615,
  "hadah</w>": 5616,
  "shappen</w>": 5617,
  "pililappears</w>": 5618,
  "innes</w>": 5619,
  "moviestars</w>": 5620,
  "clinical</w>": 5621,
  "athi</w>": 5622,
  "schint": 5623,
  "posobi": 5624,
  "sler": 5625,
  "taut</w>": 5626,
  "reexplain</w>": 5627,
  "neurodevelop": 5628,
  "averagou": 5629,
  "amye": 5630,
  "oneself": 5631,
  "purinaa</w>": 5632,
  "aromawow</w>": 5633,
  "stoped</w>": 5634,
  "enable</w>": 5635,
  "data</w>": 5636,
  "minine</w>": 5637,
  "lecas": 5638,
  "iscu": 5639,
  "probo": 5640,
  "overy</w>": 5641,
  "polare": 5642,
  "spiritbr</w>": 5643,
  "scomblo": 5644,
  "relate": 5645,
  "aditya</w>": 5646,
  "schoolenglish</w>": 5647,
  "nasty": 5648,
  "oompaloompas</w>": 5649,
  "cheesethe</w>": 5650,
  "revisited</w>": 5651,
  "preading</w>": 5652,
  "cali": 5653,
  "kassie</w>": 5654,
  "gamineness</w>": 5655,
  "operation": 5656,
  "tearup</w>": 5657,
  "judge</w>": 5658,
  "sonit</w>": 5659,
  "sligh": 5660,
  "rassimovs</w>": 5661,
  "stiring</w>": 5662,
  "probs</w>": 5663,
  "haras": 5664,
  "releasebr</w>": 5665,
  "tution</w>": 5666,
  "lisain": 5667,
  "lackeli": 5668,
  "haulocast</w>": 5669,
  "muthat": 5670,
  "lantisthe</w>": 5671,
  "ra": 5672,
  "lericals</w>": 5673,
  "gofide": 5674,
  "ridiculou": 5675,
  "leenex</w>": 5676,
  "senator</w>": 5677,
  "athen": 5678,
  "lyoud</w>": 5679,
  "letree</w>": 5680,
  "timesat</w>": 5681,
  "itely</w>": 5682,
  "listin": 5683,
  "computadora</w>": 5684,
  "dan</w>": 5685,
  "band</w>": 5686,
  "partalso</w>": 5687,
  "leasuretype</w>": 5688,
  "multitask</w>": 5689,
  "caked</w>": 5690,
  "tenexperimen": 5691,
  "getty</w>": 5692,
  "saro</w>": 5693,
  "ounens</w>": 5694,
  "andreef</w>": 5695,
  "anend</w>": 5696,
  "fasho</w>": 5697,
  "severes</w>": 5698,
  "orealisticlike</w>": 5699,
  "ghaag</w>": 5700,
  "rosen</w>": 5701,
  "mendres": 5702,
  "travails</w>": 5703,
  "disposal</w>": 5704,
  "mockable</w>": 5705,
  "rete": 5706,
  "tagonistbr</w>": 5707,
  "babash": 5708,
  "chachas</w>": 5709,
  "cigal": 5710,
  "stul": 5711,
  "gashed</w>": 5712,
  "better</w>": 5713,
  "silence</w>": 5714,
  "milebr</w>": 5715,
  "nif</w>": 5716,
  "nonis</w>": 5717,
  "dinators</w>": 5718,
  "zzically</w>": 5719,
  "tag": 5720,
  "complains</w>": 5721,
  "lickapparently</w>": 5722,
  "sapoint": 5723,
  "danni</w>": 5724,
  "downey</w>": 5725,
  "eful": 5726,
  "chabot</w>": 5727,
  "theloun": 5728,
  "brackets</w>": 5729,
  "openainthe</w>": 5730,
  "himm</w>": 5731,
  "zenn": 5732,
  "wayedbr</w>": 5733,
  "doba</w>": 5734,
  "teenori": 5735,
  "landest</w>": 5736,
  "isthomas</w>": 5737,
  "hale": 5738,
  "not</w>": 5739,
  "sestand</w>": 5740,
  "pice</w>": 5741,
  "riles</w>": 5742,
  "sor": 5743,
  "stamina</w>": 5744,
  "cremefilled</w>": 5745,
  "machinere": 5746,
  "spony</w>": 5747,
  "stoneware</w>": 5748,
  "tanain": 5749,
  "tonanother</w>": 5750,
  "dayoh</w>": 5751,
  "retur": 5752,
  "sheedys</w>": 5753,
  "housebr</w>": 5754,
  "omano": 5755,
  "tombes</w>": 5756,
  "blooda</w>": 5757,
  "timesorry</w>": 5758,
  "americar": 5759,
  "recouping</w>": 5760,
  "munney</w>": 5761,
  "happenas": 5762,
  "atureforce</w>": 5763,
  "timetested</w>": 5764,
  "toobut</w>": 5765,
  "refresh": 5766,
  "testin": 5767,
  "charest</w>": 5768,
  "averagethere</w>": 5769,
  "dishy</w>": 5770,
  "figetting</w>": 5771,
  "animal": 5772,
  "asispoof</w>": 5773,
  "stres": 5774,
  "nithari</w>": 5775,
  "thaws</w>": 5776,
  "lespar": 5777,
  "noboo": 5778,
  "pit</w>": 5779,
  "elt</w>": 5780,
  "menende": 5781,
  "nonetoopopular</w>": 5782,
  "stoploss</w>": 5783,
  "aninven": 5784,
  "sont</w>": 5785,
  "davie</w>": 5786,
  "pesits</w>": 5787,
  "gamefor</w>": 5788,
  "atican</w>": 5789,
  "itinerant</w>": 5790,
  "basilish</w>": 5791,
  "nanas</w>": 5792,
  "ramin</w>": 5793,
  "hends</w>": 5794,
  "iself</w>": 5795,
  "caricatured</w>": 5796,
  "bopo": 5797,
  "lesear": 5798,
  "salad</w>": 5799,
  "statutory</w>": 5800,
  "hatic</w>": 5801,
  "cas": 5802,
  "chop</w>": 5803,
  "espers</w>": 5804,
  "tagonistan": 5805,
  "cob": 5806,
  "hastie</w>": 5807,
  "allim</w>": 5808,
  "astwould</w>": 5809,
  "trav</w>": 5810,
  "trendin": 5811,
  "ficically</w>": 5812,
  "euromad": 5813,
  "boveralls</w>": 5814,
  "gression</w>": 5815,
  "misethe</w>": 5816,
  "scoopedout</w>": 5817,
  "habitatbr</w>": 5818,
  "pathi": 5819,
  "dammes</w>": 5820,
  "subor": 5821,
  "lassie</w>": 5822,
  "toros</w>": 5823,
  "what": 5824,
  "harderand</w>": 5825,
  "fedu": 5826,
  "descended</w>": 5827,
  "againfor</w>": 5828,
  "licoricei</w>": 5829,
  "appear</w>": 5830,
  "dominar</w>": 5831,
  "mexican</w>": 5832,
  "mico</w>": 5833,
  "asy": 5834,
  "onenight": 5835,
  "between": 5836,
  "prime": 5837,
  "roborationbr</w>": 5838,
  "hexing</w>": 5839,
  "spooner</w>": 5840,
  "mailun": 5841,
  "annit</w>": 5842,
  "bickers</w>": 5843,
  "ambulan": 5844,
  "raising</w>": 5845,
  "dani": 5846,
  "datavis</w>": 5847,
  "witout</w>": 5848,
  "petu": 5849,
  "agulans</w>": 5850,
  "linereally</w>": 5851,
  "delores</w>": 5852,
  "tras": 5853,
  "atomic</w>": 5854,
  "cinematic</w>": 5855,
  "mph</w>": 5856,
  "isimi": 5857,
  "spun</w>": 5858,
  "daflamb</w>": 5859,
  "callum</w>": 5860,
  "zerosan": 5861,
  "nner</w>": 5862,
  "kela</w>": 5863,
  "adow": 5864,
  "frantickinetic</w>": 5865,
  "gansbr</w>": 5866,
  "rimesol": 5867,
  "away</w>": 5868,
  "tunities</w>": 5869,
  "landes": 5870,
  "adviseradver": 5871,
  "monoton": 5872,
  "antir": 5873,
  "looniness</w>": 5874,
  "connedbr</w>": 5875,
  "tunat": 5876,
  "roomor</w>": 5877,
  "chenglish</w>": 5878,
  "rimefilm": 5879,
  "motherat</w>": 5880,
  "leathers</w>": 5881,
  "maal</w>": 5882,
  "therole": 5883,
  "oolike</w>": 5884,
  "ganisationbr</w>": 5885,
  "prequi": 5886,
  "pical": 5887,
  "abe</w>": 5888,
  "metamu": 5889,
  "wedup": 5890,
  "stital</w>": 5891,
  "bristol": 5892,
  "pieera</w>": 5893,
  "kalediscope</w>": 5894,
  "vils</w>": 5895,
  "abased</w>": 5896,
  "neededanother</w>": 5897,
  "prefering</w>": 5898,
  "cree": 5899,
  "cretonly</w>": 5900,
  "radical</w>": 5901,
  "dam</w>": 5902,
  "velope</w>": 5903,
  "gors</w>": 5904,
  "imagesthis</w>": 5905,
  "listeners</w>": 5906,
  "marich</w>": 5907,
  "aim</w>": 5908,
  "sassinating</w>": 5909,
  "films</w>": 5910,
  "nourish": 5911,
  "tindie</w>": 5912,
  "roles</w>": 5913,
  "ena": 5914,
  "achin</w>": 5915,
  "wasthey</w>": 5916,
  "leshand": 5917,
  "operates</w>": 5918,
  "rossilinis</w>": 5919,
  "theresick": 5920,
  "theek</w>": 5921,
  "gres</w>": 5922,
  "endured</w>": 5923,
  "aren": 5924,
  "weer</w>": 5925,
  "describe</w>": 5926,
  "rosemount</w>": 5927,
  "pically": 5928,
  "descovered</w>": 5929,
  "ampi</w>": 5930,
  "renun": 5931,
  "brasel": 5932,
  "dried</w>": 5933,
  "melodybr</w>": 5934,
  "re</w>": 5935,
  "twork</w>": 5936,
  "etyeverything</w>": 5937,
  "portraitures</w>": 5938,
  "definitionn": 5939,
  "openn": 5940,
  "cedil": 5941,
  "wyood</w>": 5942,
  "kuns</w>": 5943,
  "ansmost</w>": 5944,
  "stolid</w>": 5945,
  "badalmost</w>": 5946,
  "abon": 5947,
  "interestsbr</w>": 5948,
  "funni": 5949,
  "jade": 5950,
  "mashedbr</w>": 5951,
  "amaz</w>": 5952,
  "lada</w>": 5953,
  "modulation</w>": 5954,
  "daying</w>": 5955,
  "gred": 5956,
  "kare</w>": 5957,
  "woof": 5958,
  "maril": 5959,
  "sara</w>": 5960,
  "irani": 5961,
  "dand</w>": 5962,
  "kidand</w>": 5963,
  "atedup</w>": 5964,
  "again</w>": 5965,
  "tabout</w>": 5966,
  "thal</w>": 5967,
  "kalt</w>": 5968,
  "sitive</w>": 5969,
  "nighty</w>": 5970,
  "pretext</w>": 5971,
  "misumis</w>": 5972,
  "gads</w>": 5973,
  "sirish</w>": 5974,
  "shinot</w>": 5975,
  "basaboru</w>": 5976,
  "katooni</w>": 5977,
  "celooking</w>": 5978,
  "nakeda": 5979,
  "micah</w>": 5980,
  "severance</w>": 5981,
  "releating</w>": 5982,
  "mallet</w>": 5983,
  "dopak</w>": 5984,
  "odataf": 5985,
  "transcript</w>": 5986,
  "shen</w>": 5987,
  "sthetic</w>": 5988,
  "clause</w>": 5989,
  "thuse</w>": 5990,
  "landos</w>": 5991,
  "angri": 5992,
  "hopenn</w>": 5993,
  "whities</w>": 5994,
  "shonen</w>": 5995,
  "sidedish</w>": 5996,
  "bino</w>": 5997,
  "trunning</w>": 5998,
  "listenn": 5999,
  "talli": 6000,
  "baron": 6001,
  "tilelaun": 6002,
  "redesig": 6003,
  "bendin": 6004,
  "hatotally</w>": 6005,
  "tivesuspense</w>": 6006,
  "scrit</w>": 6007,
  "esexcept</w>": 6008,
  "complainant</w>": 6009,
  "begins</w>": 6010,
  "melin": 6011,
  "chand</w>": 6012,
  "computations</w>": 6013,
  "alash": 6014,
  "adbr</w>": 6015,
  "campari</w>": 6016,
  "tworth</w>": 6017,
  "beexcept</w>": 6018,
  "mallet": 6019,
  "lobrigi": 6020,
  "gethis</w>": 6021,
  "shop</w>": 6022,
  "caffeen</w>": 6023,
  "nominy</w>": 6024,
  "racistyou</w>": 6025,
  "apiness</w>": 6026,
  "dimitri": 6027,
  "feets</w>": 6028,
  "wheelers</w>": 6029,
  "figure": 6030,
  "irou": 6031,
  "sidestories</w>": 6032,
  "noniced</w>": 6033,
  "refutably</w>": 6034,
  "shescien": 6035,
  "bicker</w>": 6036,
  "onin": 6037,
  "indiscretions</w>": 6038,
  "beens</w>": 6039,
  "dait</w>": 6040,
  "lended": 6041,
  "yonce</w>": 6042,
  "tapestry</w>": 6043,
  "surper": 6044,
  "terrific</w>": 6045,
  "severo</w>": 6046,
  "verasest</w>": 6047,
  "dunnewho</w>": 6048,
  "theys</w>": 6049,
  "opolitici": 6050,
  "fascinate</w>": 6051,
  "commend</w>": 6052,
  "preteen": 6053,
  "achbr</w>": 6054,
  "mco": 6055,
  "yothers</w>": 6056,
  "ethos</w>": 6057,
  "storerobbing</w>": 6058,
  "bicharacters</w>": 6059,
  "predicates": 6060,
  "hasis</w>": 6061,
  "ghallu": 6062,
  "lisarinna</w>": 6063,
  "anshu</w>": 6064,
  "penner</w>": 6065,
  "afied</w>": 6066,
  "mishy": 6067,
  "sooner</w>": 6068,
  "doone</w>": 6069,
  "reten": 6070,
  "larri": 6071,
  "webul": 6072,
  "postedbr</w>": 6073,
  "stupi": 6074,
  "soly": 6075,
  "inie</w>": 6076,
  "tiras</w>": 6077,
  "scli": 6078,
  "sapien": 6079,
  "thhearted</w>": 6080,
  "lyepisodic</w>": 6081,
  "doob": 6082,
  "chelor</w>": 6083,
  "dutty</w>": 6084,
  "dupree</w>": 6085,
  "jocorequests</w>": 6086,
  "selater</w>": 6087,
  "served": 6088,
  "oberon</w>": 6089,
  "henol</w>": 6090,
  "sista</w>": 6091,
  "iledup": 6092,
  "felony</w>": 6093,
  "jonit": 6094,
  "ny</w>": 6095,
  "jalili</w>": 6096,
  "leack": 6097,
  "damn</w>": 6098,
  "scrying</w>": 6099,
  "scon": 6100,
  "ely": 6101,
  "jaregard</w>": 6102,
  "sevil": 6103,
  "apata</w>": 6104,
  "reenable</w>": 6105,
  "querulous</w>": 6106,
  "tered": 6107,
  "enes</w>": 6108,
  "outoffocus</w>": 6109,
  "shutbr</w>": 6110,
  "toofrequent</w>": 6111,
  "confront</w>": 6112,
  "genevive</w>": 6113,
  "trainin</w>": 6114,
  "momen": 6115,
  "itaudit</w>": 6116,
  "nil</w>": 6117,
  "remotiv": 6118,
  "davis</w>": 6119,
  "trainer</w>": 6120,
  "wasuplol</w>": 6121,
  "thanked</w>": 6122,
  "alligators</w>": 6123,
  "mave</w>": 6124,
  "machines</w>": 6125,
  "federico</w>": 6126,
  "tioneditin": 6127,
  "ffie</w>": 6128,
  "howar": 6129,
  "toobrain</w>": 6130,
  "paras</w>": 6131,
  "twaredevelop": 6132,
  "procurer": 6133,
  "blou": 6134,
  "anesthetic</w>": 6135,
  "laurengige": 6136,
  "clory</w>": 6137,
  "utang</w>": 6138,
  "impor": 6139,
  "raison</w>": 6140,
  "basicand</w>": 6141,
  "faul</w>": 6142,
  "cowrote</w>": 6143,
  "malaga</w>": 6144,
  "getedbr</w>": 6145,
  "awapart</w>": 6146,
  "queenish</w>": 6147,
  "loways</w>": 6148,
  "minnaso": 6149,
  "whalloping</w>": 6150,
  "abal</w>": 6151,
  "astronauts</w>": 6152,
  "keurigit</w>": 6153,
  "cutelike</w>": 6154,
  "timeline</w>": 6155,
  "olapor": 6156,
  "meetin</w>": 6157,
  "beethovan</w>": 6158,
  "bloodedbr</w>": 6159,
  "sounded</w>": 6160,
  "aghh": 6161,
  "felife</w>": 6162,
  "recombines</w>": 6163,
  "tantive</w>": 6164,
  "done</w>": 6165,
  "ryo": 6166,
  "parities</w>": 6167,
  "tragedys</w>": 6168,
  "wali</w>": 6169,
  "agave</w>": 6170,
  "flavoring</w>": 6171,
  "ceetee</w>": 6172,
  "cocaine": 6173,
  "rowel</w>": 6174,
  "kuros</w>": 6175,
  "akima</w>": 6176,
  "cofee</w>": 6177,
  "antigone": 6178,
  "wounder": 6179,
  "cator": 6180,
  "kesplease</w>": 6181,
  "sarak": 6182,
  "clomps</w>": 6183,
  "reveling</w>": 6184,
  "ghh": 6185,
  "engagin": 6186,
  "flanagan</w>": 6187,
  "scambr</w>": 6188,
  "sessi": 6189,
  "threestar</w>": 6190,
  "shocked": 6191,
  "faran": 6192,
  "licities</w>": 6193,
  "duress</w>": 6194,
  "themesong</w>": 6195,
  "sinn</w>": 6196,
  "nowy": 6197,
  "namera</w>": 6198,
  "whatatimetobe": 6199,
  "heretoforenor": 6200,
  "boober</w>": 6201,
  "impression</w>": 6202,
  "ashen</w>": 6203,
  "chun": 6204,
  "lona</w>": 6205,
  "chow": 6206,
  "pubescovered</w>": 6207,
  "funn": 6208,
  "imiss</w>": 6209,
  "ou</w>": 6210,
  "descen": 6211,
  "shackbr</w>": 6212,
  "lelooking</w>": 6213,
  "davila</w>": 6214,
  "aannabu": 6215,
  "paar</w>": 6216,
  "salesalso</w>": 6217,
  "hanes</w>": 6218,
  "posting</w>": 6219,
  "ligees</w>": 6220,
  "javac</w>": 6221,
  "nathalie</w>": 6222,
  "nighthaw": 6223,
  "seth</w>": 6224,
  "leashing</w>": 6225,
  "gene": 6226,
  "metasoni": 6227,
  "kishoney</w>": 6228,
  "scone</w>": 6229,
  "spoll</w>": 6230,
  "whi": 6231,
  "redoub": 6232,
  "particular</w>": 6233,
  "relishes</w>": 6234,
  "rockbr</w>": 6235,
  "mope": 6236,
  "openaicommunity</w>": 6237,
  "tationn</w>": 6238,
  "visanti": 6239,
  "icooper</w>": 6240,
  "lickit</w>": 6241,
  "patric</w>": 6242,
  "turalis": 6243,
  "noneurope": 6244,
  "teenager</w>": 6245,
  "hityou": 6246,
  "whichin</w>": 6247,
  "grafana</w>": 6248,
  "reese</w>": 6249,
  "exit</w>": 6250,
  "sonage</w>": 6251,
  "leclar": 6252,
  "hesquire</w>": 6253,
  "ighill</w>": 6254,
  "sinatras</w>": 6255,
  "aara</w>": 6256,
  "glutamate</w>": 6257,
  "sheffi": 6258,
  "rock</w>": 6259,
  "imari": 6260,
  "ampirefilm</w>": 6261,
  "zedand</w>": 6262,
  "basto": 6263,
  "tendan": 6264,
  "catsbr</w>": 6265,
  "voodoo</w>": 6266,
  "sages</w>": 6267,
  "mil</w>": 6268,
  "bborn</w>": 6269,
  "esthetisedbr</w>": 6270,
  "letesbr</w>": 6271,
  "ridiculedbr</w>": 6272,
  "thatisit</w>": 6273,
  "fesara": 6274,
  "visitalthough</w>": 6275,
  "gautam</w>": 6276,
  "woul</w>": 6277,
  "aper</w>": 6278,
  "cemplo": 6279,
  "partan": 6280,
  "reeland</w>": 6281,
  "oppositesbr</w>": 6282,
  "lishindian</w>": 6283,
  "unable</w>": 6284,
  "dalously</w>": 6285,
  "enacting</w>": 6286,
  "vime": 6287,
  "tomatil": 6288,
  "missile</w>": 6289,
  "efar": 6290,
  "stis</w>": 6291,
  "meanim</w>": 6292,
  "polar": 6293,
  "macready</w>": 6294,
  "fie</w>": 6295,
  "clickarticle</w>": 6296,
  "rosbr</w>": 6297,
  "bainter</w>": 6298,
  "drice": 6299,
  "housesir": 6300,
  "haritype</w>": 6301,
  "midrange</w>": 6302,
  "budak": 6303,
  "animalup": 6304,
  "macheteth": 6305,
  "waleri": 6306,
  "toledo</w>": 6307,
  "aracked</w>": 6308,
  "catatoni": 6309,
  "tenest</w>": 6310,
  "lavish": 6311,
  "ginor": 6312,
  "richestren": 6313,
  "especially</w>": 6314,
  "alot</w>": 6315,
  "ristinaler": 6316,
  "asidetective</w>": 6317,
  "prefec": 6318,
  "safer": 6319,
  "deputy</w>": 6320,
  "lobbering</w>": 6321,
  "gelec": 6322,
  "backit</w>": 6323,
  "galls</w>": 6324,
  "lithu": 6325,
  "beref": 6326,
  "ceis</w>": 6327,
  "cantinas</w>": 6328,
  "stitutes</w>": 6329,
  "voce</w>": 6330,
  "any</w>": 6331,
  "avomain": 6332,
  "confessi": 6333,
  "wasteful": 6334,
  "critics</w>": 6335,
  "uries</w>": 6336,
  "maserati</w>": 6337,
  "machoman</w>": 6338,
  "tunathe</w>": 6339,
  "nocoffee</w>": 6340,
  "endeverything</w>": 6341,
  "hesy</w>": 6342,
  "sarah</w>": 6343,
  "pethey</w>": 6344,
  "abys</w>": 6345,
  "unadop": 6346,
  "mic": 6347,
  "releasedbr</w>": 6348,
  "rool": 6349,
  "evee</w>": 6350,
  "cloud</w>": 6351,
  "nedrapper": 6352,
  "caard</w>": 6353,
  "tregular</w>": 6354,
  "obright</w>": 6355,
  "etel</w>": 6356,
  "tremeley</w>": 6357,
  "braw": 6358,
  "ckit</w>": 6359,
  "alar": 6360,
  "kakapo": 6361,
  "loose</w>": 6362,
  "fero</w>": 6363,
  "chess</w>": 6364,
  "coce": 6365,
  "tering</w>": 6366,
  "restarting</w>": 6367,
  "ropy</w>": 6368,
  "pinetrees</w>": 6369,
  "showhas</w>": 6370,
  "hanson</w>": 6371,
  "shakable</w>": 6372,
  "cashinthe": 6373,
  "anyones</w>": 6374,
  "tureles</w>": 6375,
  "menen</w>": 6376,
  "wavers</w>": 6377,
  "treach</w>": 6378,
  "slower</w>": 6379,
  "whalle": 6380,
  "housetype</w>": 6381,
  "centerers</w>": 6382,
  "kicks</w>": 6383,
  "emoun": 6384,
  "rawest</w>": 6385,
  "ason</w>": 6386,
  "dood</w>": 6387,
  "pasco": 6388,
  "naturallangu": 6389,
  "avala</w>": 6390,
  "cakey</w>": 6391,
  "sevenor</w>": 6392,
  "unequally</w>": 6393,
  "kabals</w>": 6394,
  "weri</w>": 6395,
  "remor": 6396,
  "westworl": 6397,
  "soundly</w>": 6398,
  "wellu": 6399,
  "prestobr</w>": 6400,
  "casen": 6401,
  "caricaturation</w>": 6402,
  "norat": 6403,
  "testen</w>": 6404,
  "rodents</w>": 6405,
  "nadus</w>": 6406,
  "twigs</w>": 6407,
  "kinetically</w>": 6408,
  "tate</w>": 6409,
  "socal": 6410,
  "thand</w>": 6411,
  "matata</w>": 6412,
  "kinom": 6413,
  "whatever": 6414,
  "finisher</w>": 6415,
  "icic": 6416,
  "homabr</w>": 6417,
  "uprigh": 6418,
  "pocketwit</w>": 6419,
  "sinter": 6420,
  "lulu</w>": 6421,
  "yups</w>": 6422,
  "thys</w>": 6423,
  "labyo</w>": 6424,
  "amann": 6425,
  "elaborated</w>": 6426,
  "flagrant</w>": 6427,
  "dilopho": 6428,
  "kedown</w>": 6429,
  "cheesesauce</w>": 6430,
  "brosans</w>": 6431,
  "americanstyle</w>": 6432,
  "batha</w>": 6433,
  "boyfriend</w>": 6434,
  "brendan": 6435,
  "withanin": 6436,
  "prefidel</w>": 6437,
  "prear": 6438,
  "gower</w>": 6439,
  "vot</w>": 6440,
  "resani</w>": 6441,
  "dexin": 6442,
  "elated</w>": 6443,
  "bbr</w>": 6444,
  "camp": 6445,
  "storable</w>": 6446,
  "paints</w>": 6447,
  "zenut</w>": 6448,
  "ishasbr</w>": 6449,
  "mbum</w>": 6450,
  "romar": 6451,
  "loverof</w>": 6452,
  "sther</w>": 6453,
  "transpor": 6454,
  "spacelike</w>": 6455,
  "nagelaver</w>": 6456,
  "linespain</w>": 6457,
  "casino</w>": 6458,
  "linesthe</w>": 6459,
  "inthemood": 6460,
  "hime</w>": 6461,
  "sonescape</w>": 6462,
  "neri</w>": 6463,
  "joline</w>": 6464,
  "touristy</w>": 6465,
  "gina</w>": 6466,
  "sedona</w>": 6467,
  "downe": 6468,
  "leshalso</w>": 6469,
  "wansong</w>": 6470,
  "nnatatus</w>": 6471,
  "minirant</w>": 6472,
  "dreality</w>": 6473,
  "maste": 6474,
  "impe": 6475,
  "freetrade</w>": 6476,
  "bracketed</w>": 6477,
  "nicramire": 6478,
  "sadak": 6479,
  "mblon": 6480,
  "pacobr</w>": 6481,
  "mitigate</w>": 6482,
  "thara": 6483,
  "manac": 6484,
  "diru</w>": 6485,
  "romit": 6486,
  "ilocano</w>": 6487,
  "hil": 6488,
  "maly": 6489,
  "saschascar": 6490,
  "silation</w>": 6491,
  "telemovie</w>": 6492,
  "racers</w>": 6493,
  "lithered</w>": 6494,
  "audited</w>": 6495,
  "christi</w>": 6496,
  "dunnobr</w>": 6497,
  "suceeds</w>": 6498,
  "contaminan": 6499,
  "incredable</w>": 6500,
  "zisupport</w>": 6501,
  "wim</w>": 6502,
  "wheedle</w>": 6503,
  "kay</w>": 6504,
  "kelast": 6505,
  "loun</w>": 6506,
  "interestall</w>": 6507,
  "varies</w>": 6508,
  "inte</w>": 6509,
  "jalees</w>": 6510,
  "cherubs</w>": 6511,
  "sows</w>": 6512,
  "girolamo</w>": 6513,
  "stayer</w>": 6514,
  "maleable</w>": 6515,
  "eness</w>": 6516,
  "twer": 6517,
  "commendably</w>": 6518,
  "onab": 6519,
  "istedim</w>": 6520,
  "pi": 6521,
  "only</w>": 6522,
  "couraged</w>": 6523,
  "granules</w>": 6524,
  "ocracy</w>": 6525,
  "destruc": 6526,
  "microscopic</w>": 6527,
  "lelit": 6528,
  "forex</w>": 6529,
  "sunis</w>": 6530,
  "ached</w>": 6531,
  "anshere</w>": 6532,
  "sarabr</w>": 6533,
  "thicki": 6534,
  "simons</w>": 6535,
  "waitereverything</w>": 6536,
  "kaak": 6537,
  "pidi": 6538,
  "aincluding</w>": 6539,
  "lemonish</w>": 6540,
  "raconteur</w>": 6541,
  "used</w>": 6542,
  "zete</w>": 6543,
  "defuns</w>": 6544,
  "bal</w>": 6545,
  "starring</w>": 6546,
  "aces</w>": 6547,
  "ight</w>": 6548,
  "soundi</w>": 6549,
  "warrick</w>": 6550,
  "sansone</w>": 6551,
  "sennin": 6552,
  "spoonit</w>": 6553,
  "manis</w>": 6554,
  "lodo": 6555,
  "stomach": 6556,
  "awaits</w>": 6557,
  "wafels</w>": 6558,
  "vestigates</w>": 6559,
  "theta": 6560,
  "dowells</w>": 6561,
  "badr</w>": 6562,
  "radery</w>": 6563,
  "serum</w>": 6564,
  "judic": 6565,
  "lesor</w>": 6566,
  "nan</w>": 6567,
  "flutter</w>": 6568,
  "sly</w>": 6569,
  "maschera</w>": 6570,
  "rending</w>": 6571,
  "quence</w>": 6572,
  "hendrick</w>": 6573,
  "landyutani</w>": 6574,
  "summit": 6575,
  "aturefeature</w>": 6576,
  "katonabr</w>": 6577,
  "rolesproduction</w>": 6578,
  "latrines</w>": 6579,
  "gimm</w>": 6580,
  "abbot</w>": 6581,
  "nabb</w>": 6582,
  "piri": 6583,
  "prolo</w>": 6584,
  "manticore</w>": 6585,
  "mendanas": 6586,
  "heyes</w>": 6587,
  "itright</w>": 6588,
  "walleri": 6589,
  "casedont</w>": 6590,
  "methhead</w>": 6591,
  "dine</w>": 6592,
  "nani</w>": 6593,
  "jomans</w>": 6594,
  "pears</w>": 6595,
  "tastestill</w>": 6596,
  "nowits</w>": 6597,
  "housequot</w>": 6598,
  "sprogbr</w>": 6599,
  "minate</w>": 6600,
  "menace": 6601,
  "monopolist</w>": 6602,
  "landbr</w>": 6603,
  "adas": 6604,
  "codennit</w>": 6605,
  "han": 6606,
  "renteradicator</w>": 6607,
  "seend": 6608,
  "inedi</w>": 6609,
  "kickass</w>": 6610,
  "stals</w>": 6611,
  "remer</w>": 6612,
  "sprig": 6613,
  "moh</w>": 6614,
  "toleran": 6615,
  "ishaa</w>": 6616,
  "faster</w>": 6617,
  "callister</w>": 6618,
  "stonescrip": 6619,
  "questel</w>": 6620,
  "johanson</w>": 6621,
  "gametheres</w>": 6622,
  "samaritans</w>": 6623,
  "leached</w>": 6624,
  "nni": 6625,
  "penisbr</w>": 6626,
  "bard</w>": 6627,
  "lalong</w>": 6628,
  "questhis</w>": 6629,
  "goofiness</w>": 6630,
  "haven</w>": 6631,
  "hamut</w>": 6632,
  "trice</w>": 6633,
  "preevening</w>": 6634,
  "igor</w>": 6635,
  "nnaigenerated</w>": 6636,
  "jades": 6637,
  "choru": 6638,
  "asyetun": 6639,
  "dem</w>": 6640,
  "amorality</w>": 6641,
  "datory</w>": 6642,
  "amenduni": 6643,
  "clarenn</w>": 6644,
  "defining</w>": 6645,
  "radicali": 6646,
  "bathetic</w>": 6647,
  "gradations</w>": 6648,
  "ganashe</w>": 6649,
  "meffer": 6650,
  "filmyou</w>": 6651,
  "lecookie</w>": 6652,
  "ghetos</w>": 6653,
  "dage": 6654,
  "betas</w>": 6655,
  "sorable</w>": 6656,
  "lel</w>": 6657,
  "posesthough</w>": 6658,
  "coverin": 6659,
  "creasy</w>": 6660,
  "tarasco</w>": 6661,
  "stallises</w>": 6662,
  "pooled</w>": 6663,
  "frets</w>": 6664,
  "apest</w>": 6665,
  "line": 6666,
  "bobbi": 6667,
  "vis": 6668,
  "masqueraded</w>": 6669,
  "sashout": 6670,
  "etors</w>": 6671,
  "anatoli</w>": 6672,
  "molecules</w>": 6673,
  "licoriceflavored</w>": 6674,
  "shins</w>": 6675,
  "elath": 6676,
  "homesetting</w>": 6677,
  "socor": 6678,
  "hyes</w>": 6679,
  "reesebr</w>": 6680,
  "taut": 6681,
  "dagreatest</w>": 6682,
  "adare</w>": 6683,
  "bagus</w>": 6684,
  "joun": 6685,
  "multisexual</w>": 6686,
  "netrelated</w>": 6687,
  "halid</w>": 6688,
  "catholicor": 6689,
  "foh</w>": 6690,
  "levi": 6691,
  "facedown": 6692,
  "fesel": 6693,
  "scolor": 6694,
  "auroras</w>": 6695,
  "nolasco</w>": 6696,
  "lesan": 6697,
  "derisi": 6698,
  "mamatha</w>": 6699,
  "waron": 6700,
  "aro</w>": 6701,
  "celof": 6702,
  "grangers</w>": 6703,
  "ziti</w>": 6704,
  "nnautomate</w>": 6705,
  "lime": 6706,
  "history</w>": 6707,
  "minis": 6708,
  "timefrench</w>": 6709,
  "ramme</w>": 6710,
  "adepied</w>": 6711,
  "raise</w>": 6712,
  "cicus</w>": 6713,
  "tles</w>": 6714,
  "badesquire</w>": 6715,
  "charels</w>": 6716,
  "nonothing</w>": 6717,
  "shitwor": 6718,
  "goredelicious</w>": 6719,
  "purinaall</w>": 6720,
  "wallowing</w>": 6721,
  "laughathon</w>": 6722,
  "adrenaline</w>": 6723,
  "gamed</w>": 6724,
  "wige</w>": 6725,
  "bicides</w>": 6726,
  "hinted</w>": 6727,
  "twaredeveloper</w>": 6728,
  "estimating</w>": 6729,
  "frantic": 6730,
  "norah</w>": 6731,
  "delt</w>": 6732,
  "detat</w>": 6733,
  "nocen": 6734,
  "omie</w>": 6735,
  "malicebr</w>": 6736,
  "kerit": 6737,
  "gammera</w>": 6738,
  "lonite</w>": 6739,
  "overex": 6740,
  "sitiviti": 6741,
  "ffoon": 6742,
  "rester</w>": 6743,
  "hatredbr</w>": 6744,
  "local</w>": 6745,
  "flun</w>": 6746,
  "rawi</w>": 6747,
  "agerelationships</w>": 6748,
  "grimm</w>": 6749,
  "yor</w>": 6750,
  "loveten": 6751,
  "rinthine</w>": 6752,
  "unendearing</w>": 6753,
  "color</w>": 6754,
  "satos</w>": 6755,
  "agran": 6756,
  "wellearned</w>": 6757,
  "world</w>": 6758,
  "kili</w>": 6759,
  "timestor": 6760,
  "letwhat</w>": 6761,
  "frisco</w>": 6762,
  "macauley</w>": 6763,
  "allorganic</w>": 6764,
  "rosh</w>": 6765,
  "migothic</w>": 6766,
  "cet": 6767,
  "dries</w>": 6768,
  "fecal": 6769,
  "crowi": 6770,
  "brothera</w>": 6771,
  "tureless</w>": 6772,
  "pasting</w>": 6773,
  "tag</w>": 6774,
  "fintasy</w>": 6775,
  "apaloo": 6776,
  "chuns</w>": 6777,
  "gastronomy</w>": 6778,
  "queenie</w>": 6779,
  "gres": 6780,
  "spedup</w>": 6781,
  "grather</w>": 6782,
  "mpacked</w>": 6783,
  "roomand</w>": 6784,
  "remake</w>": 6785,
  "moving</w>": 6786,
  "trim</w>": 6787,
  "stouter</w>": 6788,
  "loverelationship</w>": 6789,
  "nicolo": 6790,
  "naroli</w>": 6791,
  "rismor": 6792,
  "trend</w>": 6793,
  "thiru": 6794,
  "anano</w>": 6795,
  "shove</w>": 6796,
  "taletelling</w>": 6797,
  "geness</w>": 6798,
  "belarus</w>": 6799,
  "ganeden": 6800,
  "lu": 6801,
  "edit</w>": 6802,
  "nathi": 6803,
  "mefol": 6804,
  "depends</w>": 6805,
  "stalli": 6806,
  "itif</w>": 6807,
  "chovony</w>": 6808,
  "malabar</w>": 6809,
  "bod": 6810,
  "rommels</w>": 6811,
  "twitha": 6812,
  "zeronis</w>": 6813,
  "icefilled</w>": 6814,
  "be": 6815,
  "mulas</w>": 6816,
  "hav": 6817,
  "lovesbr</w>": 6818,
  "fresca</w>": 6819,
  "prolap": 6820,
  "ridevi</w>": 6821,
  "flavin</w>": 6822,
  "refusing</w>": 6823,
  "dicating</w>": 6824,
  "jocks</w>": 6825,
  "whatev": 6826,
  "inners</w>": 6827,
  "granates</w>": 6828,
  "nestbr</w>": 6829,
  "lendedbr</w>": 6830,
  "man": 6831,
  "tridev": 6832,
  "therons</w>": 6833,
  "onic": 6834,
  "trasen": 6835,
  "kasper</w>": 6836,
  "hustles</w>": 6837,
  "generaland</w>": 6838,
  "metalevel</w>": 6839,
  "pestle</w>": 6840,
  "sessin": 6841,
  "younna</w>": 6842,
  "sairat</w>": 6843,
  "mayed</w>": 6844,
  "specail</w>": 6845,
  "prating</w>": 6846,
  "naf</w>": 6847,
  "gefor</w>": 6848,
  "comesi</w>": 6849,
  "mestyle</w>": 6850,
  "casenn": 6851,
  "atri": 6852,
  "lyover": 6853,
  "pom": 6854,
  "annoor": 6855,
  "tadeu": 6856,
  "apori": 6857,
  "morenas</w>": 6858,
  "hant</w>": 6859,
  "dvi": 6860,
  "cramped</w>": 6861,
  "ninamelin": 6862,
  "thelove</w>": 6863,
  "kar": 6864,
  "hammerobvious</w>": 6865,
  "girlish": 6866,
  "worths</w>": 6867,
  "mican</w>": 6868,
  "orolyov</w>": 6869,
  "apis": 6870,
  "nockage</w>": 6871,
  "beraland": 6872,
  "fidelity</w>": 6873,
  "amean": 6874,
  "ceress</w>": 6875,
  "jarols</w>": 6876,
  "boop</w>": 6877,
  "gerani": 6878,
  "nestles</w>": 6879,
  "mationn</w>": 6880,
  "militaries</w>": 6881,
  "hounfor</w>": 6882,
  "nobbing</w>": 6883,
  "wef</w>": 6884,
  "seuros": 6885,
  "showan": 6886,
  "schall</w>": 6887,
  "pped</w>": 6888,
  "parodies</w>": 6889,
  "retainer</w>": 6890,
  "poopoo": 6891,
  "coff": 6892,
  "farover": 6893,
  "laputabr</w>": 6894,
  "kethe": 6895,
  "music</w>": 6896,
  "shansel": 6897,
  "nated</w>": 6898,
  "reexperien": 6899,
  "linole": 6900,
  "toofast</w>": 6901,
  "cheep</w>": 6902,
  "clone": 6903,
  "benefitsbr</w>": 6904,
  "tire</w>": 6905,
  "arits</w>": 6906,
  "tonne</w>": 6907,
  "thickas": 6908,
  "preach</w>": 6909,
  "grabber</w>": 6910,
  "mooment</w>": 6911,
  "sud": 6912,
  "gowhere</w>": 6913,
  "thefilm</w>": 6914,
  "cepan</w>": 6915,
  "midably</w>": 6916,
  "langon": 6917,
  "hunnam</w>": 6918,
  "faceful</w>": 6919,
  "noun": 6920,
  "grandame</w>": 6921,
  "thhacking</w>": 6922,
  "afir": 6923,
  "emoo": 6924,
  "monally</w>": 6925,
  "tricy": 6926,
  "tacks</w>": 6927,
  "meansits</w>": 6928,
  "asybr</w>": 6929,
  "ashaman": 6930,
  "mallinot": 6931,
  "business</w>": 6932,
  "parades</w>": 6933,
  "jericho</w>": 6934,
  "uthering</w>": 6935,
  "descents</w>": 6936,
  "monised</w>": 6937,
  "sularity</w>": 6938,
  "ffar": 6939,
  "breaks</w>": 6940,
  "evievie</w>": 6941,
  "dities</w>": 6942,
  "toocomfor": 6943,
  "sobri": 6944,
  "sthailand</w>": 6945,
  "damay": 6946,
  "jascheroff</w>": 6947,
  "grigi": 6948,
  "timesone</w>": 6949,
  "twheesh": 6950,
  "ronera</w>": 6951,
  "notices</w>": 6952,
  "whits</w>": 6953,
  "digu": 6954,
  "runand</w>": 6955,
  "agrees</w>": 6956,
  "stak": 6957,
  "chafed</w>": 6958,
  "ceno": 6959,
  "solesbr</w>": 6960,
  "reede</w>": 6961,
  "cashescape</w>": 6962,
  "fishing</w>": 6963,
  "eladen</w>": 6964,
  "onestope": 6965,
  "imis": 6966,
  "plasticand</w>": 6967,
  "ker</w>": 6968,
  "meleemouthed</w>": 6969,
  "allisonnade": 6970,
  "zenaide": 6971,
  "slens</w>": 6972,
  "sicalas</w>": 6973,
  "shipoh</w>": 6974,
  "traffickers</w>": 6975,
  "pointy</w>": 6976,
  "fod</w>": 6977,
  "hass</w>": 6978,
  "granada</w>": 6979,
  "christmas</w>": 6980,
  "lagan</w>": 6981,
  "fire</w>": 6982,
  "cesuch</w>": 6983,
  "wired": 6984,
  "bizarre</w>": 6985,
  "concer</w>": 6986,
  "patainted</w>": 6987,
  "bak": 6988,
  "melatonin</w>": 6989,
  "jul</w>": 6990,
  "red</w>": 6991,
  "renees</w>": 6992,
  "ceat</w>": 6993,
  "contemporary": 6994,
  "appraisebr</w>": 6995,
  "futilitybr</w>": 6996,
  "taining</w>": 6997,
  "rs</w>": 6998,
  "bre": 6999,
  "camme": 7000,
  "resistance</w>": 7001,
  "mpaas</w>": 7002,
  "theart</w>": 7003,
  "atic": 7004,
  "tomakemone": 7005,
  "jacobis</w>": 7006,
  "hesterical</w>": 7007,
  "lalo</w>": 7008,
  "telefoni</w>": 7009,
  "wannabe</w>": 7010,
  "ricepaper</w>": 7011,
  "kanother</w>": 7012,
  "scotty</w>": 7013,
  "shine</w>": 7014,
  "nakelike</w>": 7015,
  "odbr</w>": 7016,
  "asthetic": 7017,
  "esper": 7018,
  "picket": 7019,
  "wellar": 7020,
  "successes": 7021,
  "sexcept</w>": 7022,
  "acai</w>": 7023,
  "grubbing</w>": 7024,
  "catha": 7025,
  "engish</w>": 7026,
  "freedomand</w>": 7027,
  "imprisone": 7028,
  "holicker</w>": 7029,
  "ficationn</w>": 7030,
  "lith</w>": 7031,
  "tourage</w>": 7032,
  "tigoworthy</w>": 7033,
  "teenage": 7034,
  "maureens</w>": 7035,
  "coolyou</w>": 7036,
  "kinace</w>": 7037,
  "cetechnology</w>": 7038,
  "shalou": 7039,
  "deffici": 7040,
  "nestly</w>": 7041,
  "endor": 7042,
  "grimo": 7043,
  "releasen</w>": 7044,
  "hoper</w>": 7045,
  "toone</w>": 7046,
  "dev": 7047,
  "hered</w>": 7048,
  "imaginations</w>": 7049,
  "lagomes</w>": 7050,
  "hanovers</w>": 7051,
  "agony</w>": 7052,
  "eride</w>": 7053,
  "scoble</w>": 7054,
  "usu": 7055,
  "ghelp</w>": 7056,
  "ssites</w>": 7057,
  "bunn</w>": 7058,
  "adaways</w>": 7059,
  "agreeso</w>": 7060,
  "badall</w>": 7061,
  "etolife</w>": 7062,
  "pyo</w>": 7063,
  "rennais": 7064,
  "shaders</w>": 7065,
  "tramps</w>": 7066,
  "pastors</w>": 7067,
  "rangeresquire</w>": 7068,
  "pietype</w>": 7069,
  "christo": 7070,
  "jovi": 7071,
  "angers</w>": 7072,
  "spatulabr</w>": 7073,
  "aloriginal</w>": 7074,
  "moveso": 7075,
  "anupam</w>": 7076,
  "nnai": 7077,
  "robiche": 7078,
  "reflick</w>": 7079,
  "pacino": 7080,
  "solange": 7081,
  "brochure</w>": 7082,
  "ronicheavy</w>": 7083,
  "sometaphorically</w>": 7084,
  "unimpressed</w>": 7085,
  "rowabr</w>": 7086,
  "kaneshiro</w>": 7087,
  "phonen</w>": 7088,
  "dalis": 7089,
  "bbir": 7090,
  "runamok</w>": 7091,
  "esoos</w>": 7092,
  "param</w>": 7093,
  "ethel</w>": 7094,
  "autis": 7095,
  "cand</w>": 7096,
  "tionaires</w>": 7097,
  "particularily</w>": 7098,
  "iree</w>": 7099,
  "brod": 7100,
  "ckedex": 7101,
  "s": 7102,
  "dopolit": 7103,
  "donovichs</w>": 7104,
  "domainfor": 7105,
  "wave</w>": 7106,
  "tainy</w>": 7107,
  "isonous</w>": 7108,
  "hackil": 7109,
  "inally</w>": 7110,
  "sphoto": 7111,
  "anera</w>": 7112,
  "southhamp": 7113,
  "strate": 7114,
  "castel</w>": 7115,
  "madedefo": 7116,
  "damombr</w>": 7117,
  "life</w>": 7118,
  "migrains</w>": 7119,
  "compatri": 7120,
  "coras</w>": 7121,
  "spinally</w>": 7122,
  "analagous</w>": 7123,
  "leserving</w>": 7124,
  "selffeeder</w>": 7125,
  "jane</w>": 7126,
  "amovies</w>": 7127,
  "notbr</w>": 7128,
  "ffe</w>": 7129,
  "we": 7130,
  "keels</w>": 7131,
  "namite": 7132,
  "serand</w>": 7133,
  "looc": 7134,
  "jadoremar": 7135,
  "sature": 7136,
  "poms</w>": 7137,
  "ocy": 7138,
  "clopen": 7139,
  "marinades</w>": 7140,
  "scation</w>": 7141,
  "towake</w>": 7142,
  "aceunity</w>": 7143,
  "mansons</w>": 7144,
  "threestar": 7145,
  "andre": 7146,
  "oonotic</w>": 7147,
  "raith</w>": 7148,
  "retailing</w>": 7149,
  "netru": 7150,
  "tuta": 7151,
  "esthers</w>": 7152,
  "reality</w>": 7153,
  "tweedle</w>": 7154,
  "ropica</w>": 7155,
  "chabrol</w>": 7156,
  "seenor</w>": 7157,
  "renditiona</w>": 7158,
  "nothis</w>": 7159,
  "domestication</w>": 7160,
  "dyed</w>": 7161,
  "kira</w>": 7162,
  "gistered</w>": 7163,
  "bimon": 7164,
  "britannicus</w>": 7165,
  "paulus</w>": 7166,
  "teness</w>": 7167,
  "grands</w>": 7168,
  "suckin": 7169,
  "questionaire</w>": 7170,
  "girlat</w>": 7171,
  "tem</w>": 7172,
  "manns</w>": 7173,
  "tackily</w>": 7174,
  "annad": 7175,
  "hired</w>": 7176,
  "genic": 7177,
  "novery</w>": 7178,
  "pofav</w>": 7179,
  "dunes</w>": 7180,
  "wainn</w>": 7181,
  "spresent</w>": 7182,
  "brickbr</w>": 7183,
  "parexcel": 7184,
  "rail</w>": 7185,
  "packagedifferent</w>": 7186,
  "company</w>": 7187,
  "atbr</w>": 7188,
  "jak": 7189,
  "cookis</w>": 7190,
  "ghalea": 7191,
  "selinis</w>": 7192,
  "solely</w>": 7193,
  "youtu": 7194,
  "hobby</w>": 7195,
  "bilitis</w>": 7196,
  "zarou</w>": 7197,
  "bulu</w>": 7198,
  "overon</w>": 7199,
  "cemovie</w>": 7200,
  "theu": 7201,
  "finallybr</w>": 7202,
  "sarent</w>": 7203,
  "notant</w>": 7204,
  "doob</w>": 7205,
  "brary</w>": 7206,
  "meshesbr</w>": 7207,
  "testators</w>": 7208,
  "tang": 7209,
  "lafon": 7210,
  "imaping</w>": 7211,
  "monobr</w>": 7212,
  "icereally</w>": 7213,
  "kedene": 7214,
  "tomenow</w>": 7215,
  "muri": 7216,
  "themmuch</w>": 7217,
  "ashed</w>": 7218,
  "ligabu": 7219,
  "martie</w>": 7220,
  "patheticall</w>": 7221,
  "vo": 7222,
  "gonce</w>": 7223,
  "metered</w>": 7224,
  "sopping</w>": 7225,
  "proclaimed</w>": 7226,
  "sexines": 7227,
  "chickened</w>": 7228,
  "lesho": 7229,
  "renaming</w>": 7230,
  "paulina": 7231,
  "avalo</w>": 7232,
  "aky</w>": 7233,
  "scri": 7234,
  "citybr</w>": 7235,
  "hobbits</w>": 7236,
  "gabbars</w>": 7237,
  "onnight</w>": 7238,
  "satu": 7239,
  "puritan</w>": 7240,
  "planetbr</w>": 7241,
  "raim": 7242,
  "salads</w>": 7243,
  "spirational": 7244,
  "hammish</w>": 7245,
  "ocaito": 7246,
  "noramir": 7247,
  "leaning</w>": 7248,
  "wybr</w>": 7249,
  "farin</w>": 7250,
  "forget</w>": 7251,
  "programmer": 7252,
  "leetin": 7253,
  "selfempower": 7254,
  "talla": 7255,
  "vita": 7256,
  "cevig": 7257,
  "gave</w>": 7258,
  "comicallooking</w>": 7259,
  "whistles</w>": 7260,
  "babalici": 7261,
  "samesize</w>": 7262,
  "screated</w>": 7263,
  "trintin": 7264,
  "tury": 7265,
  "ghini</w>": 7266,
  "sodisinterested</w>": 7267,
  "seloopy</w>": 7268,
  "showi": 7269,
  "agemodel</w>": 7270,
  "ame": 7271,
  "bashes</w>": 7272,
  "fadesbr</w>": 7273,
  "loh</w>": 7274,
  "endoes</w>": 7275,
  "blocker": 7276,
  "orably</w>": 7277,
  "mature</w>": 7278,
  "chyou</w>": 7279,
  "revengesee": 7280,
  "defaul": 7281,
  "apparel</w>": 7282,
  "lisheurope": 7283,
  "warily</w>": 7284,
  "hod": 7285,
  "pengi": 7286,
  "prim</w>": 7287,
  "halal</w>": 7288,
  "hack</w>": 7289,
  "yonara</w>": 7290,
  "ocommentary</w>": 7291,
  "theshi": 7292,
  "wheal</w>": 7293,
  "socrates</w>": 7294,
  "sai": 7295,
  "ceposh</w>": 7296,
  "nonetoofriendly</w>": 7297,
  "dadattractive</w>": 7298,
  "refour": 7299,
  "geres</w>": 7300,
  "shaketoo</w>": 7301,
  "harata</w>": 7302,
  "timbre</w>": 7303,
  "omens</w>": 7304,
  "zero</w>": 7305,
  "bimbo</w>": 7306,
  "dominating</w>": 7307,
  "viscously</w>": 7308,
  "mas</w>": 7309,
  "abi": 7310,
  "famil</w>": 7311,
  "chanically</w>": 7312,
  "gelato": 7313,
  "veni": 7314,
  "draculabr</w>": 7315,
  "disappointsbr</w>": 7316,
  "hock": 7317,
  "ana": 7318,
  "palesti": 7319,
  "synago": 7320,
  "partbr</w>": 7321,
  "plai": 7322,
  "aute": 7323,
  "tackers</w>": 7324,
  "pelin</w>": 7325,
  "snickety</w>": 7326,
  "notesi</w>": 7327,
  "towed</w>": 7328,
  "mav</w>": 7329,
  "nnedenai</w>": 7330,
  "akish</w>": 7331,
  "christinabr</w>": 7332,
  "bulet": 7333,
  "primitiveskil": 7334,
  "itheras</w>": 7335,
  "nonindie</w>": 7336,
  "hinis</w>": 7337,
  "connie</w>": 7338,
  "immaculate": 7339,
  "claimedbr</w>": 7340,
  "ramping</w>": 7341,
  "gaberosales</w>": 7342,
  "mps</w>": 7343,
  "noonan</w>": 7344,
  "gravest</w>": 7345,
  "peracidity</w>": 7346,
  "kaaners</w>": 7347,
  "erodes</w>": 7348,
  "whatsofrickin": 7349,
  "donnit": 7350,
  "spinach</w>": 7351,
  "lok</w>": 7352,
  "tricolore</w>": 7353,
  "wale</w>": 7354,
  "lourished</w>": 7355,
  "traces</w>": 7356,
  "tandrespon": 7357,
  "hauler</w>": 7358,
  "rosinas</w>": 7359,
  "severything</w>": 7360,
  "deffinatly</w>": 7361,
  "katy</w>": 7362,
  "promising</w>": 7363,
  "stering</w>": 7364,
  "couri": 7365,
  "acharee</w>": 7366,
  "nure": 7367,
  "suceeded</w>": 7368,
  "amputeesone</w>": 7369,
  "clack</w>": 7370,
  "deficit</w>": 7371,
  "mouthin": 7372,
  "ete": 7373,
  "halfado": 7374,
  "neely</w>": 7375,
  "flavorit</w>": 7376,
  "pricere": 7377,
  "presucked</w>": 7378,
  "carageenan</w>": 7379,
  "owed</w>": 7380,
  "wised</w>": 7381,
  "litol": 7382,
  "ashel": 7383,
  "leese</w>": 7384,
  "chases</w>": 7385,
  "descend</w>": 7386,
  "yuletide</w>": 7387,
  "speculating</w>": 7388,
  "alion</w>": 7389,
  "probar</w>": 7390,
  "riterinthemaking</w>": 7391,
  "levelit</w>": 7392,
  "hagy": 7393,
  "zesounds</w>": 7394,
  "erawhich</w>": 7395,
  "johann</w>": 7396,
  "radars</w>": 7397,
  "batw": 7398,
  "british</w>": 7399,
  "knowall</w>": 7400,
  "japanas</w>": 7401,
  "crema": 7402,
  "hatten</w>": 7403,
  "herethey</w>": 7404,
  "scarefests</w>": 7405,
  "sessen": 7406,
  "operawhat</w>": 7407,
  "frule": 7408,
  "twhatever</w>": 7409,
  "leaving</w>": 7410,
  "moric</w>": 7411,
  "rimelife</w>": 7412,
  "managing</w>": 7413,
  "face": 7414,
  "meer": 7415,
  "washing</w>": 7416,
  "popularity</w>": 7417,
  "dramatising</w>": 7418,
  "dunno": 7419,
  "alevel</w>": 7420,
  "obie</w>": 7421,
  "peti</w>": 7422,
  "etherin": 7423,
  "stagin": 7424,
  "sofunny</w>": 7425,
  "dovetail</w>": 7426,
  "homages</w>": 7427,
  "indiscretion</w>": 7428,
  "jutras</w>": 7429,
  "slefree</w>": 7430,
  "dared": 7431,
  "ady</w>": 7432,
  "leansearly</w>": 7433,
  "arouses</w>": 7434,
  "risuc</w>": 7435,
  "parodi": 7436,
  "ameeface</w>": 7437,
  "gamor": 7438,
  "domi</w>": 7439,
  "lasha": 7440,
  "nim": 7441,
  "bachau</w>": 7442,
  "inanities</w>": 7443,
  "besheli": 7444,
  "anansie</w>": 7445,
  "owie</w>": 7446,
  "batty</w>": 7447,
  "stoli": 7448,
  "gut</w>": 7449,
  "casethank</w>": 7450,
  "atredee": 7451,
  "blocky</w>": 7452,
  "allenaka</w>": 7453,
  "firequinito</w>": 7454,
  "digi": 7455,
  "effer": 7456,
  "odel": 7457,
  "silly</w>": 7458,
  "reruns</w>": 7459,
  "abb": 7460,
  "aleconomical</w>": 7461,
  "deleven</w>": 7462,
  "landor</w>": 7463,
  "fau": 7464,
  "lefeature</w>": 7465,
  "mixins</w>": 7466,
  "cheni</w>": 7467,
  "slow</w>": 7468,
  "gek</w>": 7469,
  "rockig</w>": 7470,
  "cesit": 7471,
  "devils</w>": 7472,
  "rices</w>": 7473,
  "origin</w>": 7474,
  "scenesanyway</w>": 7475,
  "chatgold</w>": 7476,
  "gany</w>": 7477,
  "clout</w>": 7478,
  "butbr</w>": 7479,
  "godell</w>": 7480,
  "definitions</w>": 7481,
  "whup": 7482,
  "mispronoun": 7483,
  "queers</w>": 7484,
  "sometimethey</w>": 7485,
  "nowere</w>": 7486,
  "fresco": 7487,
  "langen": 7488,
  "appropri": 7489,
  "thetime</w>": 7490,
  "generic": 7491,
  "breakunfortunately</w>": 7492,
  "rockefel": 7493,
  "telescopic</w>": 7494,
  "intitial</w>": 7495,
  "musican</w>": 7496,
  "nutritinal</w>": 7497,
  "nook</w>": 7498,
  "against</w>": 7499,
  "hows</w>": 7500,
  "leanses</w>": 7501,
  "tobot": 7502,
  "sacade": 7503,
  "ombu</w>": 7504,
  "commpre": 7505,
  "happ": 7506,
  "modine</w>": 7507,
  "wanese": 7508,
  "bevis</w>": 7509,
  "dracula": 7510,
  "angbr</w>": 7511,
  "rodent</w>": 7512,
  "reticence</w>": 7513,
  "travagance</w>": 7514,
  "damageresistant</w>": 7515,
  "agoogle</w>": 7516,
  "dailey</w>": 7517,
  "waybr</w>": 7518,
  "tionedyou</w>": 7519,
  "dines</w>": 7520,
  "jobbo</w>": 7521,
  "camble</w>": 7522,
  "benac": 7523,
  "intocalories</w>": 7524,
  "monaca</w>": 7525,
  "rative": 7526,
  "sobefore</w>": 7527,
  "gentertaining</w>": 7528,
  "downs</w>": 7529,
  "ries</w>": 7530,
  "leshedout</w>": 7531,
  "boro</w>": 7532,
  "omenn": 7533,
  "vonnes</w>": 7534,
  "kaiso</w>": 7535,
  "awar": 7536,
  "failedbr</w>": 7537,
  "elaces</w>": 7538,
  "ovos</w>": 7539,
  "schedules</w>": 7540,
  "coors</w>": 7541,
  "jesh</w>": 7542,
  "successful</w>": 7543,
  "labaloo</w>": 7544,
  "halloffame</w>": 7545,
  "thenight": 7546,
  "ulu": 7547,
  "awesomennacade": 7548,
  "surprisescenes</w>": 7549,
  "communicable</w>": 7550,
  "uninterested": 7551,
  "sleuth</w>": 7552,
  "calomari</w>": 7553,
  "ficlooking</w>": 7554,
  "sevi</w>": 7555,
  "cyespecially</w>": 7556,
  "configured</w>": 7557,
  "pronn": 7558,
  "cinaste</w>": 7559,
  "chicago": 7560,
  "pequin</w>": 7561,
  "habitat</w>": 7562,
  "rop</w>": 7563,
  "scenesalthough</w>": 7564,
  "mberyou</w>": 7565,
  "ishoo": 7566,
  "cerideas</w>": 7567,
  "spatulamad": 7568,
  "bagits</w>": 7569,
  "fefer": 7570,
  "anticapitalists</w>": 7571,
  "seee": 7572,
  "tastor</w>": 7573,
  "dimbr</w>": 7574,
  "lion</w>": 7575,
  "reshoo": 7576,
  "auteurs</w>": 7577,
  "silico": 7578,
  "ble</w>": 7579,
  "kic": 7580,
  "ships</w>": 7581,
  "draco</w>": 7582,
  "coveni": 7583,
  "aloo": 7584,
  "capacitya</w>": 7585,
  "trouts</w>": 7586,
  "courage</w>": 7587,
  "aramakes</w>": 7588,
  "withal": 7589,
  "vorous</w>": 7590,
  "innearest</w>": 7591,
  "bowery</w>": 7592,
  "breen</w>": 7593,
  "intimidates</w>": 7594,
  "gitinthemusicindustry</w>": 7595,
  "simona</w>": 7596,
  "opicture</w>": 7597,
  "cappedoff</w>": 7598,
  "pulut</w>": 7599,
  "cigar": 7600,
  "wellits</w>": 7601,
  "sationalising</w>": 7602,
  "fatit</w>": 7603,
  "tagraci": 7604,
  "naturaly</w>": 7605,
  "restworked</w>": 7606,
  "dashedbr</w>": 7607,
  "matici": 7608,
  "toute</w>": 7609,
  "balla</w>": 7610,
  "tutur": 7611,
  "seni</w>": 7612,
  "rault</w>": 7613,
  "shanghaid</w>": 7614,
  "wais": 7615,
  "rationalised</w>": 7616,
  "willie</w>": 7617,
  "tri</w>": 7618,
  "monen</w>": 7619,
  "trinna</w>": 7620,
  "metadatann": 7621,
  "natores</w>": 7622,
  "play": 7623,
  "bran": 7624,
  "thick": 7625,
  "coll</w>": 7626,
  "gni</w>": 7627,
  "stively</w>": 7628,
  "perin</w>": 7629,
  "splatted</w>": 7630,
  "gratulation": 7631,
  "onone</w>": 7632,
  "homee</w>": 7633,
  "cretary</w>": 7634,
  "yen</w>": 7635,
  "jell</w>": 7636,
  "scause</w>": 7637,
  "lalooking</w>": 7638,
  "thestrup</w>": 7639,
  "coopan": 7640,
  "talabusing</w>": 7641,
  "wendell</w>": 7642,
  "favoritesand</w>": 7643,
  "nate": 7644,
  "karakas</w>": 7645,
  "ascend</w>": 7646,
  "eradicated</w>": 7647,
  "thouse": 7648,
  "moor": 7649,
  "dvig</w>": 7650,
  "ginvents</w>": 7651,
  "tenany</w>": 7652,
  "waitin</w>": 7653,
  "dadais": 7654,
  "ffany": 7655,
  "simps</w>": 7656,
  "martinis</w>": 7657,
  "scours</w>": 7658,
  "gide</w>": 7659,
  "pascows</w>": 7660,
  "leane</w>": 7661,
  "summation</w>": 7662,
  "ababr</w>": 7663,
  "fetishesbr</w>": 7664,
  "bearer</w>": 7665,
  "isca</w>": 7666,
  "licata</w>": 7667,
  "ativis": 7668,
  "tileschi</w>": 7669,
  "sowere</w>": 7670,
  "moreshe</w>": 7671,
  "dyor": 7672,
  "japanes</w>": 7673,
  "annabel</w>": 7674,
  "jenu": 7675,
  "linty</w>": 7676,
  "evillaughing</w>": 7677,
  "derita</w>": 7678,
  "forethese</w>": 7679,
  "hawhaw</w>": 7680,
  "friction</w>": 7681,
  "brood</w>": 7682,
  "shino": 7683,
  "lappin": 7684,
  "thickeared</w>": 7685,
  "obor</w>": 7686,
  "agape</w>": 7687,
  "pidity</w>": 7688,
  "citadel</w>": 7689,
  "borek</w>": 7690,
  "coure</w>": 7691,
  "daye</w>": 7692,
  "minutesofa": 7693,
  "citab": 7694,
  "wag": 7695,
  "boobi": 7696,
  "beelaar": 7697,
  "atheads</w>": 7698,
  "thenotori": 7699,
  "dice</w>": 7700,
  "implan": 7701,
  "digisof": 7702,
  "hobbie</w>": 7703,
  "grin": 7704,
  "sationn": 7705,
  "coda</w>": 7706,
  "dofilm</w>": 7707,
  "spre": 7708,
  "damini</w>": 7709,
  "mane": 7710,
  "wever": 7711,
  "galso</w>": 7712,
  "nnie</w>": 7713,
  "desperations</w>": 7714,
  "aall</w>": 7715,
  "penned</w>": 7716,
  "recomment</w>": 7717,
  "stooped</w>": 7718,
  "musiclike</w>": 7719,
  "fobbing</w>": 7720,
  "roo</w>": 7721,
  "datas</w>": 7722,
  "lynow</w>": 7723,
  "sleeve": 7724,
  "zenness</w>": 7725,
  "adama</w>": 7726,
  "ticalitybr</w>": 7727,
  "rules</w>": 7728,
  "meld</w>": 7729,
  "feeney</w>": 7730,
  "brainnu": 7731,
  "lelet</w>": 7732,
  "odonnel": 7733,
  "savetes": 7734,
  "sinthearmy</w>": 7735,
  "bequest</w>": 7736,
  "kan": 7737,
  "morenos</w>": 7738,
  "kaad": 7739,
  "vinici": 7740,
  "uneasily</w>": 7741,
  "jackete": 7742,
  "godinabox</w>": 7743,
  "spagit": 7744,
  "mparound</w>": 7745,
  "kater</w>": 7746,
  "clamoured</w>": 7747,
  "choline</w>": 7748,
  "ministerin": 7749,
  "eth": 7750,
  "haara</w>": 7751,
  "jai": 7752,
  "ilope": 7753,
  "treesthis</w>": 7754,
  "jails</w>": 7755,
  "wauters</w>": 7756,
  "safi": 7757,
  "rence</w>": 7758,
  "irene</w>": 7759,
  "tter</w>": 7760,
  "domething</w>": 7761,
  "gangee</w>": 7762,
  "noped</w>": 7763,
  "dras": 7764,
  "angelisticindu": 7765,
  "spoladore</w>": 7766,
  "prespook</w>": 7767,
  "cala": 7768,
  "screened</w>": 7769,
  "nicolet": 7770,
  "cheesy": 7771,
  "coverups</w>": 7772,
  "madeup</w>": 7773,
  "competitionn</w>": 7774,
  "covid</w>": 7775,
  "salame": 7776,
  "traproces": 7777,
  "ireland": 7778,
  "clambake</w>": 7779,
  "thenunique</w>": 7780,
  "proposes</w>": 7781,
  "skinon</w>": 7782,
  "finne": 7783,
  "fena</w>": 7784,
  "lelo": 7785,
  "multidimen": 7786,
  "efflu": 7787,
  "ckeri</w>": 7788,
  "wamb</w>": 7789,
  "ainnintrodu": 7790,
  "yesque</w>": 7791,
  "wequil": 7792,
  "radi": 7793,
  "hat": 7794,
  "is": 7795,
  "ffoon</w>": 7796,
  "forevers</w>": 7797,
  "maks</w>": 7798,
  "rannous</w>": 7799,
  "derasbr</w>": 7800,
  "calli": 7801,
  "akimo": 7802,
  "delane</w>": 7803,
  "ropand</w>": 7804,
  "contender</w>": 7805,
  "handover</w>": 7806,
  "abu": 7807,
  "sabbatinis</w>": 7808,
  "tequilahead</w>": 7809,
  "implore</w>": 7810,
  "ninetofi": 7811,
  "gorybr</w>": 7812,
  "sher</w>": 7813,
  "rapur": 7814,
  "wellamazing</w>": 7815,
  "tober</w>": 7816,
  "cadeseven</w>": 7817,
  "tholo": 7818,
  "irac</w>": 7819,
  "matteroffac": 7820,
  "eswith</w>": 7821,
  "commoner": 7822,
  "volo</w>": 7823,
  "snidering</w>": 7824,
  "shusu": 7825,
  "brickan": 7826,
  "struc": 7827,
  "vineshadow</w>": 7828,
  "rubric</w>": 7829,
  "rai</w>": 7830,
  "stered</w>": 7831,
  "desperatefor</w>": 7832,
  "veskinned</w>": 7833,
  "seedy": 7834,
  "cerand</w>": 7835,
  "moviestelevision</w>": 7836,
  "wonderat</w>": 7837,
  "wooded</w>": 7838,
  "mangle</w>": 7839,
  "bisquits</w>": 7840,
  "pefer</w>": 7841,
  "orist</w>": 7842,
  "tate": 7843,
  "remaster</w>": 7844,
  "nothings</w>": 7845,
  "timeright</w>": 7846,
  "onimpossible</w>": 7847,
  "baloo</w>": 7848,
  "cliched</w>": 7849,
  "lestat</w>": 7850,
  "americanised</w>": 7851,
  "mclag": 7852,
  "temperature": 7853,
  "chatgptwriter</w>": 7854,
  "therethere</w>": 7855,
  "twhately</w>": 7856,
  "devin</w>": 7857,
  "thesps</w>": 7858,
  "chol": 7859,
  "gul</w>": 7860,
  "odoro</w>": 7861,
  "coolest</w>": 7862,
  "sas": 7863,
  "discretion</w>": 7864,
  "ravenel</w>": 7865,
  "hagar</w>": 7866,
  "manso</w>": 7867,
  "stupendou": 7868,
  "fabrications</w>": 7869,
  "pithy</w>": 7870,
  "whaling</w>": 7871,
  "denish</w>": 7872,
  "disnt</w>": 7873,
  "jeff</w>": 7874,
  "gistrar</w>": 7875,
  "predark</w>": 7876,
  "gitan</w>": 7877,
  "gashes</w>": 7878,
  "bared</w>": 7879,
  "panabaker</w>": 7880,
  "assistive</w>": 7881,
  "caver": 7882,
  "neng": 7883,
  "outrage</w>": 7884,
  "redoun": 7885,
  "graf": 7886,
  "cese</w>": 7887,
  "crates</w>": 7888,
  "wonderas</w>": 7889,
  "leveler</w>": 7890,
  "premarital</w>": 7891,
  "sitter</w>": 7892,
  "praising</w>": 7893,
  "ethy": 7894,
  "fastbr</w>": 7895,
  "toby": 7896,
  "younnif</w>": 7897,
  "petradi": 7898,
  "caband</w>": 7899,
  "nicer": 7900,
  "rampage</w>": 7901,
  "partys</w>": 7902,
  "form</w>": 7903,
  "whats</w>": 7904,
  "cupation</w>": 7905,
  "scaring</w>": 7906,
  "fretting</w>": 7907,
  "leasefor</w>": 7908,
  "garethe</w>": 7909,
  "antiremake</w>": 7910,
  "thisthey</w>": 7911,
  "lovedones</w>": 7912,
  "isesche": 7913,
  "atresbr</w>": 7914,
  "partaking</w>": 7915,
  "ofet": 7916,
  "gacyo": 7917,
  "wellavoid</w>": 7918,
  "issimply</w>": 7919,
  "hilary": 7920,
  "tapo": 7921,
  "impossible</w>": 7922,
  "cake": 7923,
  "leastif</w>": 7924,
  "pickups</w>": 7925,
  "needand</w>": 7926,
  "namedry</w>": 7927,
  "neev": 7928,
  "javascrip": 7929,
  "tune": 7930,
  "labutes</w>": 7931,
  "limer</w>": 7932,
  "laughed": 7933,
  "refocus</w>": 7934,
  "prostituting</w>": 7935,
  "roby": 7936,
  "mennin</w>": 7937,
  "atemovies</w>": 7938,
  "dance</w>": 7939,
  "doch</w>": 7940,
  "lerempel</w>": 7941,
  "leeson</w>": 7942,
  "borers</w>": 7943,
  "tonnes</w>": 7944,
  "genocide</w>": 7945,
  "planetand</w>": 7946,
  "cakes</w>": 7947,
  "reser": 7948,
  "lel": 7949,
  "sactres": 7950,
  "bananathis</w>": 7951,
  "aapresley</w>": 7952,
  "pon</w>": 7953,
  "seden": 7954,
  "moviesall</w>": 7955,
  "sthats</w>": 7956,
  "sufferable</w>": 7957,
  "postitive</w>": 7958,
  "chene": 7959,
  "inarritu</w>": 7960,
  "sterybr</w>": 7961,
  "golucky</w>": 7962,
  "distill</w>": 7963,
  "draine</w>": 7964,
  "pimeduses</w>": 7965,
  "gist": 7966,
  "rubicon</w>": 7967,
  "funneled</w>": 7968,
  "generi": 7969,
  "kinilol</w>": 7970,
  "wanshor": 7971,
  "senni</w>": 7972,
  "goodo": 7973,
  "mangoes</w>": 7974,
  "utilised</w>": 7975,
  "senopenaig": 7976,
  "sakit</w>": 7977,
  "castrated</w>": 7978,
  "noteat</w>": 7979,
  "dashing</w>": 7980,
  "japaness</w>": 7981,
  "omari": 7982,
  "ailaw</w>": 7983,
  "deli</w>": 7984,
  "competition": 7985,
  "bratedbr</w>": 7986,
  "tedavistype</w>": 7987,
  "rocute</w>": 7988,
  "karilake</w>": 7989,
  "tampons</w>": 7990,
  "macabroso</w>": 7991,
  "absolutuley</w>": 7992,
  "baseless</w>": 7993,
  "tionally": 7994,
  "picard</w>": 7995,
  "chot</w>": 7996,
  "takada</w>": 7997,
  "annou": 7998,
  "obvious</w>": 7999,
  "rentera</w>": 8000,
  "raped": 8001,
  "tastesome</w>": 8002,
  "predominate</w>": 8003,
  "confederatesas</w>": 8004,
  "ampirelady</w>": 8005,
  "promiscu": 8006,
  "distastefully</w>": 8007,
  "jerico</w>": 8008,
  "thalluris</w>": 8009,
  "nado</w>": 8010,
  "lache</w>": 8011,
  "agedefying</w>": 8012,
  "stupef": 8013,
  "promo</w>": 8014,
  "nnive</w>": 8015,
  "notal": 8016,
  "selfrediscovery</w>": 8017,
  "appendi": 8018,
  "tant</w>": 8019,
  "yedand</w>": 8020,
  "icidethen</w>": 8021,
  "mminen": 8022,
  "cki": 8023,
  "topas</w>": 8024,
  "chise</w>": 8025,
  "disow": 8026,
  "tunaly</w>": 8027,
  "nexperience</w>": 8028,
  "pachy": 8029,
  "affeci": 8030,
  "thatwas": 8031,
  "bels</w>": 8032,
  "dreams</w>": 8033,
  "kedu</w>": 8034,
  "gals</w>": 8035,
  "manage": 8036,
  "gretful</w>": 8037,
  "strad": 8038,
  "inthedark</w>": 8039,
  "veer</w>": 8040,
  "averagely</w>": 8041,
  "cano": 8042,
  "steed</w>": 8043,
  "summarisation": 8044,
  "aapoc</w>": 8045,
  "ambrosine</w>": 8046,
  "christinasavs</w>": 8047,
  "cowar": 8048,
  "rof</w>": 8049,
  "pana": 8050,
  "lence</w>": 8051,
  "wesley</w>": 8052,
  "avenged</w>": 8053,
  "solute</w>": 8054,
  "amoralitybr</w>": 8055,
  "brick</w>": 8056,
  "queeque": 8057,
  "emoon</w>": 8058,
  "placei</w>": 8059,
  "whomever": 8060,
  "upu": 8061,
  "piedi": 8062,
  "aally</w>": 8063,
  "explainer</w>": 8064,
  "thold</w>": 8065,
  "ckel</w>": 8066,
  "gral</w>": 8067,
  "evels</w>": 8068,
  "chaim": 8069,
  "hallow</w>": 8070,
  "todirec": 8071,
  "fuleven</w>": 8072,
  "icenn</w>": 8073,
  "nnaiseries</w>": 8074,
  "gagen": 8075,
  "tames</w>": 8076,
  "wout</w>": 8077,
  "superup": 8078,
  "imaginaire</w>": 8079,
  "labo": 8080,
  "davis": 8081,
  "spanishamerican</w>": 8082,
  "canetwir": 8083,
  "grald</w>": 8084,
  "booby</w>": 8085,
  "mints</w>": 8086,
  "must</w>": 8087,
  "hints</w>": 8088,
  "bachs</w>": 8089,
  "espisode</w>": 8090,
  "leashed": 8091,
  "loulous</w>": 8092,
  "canal</w>": 8093,
  "mayo</w>": 8094,
  "spaw": 8095,
  "stout</w>": 8096,
  "bradys</w>": 8097,
  "cai": 8098,
  "hacks</w>": 8099,
  "rigidity</w>": 8100,
  "pricevalue</w>": 8101,
  "kendinede": 8102,
  "dominick</w>": 8103,
  "twheel</w>": 8104,
  "kaku": 8105,
  "xidents</w>": 8106,
  "kul</w>": 8107,
  "comparesespecially</w>": 8108,
  "chisebr</w>": 8109,
  "correlating</w>": 8110,
  "suny</w>": 8111,
  "lavesbr</w>": 8112,
  "fouled</w>": 8113,
  "sinau": 8114,
  "rimefilm</w>": 8115,
  "fintwit": 8116,
  "amai": 8117,
  "boni</w>": 8118,
  "tivist": 8119,
  "chomani": 8120,
  "jupiters</w>": 8121,
  "stupiditwas": 8122,
  "leaded</w>": 8123,
  "palefaced</w>": 8124,
  "pickie</w>": 8125,
  "boredi</w>": 8126,
  "nathani": 8127,
  "amature</w>": 8128,
  "turn</w>": 8129,
  "pairable</w>": 8130,
  "memorability</w>": 8131,
  "maniceurope": 8132,
  "notalent</w>": 8133,
  "podigi": 8134,
  "grandes</w>": 8135,
  "tammys</w>": 8136,
  "copene</w>": 8137,
  "pointi</w>": 8138,
  "lup": 8139,
  "abetes</w>": 8140,
  "gacup</w>": 8141,
  "superagers</w>": 8142,
  "oro": 8143,
  "chet": 8144,
  "trishs</w>": 8145,
  "bangon</w>": 8146,
  "lynnimagine</w>": 8147,
  "pof</w>": 8148,
  "onesen": 8149,
  "carac": 8150,
  "strels</w>": 8151,
  "lackey</w>": 8152,
  "robberies</w>": 8153,
  "leverything</w>": 8154,
  "angies</w>": 8155,
  "kute</w>": 8156,
  "caredand</w>": 8157,
  "sthansatis": 8158,
  "hairi": 8159,
  "polyester</w>": 8160,
  "soun": 8161,
  "galligan</w>": 8162,
  "viere</w>": 8163,
  "stompers</w>": 8164,
  "plastici": 8165,
  "aticani</w>": 8166,
  "wakame</w>": 8167,
  "transpire": 8168,
  "rispimp</w>": 8169,
  "soundobviously</w>": 8170,
  "roceri": 8171,
  "dedicatedbr</w>": 8172,
  "mcinema</w>": 8173,
  "rale": 8174,
  "locations</w>": 8175,
  "alee</w>": 8176,
  "chul</w>": 8177,
  "lowish</w>": 8178,
  "gobbo": 8179,
  "brave": 8180,
  "angay</w>": 8181,
  "nnet</w>": 8182,
  "ragrant</w>": 8183,
  "wonders</w>": 8184,
  "stun": 8185,
  "leed</w>": 8186,
  "pedo</w>": 8187,
  "uresbr</w>": 8188,
  "ruleno</w>": 8189,
  "arescrackers</w>": 8190,
  "restraintbr</w>": 8191,
  "preserved</w>": 8192,
  "daimai": 8193,
  "medont</w>": 8194,
  "mai</w>": 8195,
  "pathetic": 8196,
  "atybr</w>": 8197,
  "aboriginals</w>": 8198,
  "againalthough</w>": 8199,
  "marathi</w>": 8200,
  "ferici": 8201,
  "ledout</w>": 8202,
  "fune</w>": 8203,
  "seloving</w>": 8204,
  "lambaste</w>": 8205,
  "halfali": 8206,
  "sedu": 8207,
  "matone": 8208,
  "populationbr</w>": 8209,
  "alonestyle</w>": 8210,
  "caf</w>": 8211,
  "cheesily</w>": 8212,
  "threereelers</w>": 8213,
  "siric</w>": 8214,
  "denary</w>": 8215,
  "configuration</w>": 8216,
  "ighann</w>": 8217,
  "doc</w>": 8218,
  "onetime": 8219,
  "icidelove</w>": 8220,
  "tatives</w>": 8221,
  "chocks</w>": 8222,
  "lock</w>": 8223,
  "outyou</w>": 8224,
  "chomping</w>": 8225,
  "broder</w>": 8226,
  "macadams</w>": 8227,
  "thad": 8228,
  "seg": 8229,
  "capitated</w>": 8230,
  "cadesand</w>": 8231,
  "platoonbr</w>": 8232,
  "onespeci": 8233,
  "phonestwo</w>": 8234,
  "dramatically</w>": 8235,
  "agonising</w>": 8236,
  "compost</w>": 8237,
  "tomis</w>": 8238,
  "gha</w>": 8239,
  "angirl</w>": 8240,
  "cinerating</w>": 8241,
  "angeloo": 8242,
  "tapi": 8243,
  "riser": 8244,
  "stratagem</w>": 8245,
  "holy": 8246,
  "domain</w>": 8247,
  "pelicangs</w>": 8248,
  "povs</w>": 8249,
  "girls</w>": 8250,
  "dak": 8251,
  "goware</w>": 8252,
  "waf": 8253,
  "selo": 8254,
  "tremor": 8255,
  "wacki</w>": 8256,
  "leastinspired</w>": 8257,
  "halfrealized</w>": 8258,
  "teenagesurvi": 8259,
  "samurai</w>": 8260,
  "everyonesbr</w>": 8261,
  "zzar": 8262,
  "boney</w>": 8263,
  "tenick</w>": 8264,
  "istic</w>": 8265,
  "setoco": 8266,
  "naturethe</w>": 8267,
  "underatedanne</w>": 8268,
  "metacinema</w>": 8269,
  "kimo</w>": 8270,
  "yester</w>": 8271,
  "obin</w>": 8272,
  "straigh": 8273,
  "shocks</w>": 8274,
  "ligacy</w>": 8275,
  "dexplo": 8276,
  "gradin": 8277,
  "tatou</w>": 8278,
  "ammovies</w>": 8279,
  "dooms</w>": 8280,
  "affairs</w>": 8281,
  "profiles</w>": 8282,
  "notatall</w>": 8283,
  "cedinspired</w>": 8284,
  "sadoul</w>": 8285,
  "beleave</w>": 8286,
  "abomini": 8287,
  "antithat</w>": 8288,
  "shakedown": 8289,
  "tasises</w>": 8290,
  "parating</w>": 8291,
  "beforethose</w>": 8292,
  "ledom</w>": 8293,
  "japanesebr</w>": 8294,
  "fetishises</w>": 8295,
  "endemon</w>": 8296,
  "cini": 8297,
  "mam": 8298,
  "boompow</w>": 8299,
  "dogs</w>": 8300,
  "timeu</w>": 8301,
  "male": 8302,
  "schar": 8303,
  "villainn": 8304,
  "fechangin": 8305,
  "taran</w>": 8306,
  "europep": 8307,
  "thesky</w>": 8308,
  "move": 8309,
  "derer</w>": 8310,
  "wasco</w>": 8311,
  "retc</w>": 8312,
  "itoh</w>": 8313,
  "dvil": 8314,
  "moovie": 8315,
  "ticlike</w>": 8316,
  "moodin</w>": 8317,
  "failureuntil</w>": 8318,
  "mendi": 8319,
  "mups</w>": 8320,
  "agi</w>": 8321,
  "nnany</w>": 8322,
  "niran</w>": 8323,
  "tolerable</w>": 8324,
  "chestrator</w>": 8325,
  "beendirector</w>": 8326,
  "ist": 8327,
  "cili": 8328,
  "appear": 8329,
  "rorise</w>": 8330,
  "edy": 8331,
  "withoutyou</w>": 8332,
  "toola</w>": 8333,
  "brauns</w>": 8334,
  "nners</w>": 8335,
  "flaps</w>": 8336,
  "ischer": 8337,
  "withamessage</w>": 8338,
  "hesto": 8339,
  "ballys</w>": 8340,
  "unaided</w>": 8341,
  "antigenic</w>": 8342,
  "lowe</w>": 8343,
  "jani</w>": 8344,
  "gored</w>": 8345,
  "getwhere</w>": 8346,
  "turecomplete</w>": 8347,
  "robide": 8348,
  "atty</w>": 8349,
  "bonated</w>": 8350,
  "cesall</w>": 8351,
  "aches</w>": 8352,
  "mbu": 8353,
  "banishing</w>": 8354,
  "isesand</w>": 8355,
  "wallaces</w>": 8356,
  "thoughan</w>": 8357,
  "esars</w>": 8358,
  "selfas": 8359,
  "cretary": 8360,
  "predilections</w>": 8361,
  "muss</w>": 8362,
  "yul</w>": 8363,
  "chelons</w>": 8364,
  "castand</w>": 8365,
  "defur</w>": 8366,
  "tonighthopefully</w>": 8367,
  "baru</w>": 8368,
  "omans</w>": 8369,
  "dessicated</w>": 8370,
  "advocates</w>": 8371,
  "stilities</w>": 8372,
  "conflates</w>": 8373,
  "higheffects</w>": 8374,
  "sically": 8375,
  "brenne": 8376,
  "hareraisin": 8377,
  "enginen</w>": 8378,
  "kaps</w>": 8379,
  "stefanovic</w>": 8380,
  "piratesbr</w>": 8381,
  "pater</w>": 8382,
  "ffant</w>": 8383,
  "bloodan": 8384,
  "balaun</w>": 8385,
  "qul": 8386,
  "brainn": 8387,
  "channin": 8388,
  "twisteven</w>": 8389,
  "evidences</w>": 8390,
  "inescapab": 8391,
  "onels</w>": 8392,
  "metallo</w>": 8393,
  "fantasy</w>": 8394,
  "posely": 8395,
  "elice</w>": 8396,
  "antiveniti": 8397,
  "dispute</w>": 8398,
  "lith": 8399,
  "sampat</w>": 8400,
  "jave</w>": 8401,
  "rithek</w>": 8402,
  "ying</w>": 8403,
  "denn</w>": 8404,
  "musicradu</w>": 8405,
  "jupiter": 8406,
  "atits</w>": 8407,
  "yeur</w>": 8408,
  "facu</w>": 8409,
  "territories</w>": 8410,
  "arybr</w>": 8411,
  "eunder": 8412,
  "joran": 8413,
  "nnappreciate</w>": 8414,
  "ices": 8415,
  "bodied</w>": 8416,
  "ravell</w>": 8417,
  "teri": 8418,
  "enesque</w>": 8419,
  "scarole</w>": 8420,
  "ut": 8421,
  "warin": 8422,
  "jasperain</w>": 8423,
  "maari": 8424,
  "sarato": 8425,
  "ssical</w>": 8426,
  "trouble</w>": 8427,
  "festly</w>": 8428,
  "amanager</w>": 8429,
  "vered</w>": 8430,
  "coconutty</w>": 8431,
  "spider": 8432,
  "sunil</w>": 8433,
  "nobone</w>": 8434,
  "withare</w>": 8435,
  "originalso</w>": 8436,
  "tocuren": 8437,
  "auras</w>": 8438,
  "unneeded</w>": 8439,
  "stelanit": 8440,
  "yoruba</w>": 8441,
  "tatical</w>": 8442,
  "kamo": 8443,
  "apricot</w>": 8444,
  "ature": 8445,
  "heremone</w>": 8446,
  "gour": 8447,
  "yeseven</w>": 8448,
  "salamat</w>": 8449,
  "celerator</w>": 8450,
  "happenand</w>": 8451,
  "jeffer": 8452,
  "radus</w>": 8453,
  "penalise</w>": 8454,
  "spaghet": 8455,
  "senack": 8456,
  "grily</w>": 8457,
  "magick": 8458,
  "planting</w>": 8459,
  "deto": 8460,
  "data": 8461,
  "everele": 8462,
  "connol": 8463,
  "dviews</w>": 8464,
  "terileab": 8465,
  "gherabracadabrab": 8466,
  "rulethe": 8467,
  "keeffe</w>": 8468,
  "waal": 8469,
  "romin": 8470,
  "cad": 8471,
  "eurasi": 8472,
  "sennoperators</w>": 8473,
  "weetwater</w>": 8474,
  "ansishing</w>": 8475,
  "winding</w>": 8476,
  "tachy</w>": 8477,
  "site</w>": 8478,
  "laviclooking</w>": 8479,
  "thus</w>": 8480,
  "appolina</w>": 8481,
  "ilived</w>": 8482,
  "unidi": 8483,
  "iteratenn": 8484,
  "melisa</w>": 8485,
  "dadoll</w>": 8486,
  "sanatori": 8487,
  "danovichbr</w>": 8488,
  "bear": 8489,
  "lint</w>": 8490,
  "parte": 8491,
  "mocked</w>": 8492,
  "releasegood</w>": 8493,
  "steffanan": 8494,
  "planethu": 8495,
  "plainti": 8496,
  "contestant</w>": 8497,
  "lisai": 8498,
  "outavoid</w>": 8499,
  "stainably</w>": 8500,
  "west</w>": 8501,
  "fif</w>": 8502,
  "tourangel": 8503,
  "malles</w>": 8504,
  "allover": 8505,
  "lobbish": 8506,
  "capabilites</w>": 8507,
  "danity</w>": 8508,
  "vocabularies</w>": 8509,
  "tard</w>": 8510,
  "exitin": 8511,
  "mack": 8512,
  "transitions</w>": 8513,
  "alope": 8514,
  "ruler</w>": 8515,
  "stwon": 8516,
  "cessitated</w>": 8517,
  "kasarap</w>": 8518,
  "shamoo</w>": 8519,
  "shiping</w>": 8520,
  "melita</w>": 8521,
  "rodden</w>": 8522,
  "sagesbr</w>": 8523,
  "boxi": 8524,
  "choc": 8525,
  "whiny</w>": 8526,
  "chagrined</w>": 8527,
  "ainnaitechnology</w>": 8528,
  "jeunet</w>": 8529,
  "ritenn": 8530,
  "ons</w>": 8531,
  "filmbesidesthe</w>": 8532,
  "migods</w>": 8533,
  "lobbr</w>": 8534,
  "straighter</w>": 8535,
  "adv": 8536,
  "crennas</w>": 8537,
  "cutely</w>": 8538,
  "linteri</w>": 8539,
  "perforation</w>": 8540,
  "villan</w>": 8541,
  "goodrichs</w>": 8542,
  "balt</w>": 8543,
  "tomos</w>": 8544,
  "chevin": 8545,
  "liner": 8546,
  "repel": 8547,
  "nastur": 8548,
  "yethe</w>": 8549,
  "grape": 8550,
  "camerairony</w>": 8551,
  "saag</w>": 8552,
  "seracing</w>": 8553,
  "balad</w>": 8554,
  "doner</w>": 8555,
  "sell</w>": 8556,
  "dapi</w>": 8557,
  "gabu": 8558,
  "chou": 8559,
  "oola</w>": 8560,
  "crematori": 8561,
  "nope</w>": 8562,
  "aleci": 8563,
  "teasy</w>": 8564,
  "minding</w>": 8565,
  "listy</w>": 8566,
  "moviesome</w>": 8567,
  "scatters</w>": 8568,
  "plac": 8569,
  "fishhoo": 8570,
  "mbag": 8571,
  "menai": 8572,
  "ceis": 8573,
  "halfagainst</w>": 8574,
  "releasesbr</w>": 8575,
  "jamaicabut</w>": 8576,
  "stigation</w>": 8577,
  "anupam": 8578,
  "mida</w>": 8579,
  "alok</w>": 8580,
  "unexpecting</w>": 8581,
  "fiden": 8582,
  "olabr</w>": 8583,
  "pointof": 8584,
  "volu": 8585,
  "metafiction</w>": 8586,
  "brigadoons</w>": 8587,
  "clavichor": 8588,
  "gons</w>": 8589,
  "imposing</w>": 8590,
  "bones": 8591,
  "comiclike</w>": 8592,
  "e": 8593,
  "lesour</w>": 8594,
  "leaching</w>": 8595,
  "naif</w>": 8596,
  "melody": 8597,
  "vennopenai</w>": 8598,
  "sumin</w>": 8599,
  "reminescent</w>": 8600,
  "binonis</w>": 8601,
  "imc</w>": 8602,
  "halfass</w>": 8603,
  "danes</w>": 8604,
  "ghowever</w>": 8605,
  "hafunny</w>": 8606,
  "stest</w>": 8607,
  "timescap": 8608,
  "katbr</w>": 8609,
  "jured</w>": 8610,
  "rang": 8611,
  "geer": 8612,
  "briton</w>": 8613,
  "rim</w>": 8614,
  "jalad</w>": 8615,
  "licans</w>": 8616,
  "sterated</w>": 8617,
  "pisces": 8618,
  "soneverybody</w>": 8619,
  "clichesbr</w>": 8620,
  "betie</w>": 8621,
  "sapped</w>": 8622,
  "poste": 8623,
  "rophoto</w>": 8624,
  "selfrealisation</w>": 8625,
  "vestre</w>": 8626,
  "twor": 8627,
  "hashopi": 8628,
  "janit</w>": 8629,
  "nomoremar": 8630,
  "minorits</w>": 8631,
  "chero</w>": 8632,
  "nuno</w>": 8633,
  "hambur": 8634,
  "jerol</w>": 8635,
  "pam</w>": 8636,
  "terically</w>": 8637,
  "rosab": 8638,
  "lackeres": 8639,
  "mple</w>": 8640,
  "sinessideas</w>": 8641,
  "inedo": 8642,
  "gamemon": 8643,
  "derits</w>": 8644,
  "capitalised</w>": 8645,
  "sess</w>": 8646,
  "esquire</w>": 8647,
  "availability</w>": 8648,
  "wellokay</w>": 8649,
  "labborder</w>": 8650,
  "couros</w>": 8651,
  "juni": 8652,
  "wera</w>": 8653,
  "arefire</w>": 8654,
  "solicited</w>": 8655,
  "poteni": 8656,
  "zzel": 8657,
  "sige</w>": 8658,
  "prosaic</w>": 8659,
  "goricaly</w>": 8660,
  "aunatural</w>": 8661,
  "beforenamely</w>": 8662,
  "callories</w>": 8663,
  "japanesethe</w>": 8664,
  "rabid</w>": 8665,
  "eliro": 8666,
  "imovie</w>": 8667,
  "bbi": 8668,
  "tastefully</w>": 8669,
  "mimon": 8670,
  "bearish</w>": 8671,
  "focus</w>": 8672,
  "rowan</w>": 8673,
  "pointold</w>": 8674,
  "recomman": 8675,
  "timescomes</w>": 8676,
  "nindu": 8677,
  "movieren": 8678,
  "roov": 8679,
  "moraka</w>": 8680,
  "aileen": 8681,
  "microsof": 8682,
  "proffering</w>": 8683,
  "baratari": 8684,
  "distaff</w>": 8685,
  "trand</w>": 8686,
  "maclag": 8687,
  "romer</w>": 8688,
  "spout</w>": 8689,
  "teed</w>": 8690,
  "dratic</w>": 8691,
  "alexilalas</w>": 8692,
  "nanimously</w>": 8693,
  "makis</w>": 8694,
  "larrive</w>": 8695,
  "turethick": 8696,
  "retolerant</w>": 8697,
  "seles": 8698,
  "thusband</w>": 8699,
  "policef": 8700,
  "tocode</w>": 8701,
  "colono": 8702,
  "oren</w>": 8703,
  "gafter</w>": 8704,
  "doil</w>": 8705,
  "stravin": 8706,
  "walloni": 8707,
  "tomickey</w>": 8708,
  "alandamerican</w>": 8709,
  "straitened</w>": 8710,
  "planit</w>": 8711,
  "italian</w>": 8712,
  "alabamas</w>": 8713,
  "mathers</w>": 8714,
  "questioneno": 8715,
  "theneener</w>": 8716,
  "somar": 8717,
  "elasebr</w>": 8718,
  "nenjoying</w>": 8719,
  "competitor</w>": 8720,
  "balaclava</w>": 8721,
  "inthemir": 8722,
  "stalinist</w>": 8723,
  "ironists</w>": 8724,
  "bour</w>": 8725,
  "roother": 8726,
  "gold</w>": 8727,
  "multilevel</w>": 8728,
  "scotish</w>": 8729,
  "straight</w>": 8730,
  "oran": 8731,
  "atani": 8732,
  "chesand</w>": 8733,
  "gamesh</w>": 8734,
  "trite</w>": 8735,
  "madedu": 8736,
  "ocas": 8737,
  "beets</w>": 8738,
  "naturel</w>": 8739,
  "manni</w>": 8740,
  "mitali</w>": 8741,
  "himit</w>": 8742,
  "omanargu": 8743,
  "atil</w>": 8744,
  "disatis": 8745,
  "somper</w>": 8746,
  "inne": 8747,
  "missunderstand</w>": 8748,
  "intake</w>": 8749,
  "melange</w>": 8750,
  "luperfect</w>": 8751,
  "bbing</w>": 8752,
  "atheraly": 8753,
  "boul</w>": 8754,
  "dragooned</w>": 8755,
  "remini</w>": 8756,
  "cani</w>": 8757,
  "nnew": 8758,
  "hope</w>": 8759,
  "torin": 8760,
  "cetwit": 8761,
  "timistic</w>": 8762,
  "wisenot</w>": 8763,
  "rascals</w>": 8764,
  "traine</w>": 8765,
  "omano</w>": 8766,
  "avier</w>": 8767,
  "gails</w>": 8768,
  "mistrals</w>": 8769,
  "terri</w>": 8770,
  "live</w>": 8771,
  "rinesweet</w>": 8772,
  "lyold</w>": 8773,
  "unexperien": 8774,
  "remake": 8775,
  "nedly</w>": 8776,
  "wh</w>": 8777,
  "pathic</w>": 8778,
  "famil": 8779,
  "stives</w>": 8780,
  "sticebr</w>": 8781,
  "neven</w>": 8782,
  "rophotography</w>": 8783,
  "mindon</w>": 8784,
  "spatial</w>": 8785,
  "limely</w>": 8786,
  "twareni</w>": 8787,
  "callanan</w>": 8788,
  "annu": 8789,
  "anyoneskid</w>": 8790,
  "tritely</w>": 8791,
  "aided</w>": 8792,
  "aitos</w>": 8793,
  "satwo</w>": 8794,
  "ronat</w>": 8795,
  "tines</w>": 8796,
  "frequents</w>": 8797,
  "wex": 8798,
  "case</w>": 8799,
  "lais": 8800,
  "janina</w>": 8801,
  "nuns</w>": 8802,
  "peracaula</w>": 8803,
  "asire": 8804,
  "chased": 8805,
  "homesitting</w>": 8806,
  "andres</w>": 8807,
  "jarie</w>": 8808,
  "flagel": 8809,
  "omeninainn</w>": 8810,
  "restocking</w>": 8811,
  "satish</w>": 8812,
  "asand</w>": 8813,
  "bricabrac</w>": 8814,
  "dacute</w>": 8815,
  "gravesbr</w>": 8816,
  "faberies</w>": 8817,
  "gallops</w>": 8818,
  "ganger": 8819,
  "rissimil": 8820,
  "preset</w>": 8821,
  "interisting</w>": 8822,
  "cren": 8823,
  "recon</w>": 8824,
  "commemorated</w>": 8825,
  "essitam</w>": 8826,
  "lexplat": 8827,
  "synesthesi": 8828,
  "gallate</w>": 8829,
  "skie</w>": 8830,
  "henominal</w>": 8831,
  "madarin</w>": 8832,
  "releaseseither</w>": 8833,
  "simdb</w>": 8834,
  "allal": 8835,
  "depravities</w>": 8836,
  "cabinet</w>": 8837,
  "shampoo</w>": 8838,
  "parated</w>": 8839,
  "manganous</w>": 8840,
  "etrichell</w>": 8841,
  "benel": 8842,
  "chansbr</w>": 8843,
  "traction</w>": 8844,
  "hilan": 8845,
  "priceif</w>": 8846,
  "hakuna</w>": 8847,
  "tereurope</w>": 8848,
  "antinu": 8849,
  "spon": 8850,
  "lyou</w>": 8851,
  "drakar</w>": 8852,
  "radulescu": 8853,
  "supereffici": 8854,
  "shita</w>": 8855,
  "grint</w>": 8856,
  "programmes</w>": 8857,
  "keennits</w>": 8858,
  "nalso</w>": 8859,
  "timespace</w>": 8860,
  "crazy</w>": 8861,
  "imitation</w>": 8862,
  "dee</w>": 8863,
  "aap</w>": 8864,
  "lobotomised</w>": 8865,
  "botheredbr</w>": 8866,
  "waiters</w>": 8867,
  "landry</w>": 8868,
  "dobetter</w>": 8869,
  "spreading</w>": 8870,
  "suckedi</w>": 8871,
  "fredobroc": 8872,
  "dear": 8873,
  "hamcar": 8874,
  "karam": 8875,
  "lilain</w>": 8876,
  "strain</w>": 8877,
  "salitos</w>": 8878,
  "sidesbr</w>": 8879,
  "miraculously</w>": 8880,
  "eries</w>": 8881,
  "daines</w>": 8882,
  "adache": 8883,
  "ferations</w>": 8884,
  "tuple</w>": 8885,
  "hody</w>": 8886,
  "torally</w>": 8887,
  "codereview</w>": 8888,
  "deesound</w>": 8889,
  "emovie</w>": 8890,
  "pienatalie</w>": 8891,
  "cashi": 8892,
  "deesh</w>": 8893,
  "imamusedim": 8894,
  "intendon": 8895,
  "dodont</w>": 8896,
  "miscoming</w>": 8897,
  "rati</w>": 8898,
  "communistre": 8899,
  "chestrating</w>": 8900,
  "suge</w>": 8901,
  "geethe</w>": 8902,
  "bra</w>": 8903,
  "roches</w>": 8904,
  "altere": 8905,
  "riminate</w>": 8906,
  "lophobe</w>": 8907,
  "ffiths</w>": 8908,
  "icune</w>": 8909,
  "lashes</w>": 8910,
  "lyno</w>": 8911,
  "gerol": 8912,
  "darus</w>": 8913,
  "aftering</w>": 8914,
  "worls</w>": 8915,
  "sovo</w>": 8916,
  "derated</w>": 8917,
  "stagefor</w>": 8918,
  "digbr</w>": 8919,
  "panning</w>": 8920,
  "ninteen</w>": 8921,
  "seflamin</w>": 8922,
  "ricky": 8923,
  "vening</w>": 8924,
  "nanni": 8925,
  "wellinfor": 8926,
  "binnall</w>": 8927,
  "aface</w>": 8928,
  "behaving</w>": 8929,
  "mempool</w>": 8930,
  "ammy</w>": 8931,
  "sidethe": 8932,
  "jessicaci": 8933,
  "lametaphor</w>": 8934,
  "soper": 8935,
  "pability": 8936,
  "trackand</w>": 8937,
  "stomachu": 8938,
  "athan</w>": 8939,
  "intheru": 8940,
  "leansers</w>": 8941,
  "hating</w>": 8942,
  "lisps</w>": 8943,
  "finner": 8944,
  "veredbr</w>": 8945,
  "peplo": 8946,
  "platter</w>": 8947,
  "bowha": 8948,
  "elea": 8949,
  "soclose</w>": 8950,
  "stallonethat</w>": 8951,
  "rarity</w>": 8952,
  "pretend</w>": 8953,
  "scriminals</w>": 8954,
  "todesking</w>": 8955,
  "eski": 8956,
  "ganically</w>": 8957,
  "hend</w>": 8958,
  "end": 8959,
  "dragons</w>": 8960,
  "kate": 8961,
  "shoved</w>": 8962,
  "eters</w>": 8963,
  "hamer</w>": 8964,
  "imono</w>": 8965,
  "hovers</w>": 8966,
  "underexplained</w>": 8967,
  "shuri": 8968,
  "rapid</w>": 8969,
  "mouredev": 8970,
  "tastful</w>": 8971,
  "redavid</w>": 8972,
  "entertanment</w>": 8973,
  "resituation</w>": 8974,
  "bar": 8975,
  "squeni": 8976,
  "euphori": 8977,
  "arouse</w>": 8978,
  "berattack</w>": 8979,
  "romareleased</w>": 8980,
  "essen</w>": 8981,
  "lators</w>": 8982,
  "nitting</w>": 8983,
  "amination</w>": 8984,
  "adaches</w>": 8985,
  "yupit": 8986,
  "basisthat</w>": 8987,
  "abolitionists</w>": 8988,
  "toonnop</w>": 8989,
  "gafe</w>": 8990,
  "staan</w>": 8991,
  "lakbr</w>": 8992,
  "ute</w>": 8993,
  "mmare": 8994,
  "himmesh</w>": 8995,
  "cutouts</w>": 8996,
  "isan</w>": 8997,
  "benetwhose</w>": 8998,
  "hanacade": 8999,
  "stalinists</w>": 9000,
  "loov": 9001,
  "strict</w>": 9002,
  "nnamp</w>": 9003,
  "cattery</w>": 9004,
  "gama</w>": 9005,
  "homini": 9006,
  "lespoons</w>": 9007,
  "annabel": 9008,
  "ssimulated</w>": 9009,
  "fagin</w>": 9010,
  "advisenn": 9011,
  "romboli": 9012,
  "mitis": 9013,
  "saito</w>": 9014,
  "kins</w>": 9015,
  "performance</w>": 9016,
  "adored</w>": 9017,
  "flage</w>": 9018,
  "predicate</w>": 9019,
  "firetwir": 9020,
  "pesos</w>": 9021,
  "yoon": 9022,
  "sidesteps</w>": 9023,
  "lessimpressi": 9024,
  "lousing</w>": 9025,
  "gate": 9026,
  "patha</w>": 9027,
  "acation": 9028,
  "hif</w>": 9029,
  "kup": 9030,
  "benefical</w>": 9031,
  "hesters</w>": 9032,
  "rationale</w>": 9033,
  "player</w>": 9034,
  "meritocracy</w>": 9035,
  "stw": 9036,
  "shabbos</w>": 9037,
  "sprevi": 9038,
  "nashaw": 9039,
  "monauts</w>": 9040,
  "nores</w>": 9041,
  "intolerable</w>": 9042,
  "tora</w>": 9043,
  "toledos</w>": 9044,
  "timon": 9045,
  "intimate</w>": 9046,
  "agoodendin": 9047,
  "souse</w>": 9048,
  "mithers</w>": 9049,
  "kadon": 9050,
  "masala</w>": 9051,
  "ammobr</w>": 9052,
  "vonimir</w>": 9053,
  "duneup": 9054,
  "staryeah</w>": 9055,
  "stowes</w>": 9056,
  "veday</w>": 9057,
  "runnable</w>": 9058,
  "wasim</w>": 9059,
  "spescially</w>": 9060,
  "raders</w>": 9061,
  "podes</w>": 9062,
  "shocku": 9063,
  "stickbr</w>": 9064,
  "hopetoun</w>": 9065,
  "lical</w>": 9066,
  "flats</w>": 9067,
  "tearye": 9068,
  "lat": 9069,
  "ilies</w>": 9070,
  "gedren</w>": 9071,
  "karo": 9072,
  "thanexpected</w>": 9073,
  "pigle</w>": 9074,
  "aks</w>": 9075,
  "nic</w>": 9076,
  "schedu": 9077,
  "lelu": 9078,
  "magickal</w>": 9079,
  "delovely</w>": 9080,
  "apossibly</w>": 9081,
  "shinn": 9082,
  "limmers</w>": 9083,
  "camino</w>": 9084,
  "samok</w>": 9085,
  "nicole": 9086,
  "ammunition</w>": 9087,
  "spoon": 9088,
  "development</w>": 9089,
  "evs</w>": 9090,
  "ishi</w>": 9091,
  "iri</w>": 9092,
  "abilitybr</w>": 9093,
  "whitelist</w>": 9094,
  "inore": 9095,
  "wauter": 9096,
  "rini</w>": 9097,
  "zzi": 9098,
  "milano</w>": 9099,
  "mmi</w>": 9100,
  "by</w>": 9101,
  "canaries</w>": 9102,
  "tionalespecially</w>": 9103,
  "gallilean</w>": 9104,
  "desac": 9105,
  "asu</w>": 9106,
  "tacked</w>": 9107,
  "houns</w>": 9108,
  "tagov": 9109,
  "hafunn": 9110,
  "corate</w>": 9111,
  "stickybr</w>": 9112,
  "mathe": 9113,
  "storage": 9114,
  "rolo</w>": 9115,
  "sading</w>": 9116,
  "toro</w>": 9117,
  "gigagu": 9118,
  "ofall": 9119,
  "hearted</w>": 9120,
  "toral</w>": 9121,
  "lanoir</w>": 9122,
  "positions</w>": 9123,
  "nightw": 9124,
  "tiness</w>": 9125,
  "scopop": 9126,
  "finer": 9127,
  "ovon</w>": 9128,
  "endat</w>": 9129,
  "ceseven</w>": 9130,
  "mound</w>": 9131,
  "girly": 9132,
  "satur": 9133,
  "dignity</w>": 9134,
  "xic": 9135,
  "sonaf": 9136,
  "minoritys</w>": 9137,
  "click": 9138,
  "feedbr</w>": 9139,
  "recognised</w>": 9140,
  "mitsbr</w>": 9141,
  "lacrazy</w>": 9142,
  "nover</w>": 9143,
  "nudity</w>": 9144,
  "soviet": 9145,
  "ghoweverit</w>": 9146,
  "officei</w>": 9147,
  "abreni": 9148,
  "resumereviewing</w>": 9149,
  "malist</w>": 9150,
  "goreeffec": 9151,
  "janov</w>": 9152,
  "mmel</w>": 9153,
  "jodi</w>": 9154,
  "lesubject</w>": 9155,
  "zerolawen": 9156,
  "schofi": 9157,
  "ditive": 9158,
  "nnoir</w>": 9159,
  "lagrimas</w>": 9160,
  "sopri": 9161,
  "crai": 9162,
  "procated</w>": 9163,
  "mooching</w>": 9164,
  "asthis</w>": 9165,
  "roceries</w>": 9166,
  "figurines</w>": 9167,
  "parak": 9168,
  "dimarie</w>": 9169,
  "nove</w>": 9170,
  "manicha": 9171,
  "aadri": 9172,
  "fetimen": 9173,
  "skinned</w>": 9174,
  "araci": 9175,
  "opa</w>": 9176,
  "operabru": 9177,
  "barrista</w>": 9178,
  "amenabar": 9179,
  "chatgptimes</w>": 9180,
  "detonated</w>": 9181,
  "strengh</w>": 9182,
  "lemore</w>": 9183,
  "notrespon": 9184,
  "thanaspeedin": 9185,
  "ninety": 9186,
  "levin</w>": 9187,
  "jenner</w>": 9188,
  "castic</w>": 9189,
  "micatatonic</w>": 9190,
  "hhover</w>": 9191,
  "particulate</w>": 9192,
  "amber": 9193,
  "manauthor</w>": 9194,
  "icidedi": 9195,
  "hakee</w>": 9196,
  "remanu": 9197,
  "prisonera</w>": 9198,
  "tionen": 9199,
  "kindu": 9200,
  "terimakasi": 9201,
  "gyour": 9202,
  "thenoloo": 9203,
  "mas": 9204,
  "thison": 9205,
  "aslee": 9206,
  "happily": 9207,
  "tolove</w>": 9208,
  "freshers</w>": 9209,
  "noch</w>": 9210,
  "ghanistan": 9211,
  "ropolations</w>": 9212,
  "hai": 9213,
  "ishh</w>": 9214,
  "canan</w>": 9215,
  "mars</w>": 9216,
  "glutens</w>": 9217,
  "sair": 9218,
  "vestigative</w>": 9219,
  "grand</w>": 9220,
  "mbranes</w>": 9221,
  "mooves</w>": 9222,
  "cartile": 9223,
  "bales</w>": 9224,
  "goremovies</w>": 9225,
  "zinne": 9226,
  "isee</w>": 9227,
  "bunal</w>": 9228,
  "amamura</w>": 9229,
  "ceurs</w>": 9230,
  "anin": 9231,
  "brister</w>": 9232,
  "sartic": 9233,
  "maintanance</w>": 9234,
  "icant</w>": 9235,
  "taintown</w>": 9236,
  "breedis</w>": 9237,
  "apie": 9238,
  "lemoraa</w>": 9239,
  "cupational</w>": 9240,
  "derigi": 9241,
  "athhor": 9242,
  "genation</w>": 9243,
  "b</w>": 9244,
  "soundin": 9245,
  "bakeside</w>": 9246,
  "talised</w>": 9247,
  "mintu": 9248,
  "yesand</w>": 9249,
  "racheler": 9250,
  "climberath": 9251,
  "savethe": 9252,
  "apas": 9253,
  "musuraca</w>": 9254,
  "pureed</w>": 9255,
  "ranged": 9256,
  "placeespecially</w>": 9257,
  "perfor": 9258,
  "missim": 9259,
  "widest</w>": 9260,
  "scrible</w>": 9261,
  "chor</w>": 9262,
  "nichol</w>": 9263,
  "wiset</w>": 9264,
  "relativi": 9265,
  "todolist</w>": 9266,
  "ropolitain</w>": 9267,
  "esce</w>": 9268,
  "toriloves": 9269,
  "stunin": 9270,
  "caffi": 9271,
  "dopes</w>": 9272,
  "agree": 9273,
  "timestamps</w>": 9274,
  "kesand</w>": 9275,
  "barem</w>": 9276,
  "tweeds</w>": 9277,
  "omovie</w>": 9278,
  "pointan": 9279,
  "javamp</w>": 9280,
  "ciroc</w>": 9281,
  "gravers</w>": 9282,
  "gendereth": 9283,
  "gadose</w>": 9284,
  "levine</w>": 9285,
  "gutsbr</w>": 9286,
  "causes</w>": 9287,
  "names": 9288,
  "syup</w>": 9289,
  "grocery</w>": 9290,
  "donoutside</w>": 9291,
  "rapier</w>": 9292,
  "benidict</w>": 9293,
  "trevethy": 9294,
  "spences</w>": 9295,
  "riteri</w>": 9296,
  "baras</w>": 9297,
  "whileno</w>": 9298,
  "rocku": 9299,
  "shann": 9300,
  "gaudily</w>": 9301,
  "futuretoo</w>": 9302,
  "dicover</w>": 9303,
  "hardestybr</w>": 9304,
  "appende": 9305,
  "lived</w>": 9306,
  "pacoffee</w>": 9307,
  "planes": 9308,
  "itacting</w>": 9309,
  "serenitybr</w>": 9310,
  "stear": 9311,
  "tunnah</w>": 9312,
  "filet</w>": 9313,
  "agramed</w>": 9314,
  "apposite</w>": 9315,
  "hop</w>": 9316,
  "hing</w>": 9317,
  "stomary</w>": 9318,
  "gow</w>": 9319,
  "beaudine</w>": 9320,
  "straw": 9321,
  "vestment</w>": 9322,
  "daises</w>": 9323,
  "seeds</w>": 9324,
  "neutral": 9325,
  "goodie</w>": 9326,
  "dais": 9327,
  "devout</w>": 9328,
  "polari": 9329,
  "jas</w>": 9330,
  "africannif</w>": 9331,
  "lowers</w>": 9332,
  "atamala</w>": 9333,
  "hasy</w>": 9334,
  "cavs</w>": 9335,
  "federer</w>": 9336,
  "noce": 9337,
  "ceful</w>": 9338,
  "transposing</w>": 9339,
  "bet": 9340,
  "coffeediscer": 9341,
  "mugly</w>": 9342,
  "tisedbr</w>": 9343,
  "jabbas</w>": 9344,
  "whispery</w>": 9345,
  "catharine</w>": 9346,
  "nam": 9347,
  "againit</w>": 9348,
  "sinnot": 9349,
  "labi": 9350,
  "contradicts</w>": 9351,
  "cessiti": 9352,
  "piratenn": 9353,
  "quor": 9354,
  "dofor": 9355,
  "vari": 9356,
  "tester</w>": 9357,
  "cheradven": 9358,
  "tearo": 9359,
  "rups</w>": 9360,
  "tagonal</w>": 9361,
  "crown</w>": 9362,
  "festsbr</w>": 9363,
  "thedeath</w>": 9364,
  "annick</w>": 9365,
  "ricard</w>": 9366,
  "relatable</w>": 9367,
  "profun": 9368,
  "apatite</w>": 9369,
  "katast": 9370,
  "experiments</w>": 9371,
  "resen": 9372,
  "delarosa</w>": 9373,
  "ovichs</w>": 9374,
  "delou": 9375,
  "spiring</w>": 9376,
  "quista</w>": 9377,
  "roped</w>": 9378,
  "near": 9379,
  "manartist</w>": 9380,
  "thasi": 9381,
  "docharacters</w>": 9382,
  "mask</w>": 9383,
  "musicalone</w>": 9384,
  "combinationn": 9385,
  "chunfortunately</w>": 9386,
[...]
